{
  "version": "1.0",
  "truncation": null,
  "padding": null,
  "added_tokens": [
    {
      "id": 0,
      "content": "[UNK]",
      "single_word": false,
      "lstrip": false,
      "rstrip": false,
      "normalized": false,
      "special": true
    },
    {
      "id": 1,
      "content": "[PAD]",
      "single_word": false,
      "lstrip": false,
      "rstrip": false,
      "normalized": false,
      "special": true
    },
    {
      "id": 2,
      "content": "[CLS]",
      "single_word": false,
      "lstrip": false,
      "rstrip": false,
      "normalized": false,
      "special": true
    },
    {
      "id": 3,
      "content": "[SEP]",
      "single_word": false,
      "lstrip": false,
      "rstrip": false,
      "normalized": false,
      "special": true
    },
    {
      "id": 4,
      "content": "[MASK]",
      "single_word": false,
      "lstrip": false,
      "rstrip": false,
      "normalized": false,
      "special": true
    }
  ],
  "normalizer": {
    "type": "Sequence",
    "normalizers": [
      {
        "type": "NFC"
      }
    ]
  },
  "pre_tokenizer": {
    "type": "WhitespaceSplit"
  },
  "post_processor": null,
  "decoder": {
    "type": "BPEDecoder",
    "suffix": "</w>"
  },
  "model": {
    "type": "BPE",
    "dropout": null,
    "unk_token": "[UNK]",
    "continuing_subword_prefix": null,
    "end_of_word_suffix": null,
    "fuse_unk": false,
    "byte_fallback": false,
    "ignore_merges": false,
    "vocab": {
      "[UNK]": 0,
      "[PAD]": 1,
      "[CLS]": 2,
      "[SEP]": 3,
      "[MASK]": 4,
      "\"": 5,
      "$": 6,
      "%": 7,
      "'": 8,
      "(": 9,
      ")": 10,
      "+": 11,
      ",": 12,
      "-": 13,
      ".": 14,
      "/": 15,
      "0": 16,
      "1": 17,
      "2": 18,
      "3": 19,
      "4": 20,
      "5": 21,
      "6": 22,
      "7": 23,
      "8": 24,
      "9": 25,
      ":": 26,
      ";": 27,
      "A": 28,
      "B": 29,
      "C": 30,
      "D": 31,
      "E": 32,
      "F": 33,
      "G": 34,
      "H": 35,
      "I": 36,
      "J": 37,
      "K": 38,
      "L": 39,
      "M": 40,
      "N": 41,
      "O": 42,
      "P": 43,
      "R": 44,
      "S": 45,
      "T": 46,
      "U": 47,
      "V": 48,
      "W": 49,
      "Y": 50,
      "Z": 51,
      "[": 52,
      "]": 53,
      "^": 54,
      "a": 55,
      "b": 56,
      "c": 57,
      "d": 58,
      "e": 59,
      "f": 60,
      "g": 61,
      "h": 62,
      "i": 63,
      "j": 64,
      "k": 65,
      "l": 66,
      "m": 67,
      "n": 68,
      "o": 69,
      "p": 70,
      "q": 71,
      "r": 72,
      "s": 73,
      "t": 74,
      "u": 75,
      "v": 76,
      "w": 77,
      "x": 78,
      "y": 79,
      "z": 80,
      "|": 81,
      "°": 82,
      "ā": 83,
      "ī": 84,
      "ə": 85,
      "ɦ": 86,
      "ɪ": 87,
      "ɾ": 88,
      "ʊ": 89,
      "ʱ": 90,
      "ˈ": 91,
      "ː": 92,
      "ί": 93,
      "α": 94,
      "δ": 95,
      "ν": 96,
      "ς": 97,
      "ό": 98,
      "ँ": 99,
      "ं": 100,
      "ः": 101,
      "अ": 102,
      "आ": 103,
      "इ": 104,
      "ई": 105,
      "उ": 106,
      "ऊ": 107,
      "ऋ": 108,
      "ए": 109,
      "ऐ": 110,
      "ऑ": 111,
      "ओ": 112,
      "औ": 113,
      "क": 114,
      "ख": 115,
      "ग": 116,
      "घ": 117,
      "च": 118,
      "छ": 119,
      "ज": 120,
      "झ": 121,
      "ञ": 122,
      "ट": 123,
      "ठ": 124,
      "ड": 125,
      "ढ": 126,
      "ण": 127,
      "त": 128,
      "थ": 129,
      "द": 130,
      "ध": 131,
      "न": 132,
      "प": 133,
      "फ": 134,
      "ब": 135,
      "भ": 136,
      "म": 137,
      "य": 138,
      "र": 139,
      "ऱ": 140,
      "ल": 141,
      "ळ": 142,
      "व": 143,
      "श": 144,
      "ष": 145,
      "स": 146,
      "ह": 147,
      "़": 148,
      "ा": 149,
      "ि": 150,
      "ी": 151,
      "ु": 152,
      "ू": 153,
      "ृ": 154,
      "ॅ": 155,
      "े": 156,
      "ै": 157,
      "ॉ": 158,
      "ो": 159,
      "ौ": 160,
      "्": 161,
      "ॠ": 162,
      "।": 163,
      "०": 164,
      "१": 165,
      "२": 166,
      "३": 167,
      "४": 168,
      "५": 169,
      "६": 170,
      "७": 171,
      "८": 172,
      "९": 173,
      "॰": 174,
      "ॲ": 175,
      "ం": 176,
      "ః": 177,
      "అ": 178,
      "ఆ": 179,
      "ఇ": 180,
      "ఈ": 181,
      "ఉ": 182,
      "ఋ": 183,
      "ఎ": 184,
      "ఏ": 185,
      "ఐ": 186,
      "ఒ": 187,
      "ఓ": 188,
      "ఔ": 189,
      "క": 190,
      "ఖ": 191,
      "గ": 192,
      "ఘ": 193,
      "చ": 194,
      "ఛ": 195,
      "జ": 196,
      "ఞ": 197,
      "ట": 198,
      "ఠ": 199,
      "డ": 200,
      "ఢ": 201,
      "ణ": 202,
      "త": 203,
      "థ": 204,
      "ద": 205,
      "ధ": 206,
      "న": 207,
      "ప": 208,
      "ఫ": 209,
      "బ": 210,
      "భ": 211,
      "మ": 212,
      "య": 213,
      "ర": 214,
      "ల": 215,
      "ళ": 216,
      "వ": 217,
      "శ": 218,
      "ష": 219,
      "స": 220,
      "హ": 221,
      "ా": 222,
      "ి": 223,
      "ీ": 224,
      "ు": 225,
      "ూ": 226,
      "ృ": 227,
      "ె": 228,
      "ే": 229,
      "ై": 230,
      "ొ": 231,
      "ో": 232,
      "ౌ": 233,
      "్": 234,
      "ṇ": 235,
      "ṣ": 236,
      "ṭ": 237,
      "Ἰ": 238,
      "‌": 239,
      "‍": 240,
      "–": 241,
      "—": 242,
      "‘": 243,
      "’": 244,
      "“": 245,
      "”": 246,
      "†": 247,
      "′": 248,
      "₹": 249,
      "्य": 250,
      "ार": 251,
      "्र": 252,
      "के": 253,
      "్ర": 254,
      "्या": 255,
      "ारत": 256,
      "ార": 257,
      "भारत": 258,
      "र्": 259,
      "ात": 260,
      "ें": 261,
      "th": 262,
      "లు": 263,
      "का": 264,
      "स्": 265,
      "में": 266,
      "an": 267,
      "प्र": 268,
      "या": 269,
      "in": 270,
      "లో": 271,
      "है": 272,
      "ान": 273,
      "िक": 274,
      "the": 275,
      "స్": 276,
      "रा": 277,
      "న్": 278,
      "ది": 279,
      "er": 280,
      "ने": 281,
      "్య": 282,
      "on": 283,
      "ిం": 284,
      "सा": 285,
      "वि": 286,
      "से": 287,
      "हे": 288,
      "क्": 289,
      "ों": 290,
      "ప్ర": 291,
      "ला": 292,
      "ना": 293,
      "की": 294,
      "ని": 295,
      "దే": 296,
      "ాల": 297,
      "वा": 298,
      "దేశ": 299,
      "ర్": 300,
      "और": 301,
      "re": 302,
      "ीय": 303,
      "st": 304,
      "सं": 305,
      "en": 306,
      "ले": 307,
      "గా": 308,
      "आहे": 309,
      "त्र": 310,
      "న్న": 311,
      "al": 312,
      "భార": 313,
      "क्ष": 314,
      "భారత": 315,
      "ed": 316,
      "ली": 317,
      "मा": 318,
      "ది.": 319,
      "at": 320,
      "and": 321,
      "కు": 322,
      "कर": 323,
      "di": 324,
      "ता": 325,
      "था": 326,
      "पर": 327,
      "भा": 328,
      "ిక": 329,
      "िया": 330,
      "ar": 331,
      "दे": 332,
      "ాలు": 333,
      "है।": 334,
      "ती": 335,
      "ాయ": 336,
      "राज": 337,
      "In": 338,
      "त्": 339,
      "हा": 340,
      "వి": 341,
      "of": 342,
      "च्या": 343,
      "तर": 344,
      "ను": 345,
      "or": 346,
      "मु": 347,
      "క్": 348,
      "ची": 349,
      "ति": 350,
      "ष्": 351,
      "19": 352,
      "न्": 353,
      "कार": 354,
      "ित": 355,
      "पा": 356,
      "ంలో": 357,
      "it": 358,
      "को": 359,
      "द्": 360,
      "ion": 361,
      "Indi": 362,
      "हो": 363,
      "ते": 364,
      "ही": 365,
      "ंग": 366,
      "भारतीय": 367,
      "తి": 368,
      "రా": 369,
      "ిన": 370,
      "ील": 371,
      "as": 372,
      "हु": 373,
      "ां": 374,
      "आहे.": 375,
      "नि": 376,
      "్ట": 377,
      "देश": 378,
      "चे": 379,
      "త్ర": 380,
      "ించ": 381,
      "es": 382,
      "ic": 383,
      "हैं": 384,
      "ing": 385,
      "ండ": 386,
      "ద్": 387,
      "ము": 388,
      "వా": 389,
      "कि": 390,
      "త్": 391,
      "मि": 392,
      "हि": 393,
      "ून": 394,
      "चा": 395,
      "భారతదేశ": 396,
      "is": 397,
      "जात": 398,
      "ల్": 399,
      "ष्ट": 400,
      "र्व": 401,
      "ent": 402,
      "मान": 403,
      "वर्": 404,
      "ड़": 405,
      "मध": 406,
      "ంగ": 407,
      "om": 408,
      "India": 409,
      "दी": 410,
      "पू": 411,
      "స్త": 412,
      "to": 413,
      "ec": 414,
      "एक": 415,
      "ింది.": 416,
      "शा": 417,
      "सम": 418,
      "రి": 419,
      "ాన": 420,
      "ులు": 421,
      "ou": 422,
      "00": 423,
      "ాయి": 424,
      "्ये": 425,
      "लि": 426,
      "తం": 427,
      "భా": 428,
      "రు": 429,
      "पु": 430,
      "ంట": 431,
      "स्त": 432,
      "द्र": 433,
      "वी": 434,
      "పు": 435,
      "ైన": 436,
      "స్థ": 437,
      "वर": 438,
      "राज्य": 439,
      "नी": 440,
      "श्": 441,
      "పా": 442,
      "ూడ": 443,
      "ాయి.": 444,
      "दि": 445,
      "बा": 446,
      "भी": 447,
      "ंत्र": 448,
      "वे": 449,
      "కి": 450,
      "సా": 451,
      "ీయ": 452,
      "ారు": 453,
      "सर": 454,
      "प्रा": 455,
      "हैं।": 456,
      "ంది.": 457,
      "ఉన్న": 458,
      "इस": 459,
      "त्या": 460,
      "तथा": 461,
      "धिक": 462,
      "१९": 463,
      "ంగా": 464,
      "టి": 465,
      "తో": 466,
      "अस": 467,
      "द्ध": 468,
      "సం": 469,
      "్చ": 470,
      "క్ష": 471,
      "लो": 472,
      "ार्": 473,
      "le": 474,
      "कृ": 475,
      "िण": 476,
      "ly": 477,
      "चि": 478,
      "ये": 479,
      "रू": 480,
      "आहेत": 481,
      "उत्": 482,
      "यु": 483,
      "ल्": 484,
      "षा": 485,
      "स्थ": 486,
      "मुख": 487,
      "जि": 488,
      "प्": 489,
      "मी": 490,
      "िय": 491,
      "కూడ": 492,
      "మా": 493,
      "ార్": 494,
      "विध": 495,
      "ष्ट्र": 496,
      "दक्ष": 497,
      "ल्या": 498,
      "स्था": 499,
      "दक्षिण": 500,
      "20": 501,
      "मो": 502,
      "il": 503,
      "ंड": 504,
      "म्": 505,
      "्रा": 506,
      "भारता": 507,
      "he": 508,
      "जी": 509,
      "झा": 510,
      "री": 511,
      "కా": 512,
      "చ్చ": 513,
      "र्म": 514,
      "ur": 515,
      "सि": 516,
      "ातील": 517,
      "वर्ष": 518,
      "पूर्व": 519,
      "ver": 520,
      "ol": 521,
      "ंध": 522,
      "तक": 523,
      "दो": 524,
      "ధిక": 525,
      "నే": 526,
      "మొ": 527,
      "ష్ట": 528,
      "రాజ": 529,
      "em": 530,
      "तात": 531,
      "ारा": 532,
      "्यां": 533,
      "आहेत.": 534,
      "अन": 535,
      "जा": 536,
      "बहु": 537,
      "క్ర": 538,
      "తర": 539,
      "भारतात": 540,
      "ప్రా": 541,
      "मध्ये": 542,
      "ad": 543,
      "किया": 544,
      "दा": 545,
      "కో": 546,
      "పే": 547,
      "సి": 548,
      "ాన్": 549,
      "ाने": 550,
      "భారతదేశం": 551,
      "ారు.": 552,
      "क्र": 553,
      "णा": 554,
      "र्थ": 555,
      "राष्ट्र": 556,
      "im": 557,
      "ంచ": 558,
      "జా": 559,
      "తా": 560,
      "యా": 561,
      "రై": 562,
      "వచ్చ": 563,
      "्रे": 564,
      "स्कृ": 565,
      "साम": 566,
      "क्षे": 567,
      "ation": 568,
      "चीन": 569,
      "सरकार": 570,
      "ंत": 571,
      "सद": 572,
      "साथ": 573,
      "भाषा": 574,
      "शास": 575,
      "am": 576,
      "जन": 577,
      "ంద": 578,
      "ట్ట": 579,
      "माण": 580,
      "ద్ధ": 581,
      "क्षेत्र": 582,
      "),": 583,
      "The": 584,
      "ist": 585,
      "by": 586,
      "खा": 587,
      "भू": 588,
      "व्य": 589,
      "सु": 590,
      "सार": 591,
      "स्व": 592,
      "भाग": 593,
      "ro": 594,
      "ul": 595,
      "धर्म": 596,
      "रु": 597,
      "रे": 598,
      "కాల": 599,
      "నా": 600,
      "మైన": 601,
      "లి": 602,
      "వే": 603,
      "్ల": 604,
      "ce": 605,
      "est": 606,
      "ter": 607,
      "se": 608,
      "सी": 609,
      "res": 610,
      "संस्कृ": 611,
      "ते.": 612,
      "तात.": 613,
      "ast": 614,
      "लग": 615,
      "ळे": 616,
      "ఉంది.": 617,
      "ఒక": 618,
      "గు": 619,
      "చే": 620,
      "ధ్య": 621,
      "ింద": 622,
      "రాష్ట": 623,
      "ల్ల": 624,
      "बाद": 625,
      "రాష్ట్ర": 626,
      "con": 627,
      "ra": 628,
      "अधिक": 629,
      "ओं": 630,
      "गया": 631,
      "टि": 632,
      "लय": 633,
      "ोग": 634,
      "ारी": 635,
      "नाव": 636,
      "Indian": 637,
      "उत्तर": 638,
      "ig": 639,
      "iv": 640,
      "tion": 641,
      "ంత": 642,
      "ంది": 643,
      "కొ": 644,
      "ఖ్య": 645,
      "వ్య": 646,
      "्यात": 647,
      "నికి": 648,
      "దేశాల": 649,
      "निर्": 650,
      "త్వ": 651,
      "हिन्": 652,
      "ఉన్నాయి.": 653,
      "लोक": 654,
      "अने": 655,
      "जो": 656,
      "टी": 657,
      "ढ़": 658,
      "धान": 659,
      "००": 660,
      "िक्": 661,
      "स्थान": 662,
      "प्त": 663,
      "for": 664,
      "अप": 665,
      "गर": 666,
      "थी": 667,
      "मंत्र": 668,
      "यह": 669,
      "हर": 670,
      "డి": 671,
      "డు": 672,
      "ణా": 673,
      "పాల": 674,
      "శా": 675,
      "ిన్న": 676,
      "న్ని": 677,
      "ర్వ": 678,
      "ंगा": 679,
      "ద్ద": 680,
      "जिस": 681,
      "स्थाप": 682,
      "अनेक": 683,
      "ch": 684,
      "ex": 685,
      "'s": 686,
      "el": 687,
      "ंतर": 688,
      "उप": 689,
      "द्य": 690,
      "पट": 691,
      "बसे": 692,
      "सबसे": 693,
      "ली.": 694,
      "ate": 695,
      "्राज": 696,
      "साम्राज": 697,
      "ow": 698,
      "un": 699,
      "ंद्र": 700,
      "कु": 701,
      "तु": 702,
      "तो": 703,
      "दल": 704,
      "बन": 705,
      "बंध": 706,
      "रो": 707,
      "वै": 708,
      "కార": 709,
      "దా": 710,
      "పార": 711,
      "మార్": 712,
      "హింద": 713,
      "్రా": 714,
      "काळ": 715,
      "प्रकार": 716,
      "భారతీయ": 717,
      "होता": 718,
      "ंग्रे": 719,
      "ండి": 720,
      "जाती": 721,
      "స్తు": 722,
      "కూడా": 723,
      "ies": 724,
      "su": 725,
      "id": 726,
      "was": 727,
      "च्": 728,
      "णी": 729,
      "बी": 730,
      "ब्र": 731,
      "महा": 732,
      "प्रदेश": 733,
      "प्राचीन": 734,
      "ag": 735,
      "mo": 736,
      "et": 737,
      "s,": 738,
      "ंप": 739,
      "ठा": 740,
      "त्य": 741,
      "मह": 742,
      "शी": 743,
      "ంబ": 744,
      "అధిక": 745,
      "ఎన్న": 746,
      "కే": 747,
      "చె": 748,
      "తు": 749,
      "త్య": 750,
      "దక్ష": 751,
      "ధాన": 752,
      "పంచ": 753,
      "మే": 754,
      "మధ్య": 755,
      "్‌": 756,
      "है,": 757,
      "साह": 758,
      "ాలు,": 759,
      "196": 760,
      "ండు": 761,
      "भारताच्या": 762,
      "మొద": 763,
      "రాజ్య": 764,
      "200": 765,
      "wh": 766,
      "कड": 767,
      "गण": 768,
      "दिया": 769,
      "शिया": 770,
      "ैन": 771,
      "ong": 772,
      "विश्": 773,
      "नाम": 774,
      "क्षा": 775,
      "चित्र": 776,
      "ir": 777,
      "ith": 778,
      "गे": 779,
      "धी": 780,
      "मे": 781,
      "व्या": 782,
      "కృ": 783,
      "దాయ": 784,
      "ప్": 785,
      "బడ": 786,
      "రె": 787,
      "వస్థ": 788,
      "సభ": 789,
      "సు": 790,
      "ానికి": 791,
      "काल": 792,
      "विविध": 793,
      "ప్రధాన": 794,
      "దేశంలో": 795,
      "मुळे": 796,
      "క్కు": 797,
      "मिळ": 798,
      "భారతదేశంలో": 799,
      "భాష": 800,
      "स्तान": 801,
      "201": 802,
      "పేరు": 803,
      "शासन": 804,
      "व्यव": 805,
      "దక్షి": 806,
      "विश्व": 807,
      "du": 808,
      "ri": 809,
      "with": 810,
      "गु": 811,
      "ठी": 812,
      "पश्": 813,
      "केंद्र": 814,
      "यां": 815,
      "inc": 816,
      "हिमा": 817,
      "रूप": 818,
      "अनु": 819,
      "ब्रि": 820,
      "चित्रपट": 821,
      "पश्चि": 822,
      "ab": 823,
      "ut": 824,
      "over": 825,
      "par": 826,
      "आण": 827,
      "आध": 828,
      "इंड": 829,
      "चु": 830,
      "बड़": 831,
      "वं": 832,
      "वन": 833,
      "शिक्": 834,
      "सर्": 835,
      "समा": 836,
      "అయ": 837,
      "ఇతర": 838,
      "టు": 839,
      "పె": 840,
      "పరి": 841,
      "మత": 842,
      "మి": 843,
      "రో": 844,
      "ర్య": 845,
      "లా": 846,
      "వార": 847,
      "వర్": 848,
      "स्त्र": 849,
      "ang": 850,
      "స్వా": 851,
      "దేశం": 852,
      "द्वी": 853,
      "हुआ": 854,
      "్టీ": 855,
      "ించింది.": 856,
      "తంత్ర": 857,
      "ప్రాంత": 858,
      "రైలు": 859,
      "टिश": 860,
      "వ్యవస్థ": 861,
      "పార్టీ": 862,
      "హిందూ": 863,
      "साहित": 864,
      "ब्रिटिश": 865,
      "ain": 866,
      "li": 867,
      "s.": 868,
      "कर्": 869,
      "पद": 870,
      "शि": 871,
      "प्रमुख": 872,
      "सेना": 873,
      "पास": 874,
      "हुई": 875,
      "ical": 876,
      "जाता": 877,
      "मुख्य": 878,
      "मंत्री": 879,
      "द्वीप": 880,
      "195": 881,
      "199": 882,
      "ac": 883,
      "ay": 884,
      "are": 885,
      "ment": 886,
      "ंद": 887,
      "ंब": 888,
      "असे": 889,
      "तिक": 890,
      "दान": 891,
      "मत": 892,
      "रि": 893,
      "शक": 894,
      "सो": 895,
      "ोड़": 896,
      "గి": 897,
      "లకు": 898,
      "వల": 899,
      "వీ": 900,
      "ిత": 901,
      "प्रधान": 902,
      "స్త్ర": 903,
      "్యం": 904,
      "ప్రపంచ": 905,
      "ले.": 906,
      "करण": 907,
      "तील": 908,
      "त्व": 909,
      "197": 910,
      "पाकि": 911,
      "ించిన": 912,
      "मिल": 913,
      "पूर्": 914,
      "స్థాన": 915,
      "సాం": 916,
      "विधान": 917,
      "క్రీ": 918,
      "వచ్చింది.": 919,
      "साम्राज्य": 920,
      "క్కువ": 921,
      "सर्वा": 922,
      "पाकिस्तान": 923,
      "de": 924,
      "fr": 925,
      "ial": 926,
      "its": 927,
      "ive": 928,
      "1,": 929,
      "be": 930,
      "ख्या": 931,
      "ज़": 932,
      "टे": 933,
      "बढ़": 934,
      "मै": 935,
      "शे": 936,
      "षण": 937,
      "सभा": 938,
      "सर्व": 939,
      "हण": 940,
      "संघ": 941,
      "हीं": 942,
      "मध्य": 943,
      "समय": 944,
      "op": 945,
      "us": 946,
      "194": 947,
      "ted": 948,
      "गी": 949,
      "जे": 950,
      "तंत्र": 951,
      "थे": 952,
      "न्या": 953,
      "पार": 954,
      "ब्": 955,
      "भर": 956,
      "मन": 957,
      "मू": 958,
      "ऱ्या": 959,
      "सह": 960,
      "ृष्ट": 961,
      "అతి": 962,
      "ఉత్": 963,
      "గం": 964,
      "జరి": 965,
      "జనా": 966,
      "ట్": 967,
      "తరు": 968,
      "పూ": 969,
      "పో": 970,
      "భు": 971,
      "మం": 972,
      "మీ": 973,
      "లలో": 974,
      "శ్ర": 975,
      "ష్": 976,
      "ుకు": 977,
      "్రె": 978,
      "काही": 979,
      "स्ट": 980,
      "ere": 981,
      "क्त": 982,
      "ప్రభు": 983,
      "ला.": 984,
      "విధ": 985,
      "तिश": 986,
      "ity": 987,
      "होती": 988,
      "త్రి": 989,
      "ముఖ్య": 990,
      "मधील": 991,
      "econ": 992,
      "000": 993,
      "लिए": 994,
      "राज्यों": 995,
      "म्हण": 996,
      "अन्य": 997,
      "राष्ट्रीय": 998,
      "జాత": 999,
      "ంద్ర": 1000,
      "ult": 1001,
      "हिन्दी": 1002,
      "ప్ప": 1003,
      "అయిన": 1004,
      "జనాభా": 1005,
      "తరువా": 1006,
      "26": 1007,
      "ear": 1008,
      "oc": 1009,
      "end": 1010,
      "ich": 1011,
      "ill": 1012,
      "pl": 1013,
      "rit": 1014,
      "si": 1015,
      "tr": 1016,
      "ंचा": 1017,
      "अन्": 1018,
      "अर्थ": 1019,
      "आज": 1020,
      "आर्थ": 1021,
      "गा": 1022,
      "चल": 1023,
      "ज्": 1024,
      "पह": 1025,
      "योग": 1026,
      "ष्ठ": 1027,
      "देशों": 1028,
      "हैं,": 1029,
      "व्यवस्था": 1030,
      "हिमालय": 1031,
      "पूर्ण": 1032,
      "आर्थिक": 1033,
      "der": 1034,
      "ts": 1035,
      "um": 1036,
      "ther": 1037,
      "from": 1038,
      "gh": 1039,
      "has": 1040,
      "अर": 1041,
      "टक्": 1042,
      "डी": 1043,
      "पी": 1044,
      "पे": 1045,
      "बर": 1046,
      "बना": 1047,
      "रहा": 1048,
      "शन": 1049,
      "అనే": 1050,
      "ఆర్": 1051,
      "ఇది": 1052,
      "ఉంట": 1053,
      "ఎక్కువ": 1054,
      "ఏర్": 1055,
      "కలి": 1056,
      "గిన": 1057,
      "టిక": 1058,
      "డ్": 1059,
      "పట్ట": 1060,
      "బహ": 1061,
      "రణ": 1062,
      "లే": 1063,
      "వంట": 1064,
      "సంగ": 1065,
      "సరి": 1066,
      "ీన": 1067,
      "్లో": 1068,
      "प्रजाती": 1069,
      "స్కృ": 1070,
      "ప్రస్తు": 1071,
      "ప్రదాయ": 1072,
      "संविधान": 1073,
      "करने": 1074,
      "था।": 1075,
      "कारण": 1076,
      "द्व": 1077,
      "जाते": 1078,
      "ంగ్రె": 1079,
      "India's": 1080,
      "స్తాన్": 1081,
      "పాకి": 1082,
      "సాధ": 1083,
      "युद्ध": 1084,
      "కాంగ్రె": 1085,
      "दोन": 1086,
      "కాలంలో": 1087,
      "संस्कृती": 1088,
      "ందిన": 1089,
      "द्योग": 1090,
      "అధికార": 1091,
      "ఎన్నో": 1092,
      "కేంద్ర": 1093,
      "మొదటి": 1094,
      "దక్షిణ": 1095,
      "आणि": 1096,
      "co": 1097,
      "cent": 1098,
      "ure": 1099,
      "which": 1100,
      "ap": 1101,
      "av": 1102,
      "com": 1103,
      "per": 1104,
      "ru": 1105,
      "अंग्रे": 1106,
      "एशिया": 1107,
      "ग्र": 1108,
      "णे": 1109,
      "तसे": 1110,
      "दु": 1111,
      "नंतर": 1112,
      "नहीं": 1113,
      "पै": 1114,
      "पार्": 1115,
      "बंगा": 1116,
      "वळ": 1117,
      "शु": 1118,
      "सैन": 1119,
      "्याने": 1120,
      "साठी": 1121,
      "संसद": 1122,
      "संख्या": 1123,
      "लीन": 1124,
      "पर्य": 1125,
      "तिहा": 1126,
      "हुए": 1127,
      "oun": 1128,
      "इसके": 1129,
      "झाले": 1130,
      "सिंध": 1131,
      "पूर्वी": 1132,
      "च्च": 1133,
      "अनुसार": 1134,
      "पश्चिम": 1135,
      "चुनाव": 1136,
      "साहित्य": 1137,
      "econom": 1138,
      "तसेच": 1139,
      "gen": 1140,
      "sp": 1141,
      "arg": 1142,
      "ary": 1143,
      "1947": 1144,
      "ld": 1145,
      "pr": 1146,
      "इन": 1147,
      "उन": 1148,
      "कई": 1149,
      "कॉ": 1150,
      "डा": 1151,
      "तृ": 1152,
      "त्ये": 1153,
      "दार": 1154,
      "दिक": 1155,
      "दशक": 1156,
      "पर्व": 1157,
      "बौ": 1158,
      "मार": 1159,
      "यों": 1160,
      "शह": 1161,
      "కల్": 1162,
      "గర": 1163,
      "గల": 1164,
      "గో": 1165,
      "చిన్న": 1166,
      "జన": 1167,
      "తిక": 1168,
      "దు": 1169,
      "ధి": 1170,
      "పర": 1171,
      "పై": 1172,
      "బా": 1173,
      "బ్": 1174,
      "బ్ర": 1175,
      "భూ": 1176,
      "మన": 1177,
      "మహ": 1178,
      "యో": 1179,
      "రవా": 1180,
      "రంగ": 1181,
      "లను": 1182,
      "లతో": 1183,
      "వు": 1184,
      "షు": 1185,
      "హద్ద": 1186,
      "ిమ": 1187,
      "ౌక": 1188,
      "विस्त": 1189,
      "ప్రతి": 1190,
      "ాలలో": 1191,
      "ాలను": 1192,
      "संबंध": 1193,
      "करोड़": 1194,
      "मुद्र": 1195,
      "होते.": 1196,
      "ించి": 1197,
      "ड़ा": 1198,
      "ంగ్ల": 1199,
      "पुर": 1200,
      "१९९": 1201,
      "ल्ली": 1202,
      "క్రమ": 1203,
      "సిని": 1204,
      "సియా": 1205,
      "भाषाओं": 1206,
      "ద్ధి": 1207,
      "भूमि": 1208,
      "गया।": 1209,
      "निर्माण": 1210,
      "శాస్త్ర": 1211,
      "वैदिक": 1212,
      "రెండు": 1213,
      "इंडिया": 1214,
      "शिक्षण": 1215,
      "క్రీడ": 1216,
      "मैदान": 1217,
      "ప్రభుత్వ": 1218,
      "జాతీయ": 1219,
      "टक्के": 1220,
      "సంగీ": 1221,
      "సరిహద్ద": 1222,
      "రవాణా": 1223,
      "ak": 1224,
      "wor": 1225,
      "were": 1226,
      "ated": 1227,
      "outh": 1228,
      "larg": 1229,
      "min": 1230,
      "por": 1231,
      "pro": 1232,
      "अव": 1233,
      "आप": 1234,
      "इस्": 1235,
      "इतिहा": 1236,
      "गठ": 1237,
      "गो": 1238,
      "घे": 1239,
      "घो": 1240,
      "चार": 1241,
      "जग": 1242,
      "जून": 1243,
      "दर": 1244,
      "दू": 1245,
      "दर्": 1246,
      "दृष्ट": 1247,
      "पड": 1248,
      "पृ": 1249,
      "पती": 1250,
      "फ्र": 1251,
      "श्र": 1252,
      "सू": 1253,
      "िका": 1254,
      "ृत": 1255,
      "ारिक": 1256,
      "प्रत्ये": 1257,
      "नेतृ": 1258,
      "विका": 1259,
      "क्ति": 1260,
      "नाट": 1261,
      "वाद": 1262,
      "न्न": 1263,
      "दिल्ली": 1264,
      "किया।": 1265,
      "क्रम": 1266,
      "स्वतंत्र": 1267,
      "ंग्रेस": 1268,
      "बीच": 1269,
      "part": 1270,
      "पासून": 1271,
      "ज्ञ": 1272,
      "द्वारा": 1273,
      "चुनावों": 1274,
      "बौद्ध": 1275,
      "प्रत्येक": 1276,
      "ct": 1277,
      "cont": 1278,
      "22": 1279,
      "fter": 1280,
      "lu": 1281,
      "low": 1282,
      "nor": 1283,
      "we": 1284,
      "ंची": 1285,
      "अभ": 1286,
      "इंग": 1287,
      "ई।": 1288,
      "उदा": 1289,
      "जिक": 1290,
      "टा": 1291,
      "ण्": 1292,
      "तन": 1293,
      "पठ": 1294,
      "फ़": 1295,
      "मौ": 1296,
      "यन": 1297,
      "लिया": 1298,
      "विक": 1299,
      "हार": 1300,
      "हवा": 1301,
      "१८": 1302,
      "२००": 1303,
      "ంతో": 1304,
      "అత్య": 1305,
      "ఆధ": 1306,
      "ఉప": 1307,
      "కను": 1308,
      "గ్": 1309,
      "గలు": 1310,
      "చు": 1311,
      "ణి": 1312,
      "దం": 1313,
      "దీ": 1314,
      "దార": 1315,
      "నీ": 1316,
      "నడి": 1317,
      "పతి": 1318,
      "బె": 1319,
      "భిన్న": 1320,
      "మై": 1321,
      "మూడ": 1322,
      "యు": 1323,
      "రహ": 1324,
      "లం": 1325,
      "వై": 1326,
      "సిం": 1327,
      "సింది.": 1328,
      "ిల్ల": 1329,
      "ारे": 1330,
      "केले": 1331,
      "ाता": 1332,
      "काम": 1333,
      "कालीन": 1334,
      "स्वर": 1335,
      "में,": 1336,
      "స్య": 1337,
      "స్వ": 1338,
      "ప్రము": 1339,
      "ాల్లో": 1340,
      "reg": 1341,
      "గా,": 1342,
      "గాలు": 1343,
      "भाज": 1344,
      "విస్త": 1345,
      "వివిధ": 1346,
      "198": 1347,
      "త్వా": 1348,
      "हिं": 1349,
      "ish": 1350,
      "భాగం": 1351,
      "ైనా": 1352,
      "సామ": 1353,
      "असते.": 1354,
      "మాత్ర": 1355,
      "बहुत": 1356,
      "ime": 1357,
      "थी।": 1358,
      "महारा": 1359,
      "దేశంలోని": 1360,
      "పెద్ద": 1361,
      "మంత్రి": 1362,
      "ప్పటిక": 1363,
      "తరువాత": 1364,
      "ఏర్ప": 1365,
      "బహు": 1366,
      "बंगाल": 1367,
      "सैन्य": 1368,
      "कॉंग्रेस": 1369,
      "బ్రి": 1370,
      "సరిహద్దు": 1371,
      "minist": 1372,
      "घोष": 1373,
      "हवामान": 1374,
      "అత్యధిక": 1375,
      "దారులు": 1376,
      "నడిప": 1377,
      "ప్రముఖ": 1378,
      "18": 1379,
      "Ch": 1380,
      "ire": 1381,
      "ans": 1382,
      "ough": 1383,
      "ame": 1384,
      "ress": 1385,
      "sub": 1386,
      "aj": 1387,
      "west": 1388,
      "इतर": 1389,
      "गंगा": 1390,
      "जब": 1391,
      "निक": 1392,
      "पं": 1393,
      "बो": 1394,
      "बां": 1395,
      "बदल": 1396,
      "भग": 1397,
      "भे": 1398,
      "यू": 1399,
      "रक्षा": 1400,
      "लन": 1401,
      "लर": 1402,
      "लु": 1403,
      "शै": 1404,
      "सक": 1405,
      "सित": 1406,
      "समुद्र": 1407,
      "ृत्य": 1408,
      "५०": 1409,
      "्यों": 1410,
      "कां": 1411,
      "प्रमाण": 1412,
      "into": 1413,
      "ern": 1414,
      "सामा": 1415,
      "सेवा": 1416,
      "लाग": 1417,
      "लाल": 1418,
      "क्षण": 1419,
      "परमाण": 1420,
      "देख": 1421,
      "न्ह": 1422,
      "कार्य": 1423,
      "निर": 1424,
      "ism": 1425,
      "शास्त्र": 1426,
      "सम्": 1427,
      "वीं": 1428,
      "वेश": 1429,
      "प्राप्त": 1430,
      "१९७": 1431,
      "ार्थ": 1432,
      "युक्त": 1433,
      "स्थित": 1434,
      "ियों": 1435,
      "संस्कृत": 1436,
      "होता.": 1437,
      "च्छ": 1438,
      "गणराज्य": 1439,
      "हुआ।": 1440,
      "1950": 1441,
      "प्रधानमंत्री": 1442,
      "सर्वाधिक": 1443,
      "शेष": 1444,
      "न्याया": 1445,
      "इस्ला": 1446,
      "सामाजिक": 1447,
      "परमाणु": 1448,
      "bec": 1449,
      "fe": 1450,
      "land": 1451,
      "os": 1452,
      "year": 1453,
      "reas": 1454,
      "ome": 1455,
      "ous": 1456,
      "igh": 1457,
      "form": 1458,
      "elec": 1459,
      "overn": 1460,
      "0%": 1461,
      "15": 1462,
      "Asi": 1463,
      "govern": 1464,
      "ne": 1465,
      "sh": 1466,
      "up": 1467,
      "y,": 1468,
      "ंह": 1469,
      "ंदि": 1470,
      "अमे": 1471,
      "इ.": 1472,
      "ईसा": 1473,
      "ओर": 1474,
      "डॉ": 1475,
      "ण्या": 1476,
      "ण्यात": 1477,
      "पक्ष": 1478,
      "यं": 1479,
      "यात": 1480,
      "रिक": 1481,
      "लों": 1482,
      "शो": 1483,
      "शता": 1484,
      "शां": 1485,
      "शिय": 1486,
      "सण": 1487,
      "ूह": 1488,
      "ो.": 1489,
      "२०": 1490,
      "ం,": 1491,
      "ం.": 1492,
      "ంధ": 1493,
      "అభ": 1494,
      "అను": 1495,
      "కాలు": 1496,
      "కీయ": 1497,
      "గే": 1498,
      "గంగా": 1499,
      "చైనా": 1500,
      "జ్య": 1501,
      "టీ": 1502,
      "ఢిల్ల": 1503,
      "తన": 1504,
      "తూ": 1505,
      "తె": 1506,
      "థిక": 1507,
      "నాలు": 1508,
      "పత": 1509,
      "పొ": 1510,
      "బి": 1511,
      "మలు": 1512,
      "మ్య": 1513,
      "రూ": 1514,
      "ళ్ల": 1515,
      "వడ": 1516,
      "శ్": 1517,
      "శతా": 1518,
      "సమ": 1519,
      "సార": 1520,
      "సము": 1521,
      "సమా": 1522,
      "సర్వ": 1523,
      "సౌక": 1524,
      "హార": 1525,
      "ెల": 1526,
      "्यता": 1527,
      "ाती": 1528,
      "any": 1529,
      "प्रभा": 1530,
      "प्रति": 1531,
      "प्रां": 1532,
      "यास": 1533,
      "ाना": 1534,
      "న్య": 1535,
      "eral": 1536,
      "साल": 1537,
      "विष": 1538,
      "विद्य": 1539,
      "ప్రజ": 1540,
      "ప్రజా": 1541,
      "నిర్వ": 1542,
      "ాలతో": 1543,
      "वादी": 1544,
      "संगी": 1545,
      "న్నాయి.": 1546,
      "భారత్": 1547,
      "కుల": 1548,
      "परंत": 1549,
      "भाष": 1550,
      "हाला": 1551,
      "నులు": 1552,
      "నుండి": 1553,
      "न्तु": 1554,
      "ass": 1555,
      "निव": 1556,
      "ించే": 1557,
      "త్తం": 1558,
      "భారతదేశానికి": 1559,
      "जातो.": 1560,
      "ల్వే": 1561,
      "लिये": 1562,
      "वेग": 1563,
      "असले": 1564,
      "असून": 1565,
      "సంస్కృ": 1566,
      "येथ": 1567,
      "युग": 1568,
      "కూడిన": 1569,
      "मोठ": 1570,
      "वर्षों": 1571,
      "మొత్తం": 1572,
      "రాజకీయ": 1573,
      "కోర్": 1574,
      "పేర్": 1575,
      "రైల్వే": 1576,
      "शासित": 1577,
      "ందు": 1578,
      "क्षेत्रीय": 1579,
      "ఒకటి": 1580,
      "చేయ": 1581,
      "రాష్ట్రపతి": 1582,
      "దేశాలలో": 1583,
      "जिसमें": 1584,
      "మార్గ": 1585,
      "మార్గాలు": 1586,
      "काळात": 1587,
      "తున్న": 1588,
      "మొదల": 1589,
      "धीरे": 1590,
      "आधार": 1591,
      "समाज": 1592,
      "స్వాతంత్ర": 1593,
      "ప్రాంతాలు": 1594,
      "ప్రపంచంలో": 1595,
      "सर्वो": 1596,
      "ब्दी": 1597,
      "జరిగిన": 1598,
      "illion": 1599,
      "अर्थव्यवस्था": 1600,
      "पहले": 1601,
      "अरब": 1602,
      "అనేక": 1603,
      "ఎక్కువగా": 1604,
      "పట్టణ": 1605,
      "వంటి": 1606,
      "ప్రస్తుతం": 1607,
      "కాంగ్రెసు": 1608,
      "पर्यंत": 1609,
      "सिंधू": 1610,
      "బ్దం": 1611,
      "भूमिका": 1612,
      "इतिहास": 1613,
      "नेतृत्व": 1614,
      "विकास": 1615,
      "उदाहर": 1616,
      "ण्ड": 1617,
      "రహదారులు": 1618,
      "సింధ": 1619,
      "स्वरू": 1620,
      "महाराष्ट्र": 1621,
      "शताब्दी": 1622,
      "అభి": 1623,
      "ఢిల్లీ": 1624,
      "శతాబ్దం": 1625,
      "సౌకర్య": 1626,
      "నిర్వహ": 1627,
      "परंतु": 1628,
      ",000": 1629,
      "4%": 1630,
      "Cong": 1631,
      "lat": 1632,
      "uc": 1633,
      "reat": 1634,
      "all": 1635,
      "ates": 1636,
      "ign": 1637,
      "world": 1638,
      "region": 1639,
      "minister": 1640,
      "17": 1641,
      "bl": 1642,
      "ot": 1643,
      "pire": 1644,
      "ral": 1645,
      "so": 1646,
      "yst": 1647,
      "अथ": 1648,
      "अतिश": 1649,
      "आर": 1650,
      "आक्रम": 1651,
      "उद्योग": 1652,
      "कला": 1653,
      "खन": 1654,
      "गत": 1655,
      "गां": 1656,
      "जै": 1657,
      "द्या": 1658,
      "धि": 1659,
      "धार": 1660,
      "ध्या": 1661,
      "नदी": 1662,
      "पीय": 1663,
      "बि": 1664,
      "बे": 1665,
      "बार": 1666,
      "मार्": 1667,
      "यी": 1668,
      "वृ": 1669,
      "स.": 1670,
      "ुनिक": 1671,
      "indu": 1672,
      "साय": 1673,
      "सागर": 1674,
      "ence": 1675,
      "करून": 1676,
      "था,": 1677,
      "परंप": 1678,
      "राज्यां": 1679,
      "हाँ": 1680,
      "तरी": 1681,
      "न्द्र": 1682,
      "itu": 1683,
      "देशी": 1684,
      "किल्": 1685,
      "वर्ण": 1686,
      "our": 1687,
      "वरी": 1688,
      "लोग": 1689,
      "जिन": 1690,
      "प्ले": 1691,
      "झाली.": 1692,
      "दोलन": 1693,
      "सदस": 1694,
      "जनसंख्या": 1695,
      "लगभग": 1696,
      "अपने": 1697,
      "कुछ": 1698,
      "कुल": 1699,
      "तो.": 1700,
      "बंधन": 1701,
      "1965": 1702,
      "गुप्त": 1703,
      "आधुनिक": 1704,
      "अन्त": 1705,
      "दोनों": 1706,
      "centur": 1707,
      "पर्वत": 1708,
      "शहरी": 1709,
      "जगातील": 1710,
      "स्वतंत्रता": 1711,
      "बांध": 1712,
      "government": 1713,
      "संगीत": 1714,
      "येथील": 1715,
      "सर्वोच्च": 1716,
      "स्वरूप": 1717,
      "Congress": 1718,
      "गांधी": 1719,
      "परंपरा": 1720,
      "12": 1721,
      "3,": 1722,
      "Em": 1723,
      "fo": 1724,
      "gan": 1725,
      "har": 1726,
      "og": 1727,
      "uring": 1728,
      "ext": 1729,
      "inclu": 1730,
      "increas": 1731,
      "prime": 1732,
      "became": 1733,
      "ystem": 1734,
      ").": 1735,
      ".7": 1736,
      "2,": 1737,
      "ding": 1738,
      "dec": 1739,
      "gr": 1740,
      "had": 1741,
      "ian": 1742,
      "ँकि": 1743,
      "ंशी": 1744,
      "अग": 1745,
      "अम": 1746,
      "अप्र": 1747,
      "अलग": 1748,
      "आदि": 1749,
      "आधिक": 1750,
      "उस": 1751,
      "ओळ": 1752,
      "घा": 1753,
      "चना": 1754,
      "जल": 1755,
      "ज्या": 1756,
      "डे": 1757,
      "तमिळ": 1758,
      "तमिल": 1759,
      "थिय": 1760,
      "धर्": 1761,
      "नै": 1762,
      "नृत्य": 1763,
      "पहा": 1764,
      "पड़": 1765,
      "बने": 1766,
      "बनी": 1767,
      "भि": 1768,
      "मसा": 1769,
      "यार": 1770,
      "रहे": 1771,
      "वल": 1772,
      "व्": 1773,
      "सत": 1774,
      "हथिय": 1775,
      "१५": 1776,
      "२.": 1777,
      "అని": 1778,
      "ఇండి": 1779,
      "కం": 1780,
      "కీ": 1781,
      "క్య": 1782,
      "చీన": 1783,
      "జి": 1784,
      "టె": 1785,
      "ట్ల": 1786,
      "ణంగా": 1787,
      "దన": 1788,
      "నాయ": 1789,
      "పద": 1790,
      "పశ": 1791,
      "పద్ధ": 1792,
      "పండు": 1793,
      "మూ": 1794,
      "మ్": 1795,
      "రే": 1796,
      "రకాల": 1797,
      "వర": 1798,
      "వహ": 1799,
      "వృ": 1800,
      "వె": 1801,
      "వత్": 1802,
      "వరి": 1803,
      "ా,": 1804,
      "ిస్త": 1805,
      "ీ,": 1806,
      "ీలు": 1807,
      "ు.": 1808,
      "ుంది.": 1809,
      "ుకో": 1810,
      "ూచ": 1811,
      "ారి": 1812,
      "ातंत्र": 1813,
      "स्तर": 1814,
      "स्ति": 1815,
      "లోక్": 1816,
      "స్లా": 1817,
      "राण": 1818,
      "ers": 1819,
      "ప్రకార": 1820,
      "नाड": 1821,
      "నిక": 1822,
      "నిర్": 1823,
      "वाळ": 1824,
      "वाह": 1825,
      "ర్ణ": 1826,
      "संयुक्त": 1827,
      "కులు": 1828,
      "కుంట": 1829,
      "కుటు": 1830,
      "करना": 1831,
      "तांशी": 1832,
      "ిక,": 1833,
      "ికత": 1834,
      "ిక్": 1835,
      "त्वा": 1836,
      "त्तर": 1837,
      "వి.": 1838,
      "క్క": 1839,
      "రాస్య": 1840,
      "निभा": 1841,
      "ండో": 1842,
      "ద్వీ": 1843,
      "किन": 1844,
      "हिंद": 1845,
      "वर्ग": 1846,
      "ड़ी": 1847,
      "पुत्र": 1848,
      "ంటే": 1849,
      "స్థా": 1850,
      "స్థాన్": 1851,
      "वरील": 1852,
      "वरून": 1853,
      "పాక్": 1854,
      "పాత్ర": 1855,
      "दिव": 1856,
      "इसी": 1857,
      "१९८": 1858,
      "టిలో": 1859,
      "సంప్రదాయ": 1860,
      "్చిమ": 1861,
      "క్షరాస్య": 1862,
      "दक्षिणे": 1863,
      "मोह": 1864,
      "म्भ": 1865,
      "सिद्ध": 1866,
      "सिंह": 1867,
      "वर्षां": 1868,
      "बहुमत": 1869,
      "बहुतांशी": 1870,
      "ప్రాచీన": 1871,
      "ంచి": 1872,
      "రైళ్ల": 1873,
      "వచ్చిన": 1874,
      "स्वातंत्र": 1875,
      "row": 1876,
      "వేగంగా": 1877,
      "सीमा": 1878,
      "संस्कृति": 1879,
      "अधिकार": 1880,
      "अपनी": 1881,
      "ణాసియా": 1882,
      "పాలన": 1883,
      "स्थापना": 1884,
      "रोपीय": 1885,
      "కార్య": 1886,
      "age": 1887,
      "చెందిన": 1888,
      "మేన": 1889,
      "రాజ్యాలు": 1890,
      "సభ్య": 1891,
      "ప్రధానమంత్రి": 1892,
      "భాషలు": 1893,
      "बड़ा": 1894,
      "वंश": 1895,
      "పరిశ్ర": 1896,
      "స్వామ్య": 1897,
      "వ్యవస్థలో": 1898,
      "शिष्ट": 1899,
      "1971": 1900,
      "సాంప్రదాయ": 1901,
      "सर्वांत": 1902,
      "ज़ी": 1903,
      "used": 1904,
      "भरत": 1905,
      "मूल": 1906,
      "ఉత్తర": 1907,
      "ట్లు": 1908,
      "పూ.": 1909,
      "thern": 1910,
      "ఆర్ధిక": 1911,
      "ఆర్థిక": 1912,
      "ఉంటాయి.": 1913,
      "కలిగి": 1914,
      "जाते.": 1915,
      "పాకిస్తాన్": 1916,
      "పాకిస్థాన్": 1917,
      "దక్షిణాన": 1918,
      "पार्टी": 1919,
      "పైగా": 1920,
      "బాద్": 1921,
      "మహా": 1922,
      "ించి,": 1923,
      "సినిమా": 1924,
      "శాస్త్రం": 1925,
      "సంగీతం": 1926,
      "गठबंधन": 1927,
      "इंग्र": 1928,
      "विकसित": 1929,
      "ఆధార": 1930,
      "మూడు": 1931,
      "స్వతంత్ర": 1932,
      "भाजपा": 1933,
      "సామ్రా": 1934,
      "మాత్రం": 1935,
      "బ్రిటి": 1936,
      "నడిపించ": 1937,
      "ajor": 1938,
      "पंजा": 1939,
      "न्हें": 1940,
      "न्यायालय": 1941,
      "సర్వీ": 1942,
      "న్యాయ": 1943,
      "हालाँकि": 1944,
      "निवड": 1945,
      "उदाहरण": 1946,
      "అభివృ": 1947,
      "अथवा": 1948,
      "अतिशय": 1949,
      "प्लेट": 1950,
      "fore": 1951,
      "आधिकारिक": 1952,
      "ओळख": 1953,
      "हथियार": 1954,
      "ఇండియా": 1955,
      "పశ్చిమ": 1956,
      "కుటుంబ": 1957,
      "క్షరాస్యత": 1958,
      "అభివృద్ధి": 1959,
      "23": 1960,
      "6%": 1961,
      "CE": 1962,
      "bo": 1963,
      "but": 1964,
      "cl": 1965,
      "east": 1966,
      "mar": 1967,
      "pre": 1968,
      "pol": 1969,
      "system": 1970,
      "that": 1971,
      "stitu": 1972,
      "Ind": 1973,
      "lear": 1974,
      "istan": 1975,
      "most": 1976,
      "2011": 1977,
      "duc": 1978,
      "largest": 1979,
      "contin": 1980,
      "election": 1981,
      ".3": 1982,
      "Un": 1983,
      "coun": 1984,
      "dom": 1985,
      "fir": 1986,
      "hi": 1987,
      "hav": 1988,
      "led": 1989,
      "major": 1990,
      "o-": 1991,
      "od": 1992,
      "qu": 1993,
      "ry": 1994,
      "soc": 1995,
      "south": 1996,
      "ँच": 1997,
      "ंका": 1998,
      "अजून": 1999,
      "आढ": 2000,
      "आले": 2001,
      "आहार": 2002,
      "इम": 2003,
      "इत्या": 2004,
      "उभ": 2005,
      "ऊँ": 2006,
      "एँ": 2007,
      "एं": 2008,
      "ऑफ": 2009,
      "कह": 2010,
      "ख्": 2011,
      "गए": 2012,
      "गति": 2013,
      "घल": 2014,
      "जु": 2015,
      "जैन": 2016,
      "टन": 2017,
      "डि": 2018,
      "ण्यां": 2019,
      "तः": 2020,
      "तयार": 2021,
      "ध्य": 2022,
      "नौ": 2023,
      "पि": 2024,
      "पो": 2025,
      "फल": 2026,
      "फा": 2027,
      "बत": 2028,
      "बद": 2029,
      "मक": 2030,
      "मिक": 2031,
      "यक": 2032,
      "लिक": 2033,
      "वली": 2034,
      "शक्ति": 2035,
      "सात": 2036,
      "सभे": 2037,
      "सध्या": 2038,
      "ुसार": 2039,
      "्ट": 2040,
      "१०": 2041,
      "१७": 2042,
      "२६": 2043,
      "४.": 2044,
      "ारम्भ": 2045,
      "केली": 2046,
      "केन्द्र": 2047,
      "ात्": 2048,
      "प्रिय": 2049,
      "प्रारम्भ": 2050,
      "erg": 2051,
      "erv": 2052,
      "सां": 2053,
      "विदेशी": 2054,
      "लावा": 2055,
      "की।": 2056,
      "वायु": 2057,
      "ally": 2058,
      "माध्य": 2059,
      "करता": 2060,
      "ियाँ": 2061,
      "राजा": 2062,
      "राजनी": 2063,
      "मुघल": 2064,
      "ष्ण": 2065,
      "पालि": 2066,
      "होत": 2067,
      "देशा": 2068,
      "किन्तु": 2069,
      "माना": 2070,
      "वर्त": 2071,
      "ect": 2072,
      "सम्रा": 2073,
      "पुरु": 2074,
      "सरे": 2075,
      "प्रामुख": 2076,
      "१९६": 2077,
      "मीर": 2078,
      "मोठा": 2079,
      "भारताचे": 2080,
      "झाला.": 2081,
      "राष्ट्रपती": 2082,
      "imal": 2083,
      "सदार": 2084,
      "जनता": 2085,
      "खास": 2086,
      "खासदार": 2087,
      "सुरु": 2088,
      "भागात": 2089,
      "निर्मि": 2090,
      "स्थानिक": 2091,
      "जिसके": 2092,
      "महाद्वीप": 2093,
      "कडे": 2094,
      "गुज": 2095,
      "बड़ी": 2096,
      "बड़े": 2097,
      "anges": 2098,
      "कर्ज": 2099,
      "ंबे": 2100,
      "सहयोग": 2101,
      "द्योगिक": 2102,
      "comp": 2103,
      "अंग्रेजी": 2104,
      "शुरू": 2105,
      "economic": 2106,
      "दृष्ट्या": 2107,
      "पृष्ठ": 2108,
      "ज्ञान": 2109,
      "पठार": 2110,
      "मौर": 2111,
      "घोषणा": 2112,
      "इस्लामी": 2113,
      "years": 2114,
      "Asia": 2115,
      "डॉलर": 2116,
      "शांति": 2117,
      "वेगळे": 2118,
      "मोठ्या": 2119,
      "uclear": 2120,
      "धर्मा": 2121,
      "पंजाब": 2122,
      "stitution": 2123,
      "first": 2124,
      "इमारत": 2125,
      "पालिका": 2126,
      "सम्राट": 2127,
      "प्रामुख्याने": 2128,
      "सुरुव": 2129,
      "10": 2130,
      "30": 2131,
      "Brit": 2132,
      "South": 2133,
      "Th": 2134,
      "ber": 2135,
      "bet": 2136,
      "ca": 2137,
      "ef": 2138,
      "grow": 2139,
      "hum": 2140,
      "late": 2141,
      "long": 2142,
      "ose": 2143,
      "pe": 2144,
      "pu": 2145,
      "rough": 2146,
      "tw": 2147,
      "vi": 2148,
      "on-": 2149,
      "ament": 2150,
      "sup": 2151,
      "1962": 2152,
      "river": 2153,
      "ween": 2154,
      "new": 2155,
      "blic": 2156,
      "Empire": 2157,
      "continent": 2158,
      "British": 2159,
      "public": 2160,
      "two": 2161,
      "(వె": 2162,
      ".పూ.": 2163,
      "2%": 2164,
      "50": 2165,
      "After": 2166,
      "By": 2167,
      "BCE": 2168,
      "Com": 2169,
      "Pak": 2170,
      "after": 2171,
      "dh": 2172,
      "mer": 2173,
      "mon": 2174,
      "main": 2175,
      "pow": 2176,
      "war": 2177,
      "y.": 2178,
      "ंक": 2179,
      "ंनी": 2180,
      "अब": 2181,
      "अभी": 2182,
      "अशी": 2183,
      "अफ्र": 2184,
      "अस्ति": 2185,
      "आग": 2186,
      "आन्": 2187,
      "ऋष": 2188,
      "ऋतु": 2189,
      "एवं": 2190,
      "कम": 2191,
      "कू": 2192,
      "कमी": 2193,
      "खो": 2194,
      "खंड": 2195,
      "गंग": 2196,
      "ग्रा": 2197,
      "चर": 2198,
      "चळ": 2199,
      "चो": 2200,
      "चला": 2201,
      "छो": 2202,
      "जवा": 2203,
      "जंग": 2204,
      "जलो": 2205,
      "जाने": 2206,
      "जयं": 2207,
      "जाना": 2208,
      "ठिका": 2209,
      "तत्": 2210,
      "दख्": 2211,
      "धो": 2212,
      "धार्": 2213,
      "पान": 2214,
      "पत्": 2215,
      "पंत": 2216,
      "फे": 2217,
      "बै": 2218,
      "बॉ": 2219,
      "भु": 2220,
      "मरा": 2221,
      "मंदि": 2222,
      "लू": 2223,
      "ळा": 2224,
      "ळी": 2225,
      "वार": 2226,
      "वसाय": 2227,
      "शत": 2228,
      "सून": 2229,
      "सल्": 2230,
      "िम": 2231,
      "ीका": 2232,
      "ैल": 2233,
      "ोसी": 2234,
      "१६": 2235,
      "४७": 2236,
      "ంభ": 2237,
      "అవ": 2238,
      "అవి": 2239,
      "ఆఫ": 2240,
      "ఆక్రమ": 2241,
      "ఆహార": 2242,
      "ఇవ": 2243,
      "ఇవి": 2244,
      "ఇంగ్ల": 2245,
      "ఇస్లా": 2246,
      "ఉండ": 2247,
      "ఎన్ని": 2248,
      "కథ": 2249,
      "కల": 2250,
      "కళ": 2251,
      "కటి": 2252,
      "కింద": 2253,
      "కరణ": 2254,
      "ఖండ": 2255,
      "గణ": 2256,
      "గె": 2257,
      "చాల": 2258,
      "జీ": 2259,
      "జన్": 2260,
      "జాలు": 2261,
      "జరు": 2262,
      "జంబ": 2263,
      "టం": 2264,
      "టా": 2265,
      "టో": 2266,
      "టర్": 2267,
      "టులు": 2268,
      "డిన": 2269,
      "తరా": 2270,
      "తము": 2271,
      "తులు": 2272,
      "తమి": 2273,
      "ద్ర": 2274,
      "నది": 2275,
      "నగర": 2276,
      "పం": 2277,
      "పక్ష": 2278,
      "బంగ్ల": 2279,
      "భర": 2280,
      "మె": 2281,
      "మౌ": 2282,
      "మాలు": 2283,
      "మతి": 2284,
      "మాన": 2285,
      "మారు": 2286,
      "మంది": 2287,
      "లె": 2288,
      "లిం": 2289,
      "లక్ష": 2290,
      "ళం": 2291,
      "ళ్": 2292,
      "వులు": 2293,
      "వల్ల": 2294,
      "వరణ": 2295,
      "సర": 2296,
      "సహ": 2297,
      "సే": 2298,
      "సులు": 2299,
      "సార్": 2300,
      "సూచ": 2301,
      "హా": 2302,
      "హ్": 2303,
      "హిమ": 2304,
      "ాదేశ": 2305,
      "ాంగ": 2306,
      "ిగా": 2307,
      "ుకొ": 2308,
      "ే.": 2309,
      "్ఘ": 2310,
      "్డ": 2311,
      "केवल": 2312,
      "ారంభ": 2313,
      "भारताने": 2314,
      "र्त": 2315,
      "र्ष": 2316,
      "ातून": 2317,
      "లు.": 2318,
      "లుగు": 2319,
      "स्लि": 2320,
      "स्वी": 2321,
      "ant": 2322,
      "प्रतिश": 2323,
      "प्रचल": 2324,
      "प्रयास": 2325,
      "प्रसिद्ध": 2326,
      "ine": 2327,
      "ince": 2328,
      "లోయ": 2329,
      "దిన": 2330,
      "ered": 2331,
      "नेह": 2332,
      "विवाद": 2333,
      "विभि": 2334,
      "ప్రారంభ": 2335,
      "लां": 2336,
      "लाख": 2337,
      "नावा": 2338,
      "नागर": 2339,
      "నిస్తాన్": 2340,
      "ాలయ": 2341,
      "ాలీ": 2342,
      "ాలకు": 2343,
      "ాలనే": 2344,
      "वाली": 2345,
      "वापर": 2346,
      "वास्त": 2347,
      "దేశపు": 2348,
      "దేశంగా": 2349,
      "దేశానికి": 2350,
      "ర్,": 2351,
      "ర్త": 2352,
      "ర్ష": 2353,
      "గాంధ": 2354,
      "आहे,": 2355,
      "న్నది.": 2356,
      "న్నారు.": 2357,
      "क्षर": 2358,
      "करतात.": 2359,
      "ికి": 2360,
      "ियान": 2361,
      "देव": 2362,
      "ాలు.": 2363,
      "तीन": 2364,
      "ాయు": 2365,
      "राज्या": 2366,
      "त्न": 2367,
      "విధ్య": 2368,
      "విభిన్న": 2369,
      "నుంచి": 2370,
      "నుకటి": 2371,
      "मुस्लि": 2372,
      "క్తి": 2373,
      "ष्ठा": 2374,
      "पाद": 2375,
      "पाल": 2376,
      "ంలో,": 2377,
      "ition": 2378,
      "itary": 2379,
      "होते": 2380,
      "ांच्या": 2381,
      "ांमध्ये": 2382,
      "निय": 2383,
      "ించబడ": 2384,
      "ండా": 2385,
      "ద్వార": 2386,
      "ము.": 2387,
      "ముంబ": 2388,
      "వాతా": 2389,
      "వాణి": 2390,
      "త్తా": 2391,
      "मिला": 2392,
      "భారతదేశపు": 2393,
      "मान्य": 2394,
      "मानवी": 2395,
      "ంగాలీ": 2396,
      "समर्थ": 2397,
      "समूह": 2398,
      "लियन": 2399,
      "తంగా": 2400,
      "పురు": 2401,
      "పుట్ట": 2402,
      "స్థి": 2403,
      "राज्यसभा": 2404,
      "श्मीर": 2405,
      "పాటు": 2406,
      "పాదన": 2407,
      "वेद": 2408,
      "प्राण्यां": 2409,
      "ఉన్నారు.": 2410,
      "इसकी": 2411,
      "त्याचे": 2412,
      "१९५०": 2413,
      "సంఘ": 2414,
      "సంఖ్య": 2415,
      "సంకీ": 2416,
      "సంవత్": 2417,
      "कृष": 2418,
      "उत्पाद": 2419,
      "కూడుకు": 2420,
      "మాబాద్": 2421,
      "भारताची": 2422,
      "झाला": 2423,
      "olog": 2424,
      "మొట్ట": 2425,
      "जास्त": 2426,
      "ade": 2427,
      "కోవడ": 2428,
      "కోట్ల": 2429,
      "ాన్ని": 2430,
      "జాతి": 2431,
      "వచ్చు.": 2432,
      "ational": 2433,
      "ద్ధం": 2434,
      "भूमी": 2435,
      "सुरू": 2436,
      "నాగర": 2437,
      "మైనది.": 2438,
      "లిచ": 2439,
      "ఒకే": 2440,
      "గువ": 2441,
      "గుర్త": 2442,
      "చేసింది.": 2443,
      "రాష్ట్రాల": 2444,
      "రాష్ట్రాలు": 2445,
      "cons": 2446,
      "కొన్ని": 2447,
      "వ్యా": 2448,
      "हिन्दू": 2449,
      "लोकसभा": 2450,
      "०००": 2451,
      "పాలించ": 2452,
      "పాలిత": 2453,
      "శాఖ": 2454,
      "ell": 2455,
      "उपयोग": 2456,
      "साम्राज्या": 2457,
      "under": 2458,
      "बनाने": 2459,
      "वैशिष्ट": 2460,
      "కారణంగా": 2461,
      "దాపు": 2462,
      "దాదాపు": 2463,
      "महासागर": 2464,
      "కేవల": 2465,
      "రాజ్యాంగ": 2466,
      "कडील": 2467,
      "दिया।": 2468,
      "व्यापार": 2469,
      "బడత": 2470,
      "దక్షిణాసియా": 2471,
      "यांनी": 2472,
      "able": 2473,
      "इंडो": 2474,
      "वंट": 2475,
      "పెనీ": 2476,
      "వారస": 2477,
      "హిందూదేశం": 2478,
      "रिका": 2479,
      "सोबत": 2480,
      "వీటిలో": 2481,
      "करण्यात": 2482,
      "సాంస్కృ": 2483,
      "began": 2484,
      "ఉత్తరా": 2485,
      "పూర్వ": 2486,
      "శ్రీ": 2487,
      "ష్ణ": 2488,
      "ుకుంట": 2489,
      "होती.": 2490,
      "ముఖ్యమైన": 2491,
      "म्हणून": 2492,
      "म्हणजे": 2493,
      "ulture": 2494,
      "తరువాతి": 2495,
      "पेक्ष": 2496,
      "కలిసి": 2497,
      "డ్డ": 2498,
      "లేదా": 2499,
      "సాధించ": 2500,
      "కేంద్రపాలిత": 2501,
      "अंग्रेज़ी": 2502,
      "पैकी": 2503,
      "general": 2504,
      "spec": 2505,
      "లతో,": 2506,
      "विस्तार": 2507,
      "विस्तृत": 2508,
      "ప్రతిపాదన": 2509,
      "సినిమాలు": 2510,
      "శాస్త్రీయ": 2511,
      "ప్రభుత్వం": 2512,
      "port": 2513,
      "पृष्ठा": 2514,
      "तनत": 2515,
      "ఉపఖండ": 2516,
      "బెంగాలీ": 2517,
      "వైవిధ్య": 2518,
      "త్వాన్ని": 2519,
      "ఏర్పడ్డ": 2520,
      "బహుళ": 2521,
      "जबकि": 2522,
      "यूरोपीय": 2523,
      "शैली": 2524,
      "निरपेक्ष": 2525,
      "ार्थ्यां": 2526,
      "अमेरिका": 2527,
      "ण्यास": 2528,
      "పతకాలు": 2529,
      "పొందిన": 2530,
      "సముద్ర": 2531,
      "సమాఖ్య": 2532,
      "प्रभाव": 2533,
      "विद्यार्थ्यां": 2534,
      "ప్రజాస్వామ్య": 2535,
      "కోర్టులు": 2536,
      "పేర్కొ": 2537,
      "మొదలైన": 2538,
      "आधारित": 2539,
      "స్వాతంత్ర్య": 2540,
      "సింధు": 2541,
      "నిర్వహణ": 2542,
      "धारण": 2543,
      "किल्ला": 2544,
      "अमरी": 2545,
      "अप्रैल": 2546,
      "तमिळनाड": 2547,
      "पड़ोसी": 2548,
      "व्हा": 2549,
      "కంపెనీ": 2550,
      "నాయక": 2551,
      "పండుగలు": 2552,
      "ప్రకారం": 2553,
      "ద్వీప": 2554,
      "दिवस": 2555,
      "సంప్రదాయాలు": 2556,
      "वर्षांपूर्वी": 2557,
      "రైళ్లను": 2558,
      "కార్యక్రమ": 2559,
      "పరిశ్రమలు": 2560,
      "సాంప్రదాయిక": 2561,
      "సర్వీసులు": 2562,
      "आढळ": 2563,
      "माध्यम": 2564,
      "राजनीतिक": 2565,
      "वर्तमान": 2566,
      "पुरुष": 2567,
      "निर्मिती": 2568,
      "मौर्य": 2569,
      "(వెనుకటి": 2570,
      "Pakistan": 2571,
      "अफ्रीका": 2572,
      "आन्दोलन": 2573,
      "चळवळ": 2574,
      "जलोढ़": 2575,
      "जयंती": 2576,
      "धार्मिक": 2577,
      "पंतप्रधान": 2578,
      "सल्तनत": 2579,
      "ఆఫ్ఘ": 2580,
      "ఇస్లామాబాద్": 2581,
      "చాలా": 2582,
      "జన్మ": 2583,
      "జరుపు": 2584,
      "జంబూ": 2585,
      "బంగ్లాదేశ": 2586,
      "ళ్ళ": 2587,
      "వరణం": 2588,
      "హిమాలయ": 2589,
      "प्रतिशत": 2590,
      "विभिन्न": 2591,
      "గాంధీ": 2592,
      "मुस्लिम": 2593,
      "ద్వారా": 2594,
      "వాతావరణం": 2595,
      "వాణిజ్య": 2596,
      "समर्थन": 2597,
      "సంకీర్ణ": 2598,
      "మొట్టమొదటి": 2599,
      "నాగరికత": 2600,
      "కేవలం": 2601,
      "సాంస్కృతిక": 2602,
      "तमिळनाडू": 2603,
      "16": 2604,
      "Hindu": 2605,
      "It": 2606,
      "S$": 2607,
      "US$": 2608,
      "ace": 2609,
      "during": 2610,
      "if": 2611,
      "lo": 2612,
      "lang": 2613,
      "million": 2614,
      "tec": 2615,
      "ud": 2616,
      "this": 2617,
      "ens": 2618,
      "diver": 2619,
      "ited": 2620,
      "es,": 2621,
      "isation": 2622,
      "out": 2623,
      "leg": 2624,
      "set": 2625,
      "parli": 2626,
      "life": 2627,
      "north": 2628,
      "185": 2629,
      "western": 2630,
      "world's": 2631,
      "increased": 2632,
      "both": 2633,
      "Indo-": 2634,
      "countr": 2635,
      "have": 2636,
      "between": 2637,
      "power": 2638,
      "species": 2639,
      "langu": 2640,
      "parliament": 2641,
      "1.": 2642,
      "40": 2643,
      "An": 2644,
      "Plate": 2645,
      "hist": 2646,
      "king": 2647,
      "mil": 2648,
      "nuclear": 2649,
      "non-": 2650,
      "ric": 2651,
      "sc": 2652,
      "serv": 2653,
      "since": 2654,
      "ta": 2655,
      "ures": 2656,
      "ं।": 2657,
      "अं": 2658,
      "अधि": 2659,
      "अलावा": 2660,
      "आत": 2661,
      "आम": 2662,
      "आस": 2663,
      "आर्": 2664,
      "आकर्": 2665,
      "ईस्ट": 2666,
      "उद": 2667,
      "उठा": 2668,
      "उच्च": 2669,
      "उष्ण": 2670,
      "एन": 2671,
      "कमा": 2672,
      "कटि": 2673,
      "कंप": 2674,
      "गई": 2675,
      "गई।": 2676,
      "घड": 2677,
      "छोड़": 2678,
      "जह": 2679,
      "जवळ": 2680,
      "जहाँ": 2681,
      "टर": 2682,
      "टना": 2683,
      "णात": 2684,
      "तम": 2685,
      "तरा": 2686,
      "द्यां": 2687,
      "दारी": 2688,
      "नवी": 2689,
      "नगर": 2690,
      "नदिया": 2691,
      "नद्यां": 2692,
      "पहु": 2693,
      "फि": 2694,
      "फै": 2695,
      "मर": 2696,
      "महि": 2697,
      "यत": 2698,
      "र-": 2699,
      "रल": 2700,
      "रचना": 2701,
      "लया": 2702,
      "वान": 2703,
      "वारी": 2704,
      "शस्त्र": 2705,
      "सरा": 2706,
      "सस्त": 2707,
      "सक्र": 2708,
      "सऱ्या": 2709,
      "सृष्ट": 2710,
      "ह्या": 2711,
      "ाम": 2712,
      "ूण": 2713,
      "ेक्षा": 2714,
      "ैकी": 2715,
      "ौर": 2716,
      "ौद्योगिक": 2717,
      "०,": 2718,
      "११": 2719,
      "१३": 2720,
      "२४": 2721,
      "४०": 2722,
      "केली.": 2723,
      "भारती": 2724,
      "through": 2725,
      "स्मार": 2726,
      "स्पती": 2727,
      "ance": 2728,
      "प्रग": 2729,
      "प्रणा": 2730,
      "प्रौद्योगिक": 2731,
      "या।": 2732,
      "साली": 2733,
      "विज": 2734,
      "विद्या": 2735,
      "वियत": 2736,
      "क्ट": 2737,
      "वाघ": 2738,
      "वास": 2739,
      "rel": 2740,
      "state": 2741,
      "eng": 2742,
      "लेला": 2743,
      "त्री": 2744,
      "माल": 2745,
      "करते": 2746,
      "परि": 2747,
      "परी": 2748,
      "परे": 2749,
      "ियां": 2750,
      "देखा": 2751,
      "राज्ये": 2752,
      "राजधान": 2753,
      "राजनै": 2754,
      "त्त": 2755,
      "त्त्वा": 2756,
      "हाल": 2757,
      "तरह": 2758,
      "चीफ": 2759,
      "कोई": 2760,
      "द्दल": 2761,
      "ीलंका": 2762,
      "ांचा": 2763,
      "किये": 2764,
      "मिश्र": 2765,
      "मिलियन": 2766,
      "हिस्": 2767,
      "चाल": 2768,
      "ised": 2769,
      "मानव": 2770,
      "मानसून": 2771,
      "India.": 2772,
      "लिख": 2773,
      "पुर्त": 2774,
      "श्च": 2775,
      "बाह": 2776,
      "ंत्रिक": 2777,
      "वेष": 2778,
      "त्यामुळे": 2779,
      "१९४७": 2780,
      "कृष्ट": 2781,
      "रूस": 2782,
      "ल्प": 2783,
      "स्थि": 2784,
      "मी.": 2785,
      "भारताला": 2786,
      "जीत": 2787,
      "ural": 2788,
      "वर्षात": 2789,
      "emerg": 2790,
      "किया,": 2791,
      "णाऱ्या": 2792,
      "स्कृतिक": 2793,
      "सरकारें": 2794,
      "सदन": 2795,
      "जनवरी": 2796,
      "व्यु": 2797,
      "ular": 2798,
      "लोकप्रिय": 2799,
      "अपना": 2800,
      "जिसका": 2801,
      "स्थापत्य": 2802,
      "उपमहाद्वीप": 2803,
      "प्रकारच्या": 2804,
      "ide": 2805,
      "प्रदेशात": 2806,
      "ंपैकी": 2807,
      "गेट": 2808,
      "गेल्या": 2809,
      "गेली.": 2810,
      "व्यावसाय": 2811,
      "मिळा": 2812,
      "केंद्रशासित": 2813,
      "यांच्या": 2814,
      "पश्चिमी": 2815,
      "वन्य": 2816,
      "वनस्पती": 2817,
      "समाप्त": 2818,
      "कर्नाट": 2819,
      "पदवी": 2820,
      "हुई।": 2821,
      "ically": 2822,
      "1991": 2823,
      "सोयी": 2824,
      "बढ़कर": 2825,
      "संघीय": 2826,
      "संघर्ष": 2827,
      "थे।": 2828,
      "अन्तर": 2829,
      "dern": 2830,
      "पेक्षा": 2831,
      "rule": 2832,
      "ग्री": 2833,
      "पार्ट": 2834,
      "शुरु": 2835,
      "ound": 2836,
      "1947,": 2837,
      "मैदानी": 2838,
      "दृष्टि": 2839,
      "पडले": 2840,
      "श्रीलंका": 2841,
      "नाटके": 2842,
      "northern": 2843,
      "अभियान": 2844,
      "हिंदी": 2845,
      "बंगालच्या": 2846,
      "घोषित": 2847,
      "Chin": 2848,
      "subcontinent": 2849,
      "कांच्या": 2850,
      "इ.स.": 2851,
      "soon": 2852,
      "जैसे": 2853,
      "लोगों": 2854,
      "उसके": 2855,
      "वाळवंट": 2856,
      "निभाई": 2857,
      "हिंदू": 2858,
      "स्वातंत्र्य": 2859,
      "forest": 2860,
      "अजूनही": 2861,
      "इत्यादी": 2862,
      "कहते": 2863,
      "सांस्कृतिक": 2864,
      "गुजर": 2865,
      "ऋषभ": 2866,
      "गंगे": 2867,
      "छोटे": 2868,
      "तत्कालीन": 2869,
      "दख्खन": 2870,
      "नागरिक": 2871,
      "histor": 2872,
      "नदियाँ": 2873,
      "सस्तन": 2874,
      "प्रणाली": 2875,
      "प्रौद्योगिकी": 2876,
      "राजधानी": 2877,
      "राजनैतिक": 2878,
      "पुर्तगा": 2879,
      "कर्नाटक": 2880,
      ".9": 2881,
      "24": 2882,
      "5%": 2883,
      "Al": 2884,
      "Eur": 2885,
      "Himal": 2886,
      "aw": 2887,
      "bas": 2888,
      "billion": 2889,
      "ces": 2890,
      "ev": 2891,
      "ever": 2892,
      "ff": 2893,
      "kil": 2894,
      "ok": 2895,
      "pop": 2896,
      "rat": 2897,
      "ris": 2898,
      "ust": 2899,
      "ins": 2900,
      "inter": 2901,
      "ren": 2902,
      "art": 2903,
      "India,": 2904,
      "lead": 2905,
      "ement": 2906,
      "contr": 2907,
      "exp": 2908,
      "ident": 2909,
      "ages": 2910,
      "2004": 2911,
      "1977": 2912,
      "been": 2913,
      "ultan": 2914,
      "app": 2915,
      "economy": 2916,
      "large": 2917,
      "4%,": 2918,
      "mark": 2919,
      "polit": 2920,
      "social": 2921,
      "human": 2922,
      "military": 2923,
      "China": 2924,
      "Himalay": 2925,
      "\",": 2926,
      "%)": 2927,
      "(0": 2928,
      "(3": 2929,
      "(इंग्र": 2930,
      "13": 2931,
      "29": 2932,
      "36": 2933,
      "5.": 2934,
      "7,": 2935,
      "8,": 2936,
      "8లో": 2937,
      "Act": 2938,
      "Bud": 2939,
      "Con": 2940,
      "Gand": 2941,
      "Is": 2942,
      "Ma": 2943,
      "can": 2944,
      "cor": 2945,
      "ep": 2946,
      "gre": 2947,
      "high": 2948,
      "ied": 2949,
      "lim": 2950,
      "me": 2951,
      "med": 2952,
      "mid": 2953,
      "many": 2954,
      "not": 2955,
      "pres": 2956,
      "te": 2957,
      "tra": 2958,
      "ंच": 2959,
      "ंवर": 2960,
      "अज": 2961,
      "अति": 2962,
      "अशिया": 2963,
      "अहिं": 2964,
      "अशो": 2965,
      "आय": 2966,
      "आली": 2967,
      "आंतर": 2968,
      "आयात": 2969,
      "इसे": 2970,
      "इंदि": 2971,
      "ई,": 2972,
      "ईद": 2973,
      "उसे": 2974,
      "उन्हें": 2975,
      "एका": 2976,
      "ओडि": 2977,
      "कप": 2978,
      "कल": 2979,
      "कों": 2980,
      "कले": 2981,
      "क्यों": 2982,
      "कच्छ": 2983,
      "कश्मीर": 2984,
      "खु": 2985,
      "गि": 2986,
      "ग्": 2987,
      "ग्रे": 2988,
      "घर": 2989,
      "घात": 2990,
      "चली": 2991,
      "जट": 2992,
      "ज्य": 2993,
      "जार": 2994,
      "जरा": 2995,
      "जों": 2996,
      "जमा": 2997,
      "जां": 2998,
      "ट्ट": 2999,
      "डिया": 3000,
      "णि": 3001,
      "णु": 3002,
      "णारे": 3003,
      "तट": 3004,
      "तान": 3005,
      "तनाव": 3006,
      "थार": 3007,
      "धन": 3008,
      "नर": 3009,
      "नद्या": 3010,
      "नुसार": 3011,
      "पर्": 3012,
      "पात": 3013,
      "पहि": 3014,
      "पद्ध": 3015,
      "पणे": 3016,
      "फु": 3017,
      "बरो": 3018,
      "बडी": 3019,
      "बजट": 3020,
      "भार": 3021,
      "भवन": 3022,
      "भ्यता": 3023,
      "म्या": 3024,
      "मना": 3025,
      "मले": 3026,
      "मंचा": 3027,
      "यर": 3028,
      "यश": 3029,
      "यदा": 3030,
      "यहाँ": 3031,
      "रख": 3032,
      "रह": 3033,
      "रही": 3034,
      "रंग": 3035,
      "रत्न": 3036,
      "लौ": 3037,
      "लड़ा": 3038,
      "लंबे": 3039,
      "ळू": 3040,
      "ळूह": 3041,
      "वत": 3042,
      "वू": 3043,
      "वणात": 3044,
      "शिक": 3045,
      "शील": 3046,
      "श्रे": 3047,
      "शहर": 3048,
      "षिक": 3049,
      "षित": 3050,
      "षणा": 3051,
      "स्र": 3052,
      "सत्": 3053,
      "सहा": 3054,
      "सन्": 3055,
      "सफल": 3056,
      "सभ्यता": 3057,
      "हॉ": 3058,
      "हारा": 3059,
      "हळूह": 3060,
      "ृद्ध": 3061,
      "ेत": 3062,
      "्न": 3063,
      "१,": 3064,
      "१२": 3065,
      "१४": 3066,
      "२८": 3067,
      "३८": 3068,
      "५,": 3069,
      "५७": 3070,
      "ంకా": 3071,
      "ంతర": 3072,
      "అణ": 3073,
      "అంట": 3074,
      "అంత": 3075,
      "అన్ని": 3076,
      "అప్ప": 3077,
      "అక్షరాస్యత": 3078,
      "ఆసియా": 3079,
      "ఇదే": 3080,
      "ఇటీ": 3081,
      "ఇక్క": 3082,
      "ఇండో": 3083,
      "ఈశ": 3084,
      "ఈస్": 3085,
      "ఎల": 3086,
      "ఐరో": 3087,
      "ఐక్య": 3088,
      "ఒలం": 3089,
      "కర": 3090,
      "కూ": 3091,
      "కర్": 3092,
      "కన్న": 3093,
      "కబడ": 3094,
      "కంటే": 3095,
      "ఖో": 3096,
      "ఖని": 3097,
      "గత": 3098,
      "గంగ": 3099,
      "గ్రా": 3100,
      "చద": 3101,
      "చన": 3102,
      "చయ": 3103,
      "చి": 3104,
      "చూ": 3105,
      "చవి": 3106,
      "చారి": 3107,
      "జె": 3108,
      "జో": 3109,
      "జ్": 3110,
      "జ్యం": 3111,
      "జమ్": 3112,
      "జిక,": 3113,
      "టే": 3114,
      "టై": 3115,
      "టాన్": 3116,
      "ట్‌": 3117,
      "ఠభూ": 3118,
      "డైన": 3119,
      "ఢా": 3120,
      "ణులు": 3121,
      "తే": 3122,
      "తర్": 3123,
      "తను": 3124,
      "తంలో": 3125,
      "తక్కువ": 3126,
      "థ్యం": 3127,
      "ద్య": 3128,
      "దర్": 3129,
      "దగా": 3130,
      "దులు": 3131,
      "ద్రా": 3132,
      "దరణ": 3133,
      "ధీన": 3134,
      "నూ": 3135,
      "నె": 3136,
      "నెల": 3137,
      "పీ": 3138,
      "పలు": 3139,
      "పిక": 3140,
      "పవి": 3141,
      "పార్": 3142,
      "పల్ల": 3143,
      "పడు": 3144,
      "పర్వ": 3145,
      "పర్య": 3146,
      "పడిన": 3147,
      "బు": 3148,
      "బౌ": 3149,
      "బంగ": 3150,
      "బంధ": 3151,
      "భవ": 3152,
      "భౌ": 3153,
      "భక్తి": 3154,
      "మల": 3155,
      "మరో": 3156,
      "మించబడ": 3157,
      "యం": 3158,
      "యింది.": 3159,
      "యమించబడ": 3160,
      "రం": 3161,
      "రీ": 3162,
      "రిక": 3163,
      "రల్": 3164,
      "రకాలు": 3165,
      "రచయ": 3166,
      "లీ": 3167,
      "లచే": 3168,
      "లౌక": 3169,
      "లస్య": 3170,
      "ళి": 3171,
      "ళిక": 3172,
      "వం": 3173,
      "వత్ర": 3174,
      "వైన": 3175,
      "వార్": 3176,
      "శి": 3177,
      "శీ": 3178,
      "శై": 3179,
      "శకు": 3180,
      "శెల": 3181,
      "సన": 3182,
      "సీ": 3183,
      "సె": 3184,
      "సై": 3185,
      "సాల": 3186,
      "స్రా": 3187,
      "సిక్": 3188,
      "హై": 3189,
      "హో": 3190,
      "ాక": 3191,
      "ిల్": 3192,
      "ీర": 3193,
      "ీక్ష": 3194,
      "ీషు": 3195,
      "ూనది": 3196,
      "ే,": 3197,
      "ౌర": 3198,
      "్వ": 3199,
      "‌సభ": 3200,
      "केवळ": 3201,
      "్రాన్": 3202,
      "्याद्र": 3203,
      "ात.": 3204,
      "ातन": 3205,
      "ात्र": 3206,
      "లుగా": 3207,
      "లుచు": 3208,
      "स्कार": 3209,
      "प्रे": 3210,
      "प्रसार": 3211,
      "प्रशासन": 3212,
      "प्रदान": 3213,
      "प्रभु": 3214,
      "లోని": 3215,
      "లోను": 3216,
      "లోమీ": 3217,
      "theast": 3218,
      "their": 3219,
      "స్వీ": 3220,
      "స్కరణ": 3221,
      "స్లిం": 3222,
      "న్‌": 3223,
      "దినాలు": 3224,
      "eration": 3225,
      "नेट": 3226,
      "नेमा": 3227,
      "नेशिया": 3228,
      "్యా": 3229,
      "ింది": 3230,
      "साग": 3231,
      "साद": 3232,
      "वित": 3233,
      "विभाग": 3234,
      "विरो": 3235,
      "से,": 3236,
      "ప్రదేశ": 3237,
      "ప్రాయ": 3238,
      "ప్రసి": 3239,
      "ప్రత్య": 3240,
      "ప్రయో": 3241,
      "नाही": 3242,
      "నిపు": 3243,
      "నిడి": 3244,
      "నియమించబడ": 3245,
      "ాల్": 3246,
      "वाढ": 3247,
      "वाला": 3248,
      "वाटा": 3249,
      "ర్తి": 3250,
      "ర్పు": 3251,
      "ర్జాతీయ": 3252,
      "ర్చు": 3253,
      "ర్థ్యం": 3254,
      "संख": 3255,
      "लेय": 3256,
      "लेकर": 3257,
      "लेल्या": 3258,
      "लेणी": 3259,
      "గాన్ని": 3260,
      "त्रि": 3261,
      "న్నీ": 3262,
      "als": 3263,
      "కు,": 3264,
      "परिक": 3265,
      "परिण": 3266,
      "भाव": 3267,
      "arm": 3268,
      "देवा": 3269,
      "ాయాలు": 3270,
      "राज्यात": 3271,
      "राजस्थान": 3272,
      "राजवंश": 3273,
      "त्त्व": 3274,
      "విలు": 3275,
      "విశ్": 3276,
      "విమాన": 3277,
      "off": 3278,
      "క్కను": 3279,
      "క్టో": 3280,
      "ष्क": 3281,
      "पाव": 3282,
      "पाया": 3283,
      "पाँच": 3284,
      "कोटी": 3285,
      "होना": 3286,
      "होत्या": 3287,
      "తిలో": 3288,
      "ినీ": 3289,
      "ांत": 3290,
      "ांस": 3291,
      "ांना": 3292,
      "ांची": 3293,
      "ांचे": 3294,
      "निष्ठ": 3295,
      "निवेश": 3296,
      "త్రక": 3297,
      "ించుకో": 3298,
      "हैं:": 3299,
      "ండవ": 3300,
      "ండ్": 3301,
      "ములో": 3302,
      "ముడి": 3303,
      "ముస్లిం": 3304,
      "किए": 3305,
      "किसी": 3306,
      "త్మా": 3307,
      "जाति": 3308,
      "जातात.": 3309,
      "वर्षा": 3310,
      "पूरा": 3311,
      "पूरे": 3312,
      "స్తులు": 3313,
      "స్తారు": 3314,
      "एकूण": 3315,
      "शाही": 3316,
      "शालेय": 3317,
      "समझ": 3318,
      "समृद्ध": 3319,
      "ానీ": 3320,
      "ులు,": 3321,
      "लिवू": 3322,
      "భాగ": 3323,
      "భావిస్త": 3324,
      "భాగాన్ని": 3325,
      "पुन": 3326,
      "पुरा": 3327,
      "पुराण": 3328,
      "ంటు": 3329,
      "स्तरा": 3330,
      "द्रो": 3331,
      "పుకో": 3332,
      "పుతూ": 3333,
      "పాడు": 3334,
      "పాంతర": 3335,
      "दिला": 3336,
      "बांग": 3337,
      "కిలోమీ": 3338,
      "సాహ": 3339,
      "సామా": 3340,
      "सरी": 3341,
      "प्राप्": 3342,
      "इसका": 3343,
      "इसमें": 3344,
      "त्यात": 3345,
      "धिकार": 3346,
      "असल्या": 3347,
      "సంబంధ": 3348,
      "సంస్కరణ": 3349,
      "येतात.": 3350,
      "येथे": 3351,
      "उत्कृष्ट": 3352,
      "जिन्हें": 3353,
      "प्पा": 3354,
      "కూడి": 3355,
      "కూడుకొ": 3356,
      "ార్థ": 3357,
      "2022": 3358,
      "मोदी": 3359,
      "जी:": 3360,
      "जीवन": 3361,
      "झाल्या": 3362,
      "झाले.": 3363,
      "री,": 3364,
      "కాశ్": 3365,
      "కాహార": 3366,
      "కాపాడు": 3367,
      "చ్చే": 3368,
      "सिनेमा": 3369,
      "olv": 3370,
      "ollow": 3371,
      "నేపాల": 3372,
      "నేరే": 3373,
      "మొగలు": 3374,
      "రాజు": 3375,
      "తరాలు": 3376,
      "కోల్": 3377,
      "ాన్య": 3378,
      "భారతదేశం.": 3379,
      "क्री": 3380,
      "ంచిన": 3381,
      "జాబి": 3382,
      "వచ్చని": 3383,
      "सामरिक": 3384,
      "ations": 3385,
      "भाषाएं": 3386,
      "ందాయి.": 3387,
      "खाली": 3388,
      "भूभाग": 3389,
      "भागी": 3390,
      "धर्मीय": 3391,
      "కాలే": 3392,
      "నాథ": 3393,
      "వే.": 3394,
      "వేద": 3395,
      "వేల": 3396,
      "लगा": 3397,
      "constitution": 3398,
      "नावाने": 3399,
      "उत्तर-": 3400,
      "उत्तरी": 3401,
      "उत्तरे": 3402,
      "ందింది.": 3403,
      "దేశాలను": 3404,
      "త్వంలో": 3405,
      "हिन्दु": 3406,
      "मंत्रिम": 3407,
      "हरलाल": 3408,
      "శాసన": 3409,
      "स्थापन": 3410,
      "तुल": 3411,
      "वैविध": 3412,
      "హిందీ": 3413,
      "काळा": 3414,
      "काळातील": 3415,
      "agric": 3416,
      "more": 3417,
      "modern": 3418,
      "ंपारिक": 3419,
      "महत्त्वा": 3420,
      "ఎన్నుకో": 3421,
      "ఎన్నుకుంట": 3422,
      "కేతిక": 3423,
      "చెప్": 3424,
      "చెందు": 3425,
      "చెందాయి.": 3426,
      "తుంది.": 3427,
      "తులతో": 3428,
      "త్యం": 3429,
      "మే.": 3430,
      "రాజ్యంగా": 3431,
      "2003": 3432,
      "गणला": 3433,
      "దాయంలో": 3434,
      "బడిన": 3435,
      "రెండో": 3436,
      "రెండవ": 3437,
      "సభను": 3438,
      "मिळतात.": 3439,
      "భాషా": 3440,
      "భాషలను": 3441,
      "పేరు,": 3442,
      "चित्रपटसृष्ट": 3443,
      "शिक्षा": 3444,
      "शिक्षणा": 3445,
      "समावेश": 3446,
      "మతము": 3447,
      "మిస్తు": 3448,
      "రోడ్": 3449,
      "లాహో": 3450,
      "వారి": 3451,
      "వర్గ": 3452,
      "వర్ణ": 3453,
      "వర్ష": 3454,
      "వర్తి": 3455,
      "ange": 3456,
      "దేశం.": 3457,
      "ప్రాంతీయ": 3458,
      "ప్రాంతాల్లో": 3459,
      "పార్టీ,": 3460,
      "पदव्यु": 3461,
      "1999": 3462,
      "सोवियत": 3463,
      "వలన": 3464,
      "స్త్రీలు": 3465,
      "करणे": 3466,
      "ించినట్లు": 3467,
      "స్థానంలో": 3468,
      "స్థానాలను": 3469,
      "సాంకేతిక": 3470,
      "క్రీ.పూ.": 3471,
      "dep": 3472,
      "dev": 3473,
      "बढ़ती": 3474,
      "शेती": 3475,
      "जेवणात": 3476,
      "पारंपारिक": 3477,
      "सह्याद्र": 3478,
      "అతిపెద్ద": 3479,
      "జరిగే": 3480,
      "పూర్తి": 3481,
      "పోయింది.": 3482,
      "మంత్ర": 3483,
      "మీర్": 3484,
      "మీదగా": 3485,
      "ప్రభుత్వాన్ని": 3486,
      "ముఖ్యంగా": 3487,
      "म्हणतात.": 3488,
      "అయినప్పటిక": 3489,
      "అయినా,": 3490,
      "జనాభాతో": 3491,
      "26న": 3492,
      "अरबी": 3493,
      "रहा।": 3494,
      "ఉంటుంది.": 3495,
      "గినది.": 3496,
      "లేదు": 3497,
      "ప్రస్తుతము": 3498,
      "సాధించిన": 3499,
      "युद्धात": 3500,
      "కాంగ్రెస్": 3501,
      "కాలంలో,": 3502,
      "అధికారం": 3503,
      "coal": 3504,
      "coast": 3505,
      "central": 3506,
      "संसदीय": 3507,
      "पर्यटन": 3508,
      "सिंधु": 3509,
      "उनके": 3510,
      "उनकी": 3511,
      "डालर": 3512,
      "కల్లో": 3513,
      "గోదా": 3514,
      "జనతా": 3515,
      "జనవరి": 3516,
      "పరంగా": 3517,
      "పరీక్ష": 3518,
      "బ్ది": 3519,
      "భూభాగం": 3520,
      "భూటాన్": 3521,
      "మనదేశం": 3522,
      "యోగి": 3523,
      "రంగంలో": 3524,
      "వుదినాలు": 3525,
      "ప్రతిపక్ష": 3526,
      "संबंधों": 3527,
      "पुरातन": 3528,
      "पुरस्कार": 3529,
      "१९९१": 3530,
      "క్రీడా": 3531,
      "క్రీడలు": 3532,
      "క్రీడలలో": 3533,
      "टक्के,": 3534,
      "अवशेष": 3535,
      "दर्श": 3536,
      "फ्रांस": 3537,
      "सूची": 3538,
      "party": 3539,
      "इंग्": 3540,
      "२००४": 3541,
      "ఉపయోగి": 3542,
      "కనుక": 3543,
      "కనుమలు": 3544,
      "స్వతం": 3545,
      "1980": 3546,
      "త్వానికి": 3547,
      "సామర్థ్యం": 3548,
      "మాత్రమే": 3549,
      "ప్పటికీ": 3550,
      "ఏర్పడ": 3551,
      "బ్రిటీ": 3552,
      "సరిహద్దుగా": 3553,
      "ప్రముఖమైన": 3554,
      "प्रमाणात": 3555,
      "लागले.": 3556,
      "क्षणिक": 3557,
      "कार्यकाल": 3558,
      "कार्यपालिका": 3559,
      "शास्त्रीय": 3560,
      "इस्लाम": 3561,
      "0%),": 3562,
      "अमेरिक": 3563,
      "ण्याची": 3564,
      "చైనాను": 3565,
      "తూర్పు": 3566,
      "తెలుగు": 3567,
      "నాలుగు": 3568,
      "రూపాంతర": 3569,
      "సమరం": 3570,
      "సారస్వతం": 3571,
      "సమాజ": 3572,
      "प्रांतात": 3573,
      "ప్రజలు": 3574,
      "ప్రజాదరణ": 3575,
      "భారత్,": 3576,
      "కులాలు,": 3577,
      "भाषी": 3578,
      "నులు,": 3579,
      "असलेली": 3580,
      "కోర్టు": 3581,
      "పేర్లు": 3582,
      "రైల్వేశాఖ": 3583,
      "ఒకటిగా": 3584,
      "స్వాతంత్ర్యం": 3585,
      "ప్రపంచంలోని": 3586,
      "పట్టణాలు,": 3587,
      "ण्डल": 3588,
      "సింధూనది": 3589,
      "సౌకర్యాలలో": 3590,
      "నిర్వహించింది.": 3591,
      "आक्रमण": 3592,
      "वृद्ध": 3593,
      "जिनमें": 3594,
      "सदस्य": 3595,
      "सदस्यों": 3596,
      "परंपरागत": 3597,
      "including": 3598,
      "जलवायु": 3599,
      "వరాలు": 3600,
      "ిస్తారు.": 3601,
      "లోక్‌సభ": 3602,
      "నిర్మ": 3603,
      "కుంటూ": 3604,
      "కుంటారు.": 3605,
      "స్థావరాలు": 3606,
      "१९८४": 3607,
      "मोहन": 3608,
      "పాలనలో": 3609,
      "మేనని": 3610,
      "రాజ్యాలుగా": 3611,
      "సభ్యు": 3612,
      "సభ్యులు": 3613,
      "మహాత్మా": 3614,
      "ఆధారపడిన": 3615,
      "సామ్రాజ్య": 3616,
      "సామ్రాజ్యం": 3617,
      "బ్రిటిష్": 3618,
      "బ్రిటిషు": 3619,
      "ओळखले": 3620,
      "పశ్చిమాన": 3621,
      "majority": 3622,
      "ऊँची": 3623,
      "नौसेना": 3624,
      "ात्मक": 3625,
      "सुरुवाती": 3626,
      "caused": 3627,
      "अस्तित्त्व": 3628,
      "आगमन": 3629,
      "जवाहरलाल": 3630,
      "ठिकाणी": 3631,
      "बॉलिवू": 3632,
      "मंदिरे": 3633,
      "ఆహారం": 3634,
      "ఇంగ్లీషు": 3635,
      "ఎన్నికల్లో": 3636,
      "కళలు": 3637,
      "కిందకు": 3638,
      "గణతంత్ర": 3639,
      "గెలుచు": 3640,
      "టర్లకు": 3641,
      "తమిళం": 3642,
      "భరత": 3643,
      "మౌర్య": 3644,
      "లక్షణ": 3645,
      "సహస్రా": 3646,
      "సార్వత్ర": 3647,
      "సూచించినట్లు": 3648,
      "హ్మ": 3649,
      "్డీ": 3650,
      "प्रचलित": 3651,
      "नेहरू": 3652,
      "ప్రారంభించ": 3653,
      "नावाचा": 3654,
      "ర్షణ": 3655,
      "ాయుత": 3656,
      "ముంబై": 3657,
      "పురుషు": 3658,
      "స్థితి": 3659,
      "సంవత్సర": 3660,
      "कृषि": 3661,
      "కూడుకుని": 3662,
      "కోవడం": 3663,
      "కోట్లకు": 3664,
      "వ్యాపార": 3665,
      "పాలించారు.": 3666,
      "वैशिष्ट्य": 3667,
      "రాజ్యాంగం": 3668,
      "బడతారు.": 3669,
      "इंडोनेशिया": 3670,
      "ఉత్తరాన": 3671,
      "ప్రతిపాదనకు": 3672,
      "ఏర్పడ్డాయి.": 3673,
      "సముద్రం": 3674,
      "अमरीकी": 3675,
      "కార్యక్రమాలు": 3676,
      "आढळतात.": 3677,
      "चळवळी": 3678,
      "ఆఫ్ఘనిస్తాన్": 3679,
      "జరుపుకుంటారు.": 3680,
      "బంగ్లాదేశ్‌": 3681,
      "आकर्षित": 3682,
      "सक्रिय": 3683,
      "ामस्वरूप": 3684,
      "परीक्षण": 3685,
      "बाहरी": 3686,
      "वेषभू": 3687,
      "स्थिति": 3688,
      "emerged": 3689,
      "व्यावसायिक": 3690,
      "शुरुआत": 3691,
      "गुजरात": 3692,
      "popul": 3693,
      "control": 3694,
      "political": 3695,
      "(इंग्रजी:": 3696,
      "Buddh": 3697,
      "इंदिरा": 3698,
      "थारचे": 3699,
      "पद्धती": 3700,
      "बरोबर": 3701,
      "सहायक": 3702,
      "हॉकी": 3703,
      "हळूहळू": 3704,
      "అంతర్జాతీయ": 3705,
      "ఈశాన్య": 3706,
      "ఈస్ట్": 3707,
      "ఎలక్టో": 3708,
      "ఐరోపా": 3709,
      "కన్నడ": 3710,
      "కబడ్డీ": 3711,
      "ఖనిజాలు": 3712,
      "చారిత్రక": 3713,
      "జమ్మూ": 3714,
      "టైటి": 3715,
      "ఢాకా": 3716,
      "తర్వా": 3717,
      "నెలకొ": 3718,
      "పీఠభూ": 3719,
      "పిక్‌": 3720,
      "పవిత్ర": 3721,
      "పర్యాయాలు": 3722,
      "బౌద్ధ": 3723,
      "బంగారు": 3724,
      "రచయిత": 3725,
      "శెలవుదినాలు": 3726,
      "ప్రసిద్ధి": 3727,
      "ప్రయోజన": 3728,
      "నిపుణులు": 3729,
      "నిడివి": 3730,
      "परिणामस्वरूप": 3731,
      "కిలోమీటర్లకు": 3732,
      "సామాజిక,": 3733,
      "కూడుకొని": 3734,
      "కాపాడుకుంటూ": 3735,
      "నేపాల్": 3736,
      "నేరేడు": 3737,
      "జాబితా": 3738,
      "मंत्रिमण्डल": 3739,
      "ఎన్నుకోబడతారు.": 3740,
      "చెప్పుకో": 3741,
      "చెందుతున్న": 3742,
      "రోడ్డు": 3743,
      "లాహోర్": 3744,
      "पदव्युत्तर": 3745,
      "सह्याद्री": 3746,
      "పూర్తిగా": 3747,
      "बॉलिवूड": 3748,
      "గెలుచుకోవడం": 3749,
      "సహస్రాబ్ది": 3750,
      "సార్వత్రిక": 3751,
      "ఎలక్టోరల్": 3752,
      "-largest": 3753,
      ".0": 3754,
      "21": 3755,
      "42": 3756,
      "5,": 3757,
      "62": 3758,
      "7%": 3759,
      "BJ": 3760,
      "East": 3761,
      "Ganges": 3762,
      "Mo": 3763,
      "Mu": 3764,
      "Sans": 3765,
      "West": 3766,
      "bal": 3767,
      "bir": 3768,
      "cre": 3769,
      "ced": 3770,
      "cur": 3771,
      "cial": 3772,
      "cru": 3773,
      "culture": 3774,
      "eh": 3775,
      "eth": 3776,
      "fl": 3777,
      "fac": 3778,
      "great": 3779,
      "hm": 3780,
      "hn": 3781,
      "ks": 3782,
      "krit": 3783,
      "lish": 3784,
      "ni": 3785,
      "num": 3786,
      "pany": 3787,
      "rul": 3788,
      "rate": 3789,
      "sou": 3790,
      "tro": 3791,
      "uch": 3792,
      "ually": 3793,
      "ya": 3794,
      "than": 3795,
      "though": 3796,
      "inv": 3797,
      "states": 3798,
      "also": 3799,
      "dis": 3800,
      "dire": 3801,
      "arch": 3802,
      "Indu": 3803,
      "ite": 3804,
      "old": 3805,
      "emoc": 3806,
      "amm": 3807,
      "ters": 3808,
      "rap": 3809,
      "ivil": 3810,
      "own": 3811,
      "owever": 3812,
      "ago": 3813,
      "mov": 3814,
      "1960": 3815,
      "2012": 3816,
      "2014": 3817,
      "ared": 3818,
      "1974": 3819,
      "ope": 3820,
      "ritor": 3821,
      "lands": 3822,
      "formed": 3823,
      "later": 3824,
      "indust": 3825,
      "United": 3826,
      "Company": 3827,
      "country": 3828,
      "parliamentary": 3829,
      "relig": 3830,
      "Europe": 3831,
      "ultanate": 3832,
      "Gandhi": 3833,
      "depend": 3834,
      "BJP": 3835,
      "Mugh": 3836,
      "Sanskrit": 3837,
      "hnolog": 3838,
      "Indus": 3839,
      "owever,": 3840,
      "\".": 3841,
      "(०,": 3842,
      "-धीरे": 3843,
      ".८": 3844,
      "1000": 3845,
      "55": 3846,
      "500": 3847,
      "6,": 3848,
      "83": 3849,
      "93,": 3850,
      "Ar": 3851,
      "Beng": 3852,
      "Cent": 3853,
      "DP": 3854,
      "Des": 3855,
      "GDP": 3856,
      "Its": 3857,
      "Jan": 3858,
      "Mus": 3859,
      "National": 3860,
      "Re": 3861,
      "Si": 3862,
      "St": 3863,
      "War": 3864,
      "au": 3865,
      "bi": 3866,
      "ban": 3867,
      "ci": 3868,
      "cit": 3869,
      "cast": 3870,
      "cap": 3871,
      "cour": 3872,
      "ded": 3873,
      "des": 3874,
      "dle": 3875,
      "fin": 3876,
      "five": 3877,
      "follow": 3878,
      "ho": 3879,
      "kh": 3880,
      "man": 3881,
      "mill": 3882,
      "no": 3883,
      "ns": 3884,
      "ning": 3885,
      "national": 3886,
      "oy": 3887,
      "po": 3888,
      "pt": 3889,
      "pen": 3890,
      "ron": 3891,
      "righ": 3892,
      "sion": 3893,
      "sity": 3894,
      "secon": 3895,
      "some": 3896,
      "sign": 3897,
      "ty": 3898,
      "tor": 3899,
      "time": 3900,
      "ven": 3901,
      "vent": 3902,
      "well": 3903,
      "ंश": 3904,
      "ंस": 3905,
      "ंना": 3906,
      "ंच्या": 3907,
      "ंमध्ये": 3908,
      "ंजन": 3909,
      "ंदोलन": 3910,
      "ंपरिक": 3911,
      "अरा": 3912,
      "अंद": 3913,
      "अच्छ": 3914,
      "अक्ट": 3915,
      "अणु": 3916,
      "आई": 3917,
      "आक": 3918,
      "आठ": 3919,
      "आव": 3920,
      "आकार": 3921,
      "आते": 3922,
      "आली.": 3923,
      "आगे": 3924,
      "आंबे": 3925,
      "आहारा": 3926,
      "आंदोलन": 3927,
      "ईश": 3928,
      "उम": 3929,
      "उर्व": 3930,
      "ऊन": 3931,
      "ऊर्": 3932,
      "ऊपर": 3933,
      "एव": 3934,
      "एशन": 3935,
      "ऑपरे": 3936,
      "ओघात": 3937,
      "कथ": 3938,
      "खर": 3939,
      "गड": 3940,
      "गध": 3941,
      "गम": 3942,
      "गल": 3943,
      "गै": 3944,
      "गों": 3945,
      "चौ": 3946,
      "चित": 3947,
      "छह": 3948,
      "छा": 3949,
      "जू": 3950,
      "जन्": 3951,
      "जारी": 3952,
      "जंब": 3953,
      "झे": 3954,
      "टो": 3955,
      "ठक": 3956,
      "डकर": 3957,
      "ढा": 3958,
      "ण,": 3959,
      "णू": 3960,
      "तब": 3961,
      "तच्या": 3962,
      "थल": 3963,
      "थान": 3964,
      "दह": 3965,
      "धा": 3966,
      "धु": 3967,
      "नन": 3968,
      "नया": 3969,
      "नमु": 3970,
      "नदि": 3971,
      "नर्म": 3972,
      "नमू": 3973,
      "नमार": 3974,
      "पण": 3975,
      "पसं": 3976,
      "पत्र": 3977,
      "पमान": 3978,
      "पक्षा": 3979,
      "पड़ा": 3980,
      "पतन": 3981,
      "बल": 3982,
      "बळ": 3983,
      "बह": 3984,
      "बंद": 3985,
      "बियों": 3986,
      "बद्दल": 3987,
      "भो": 3988,
      "भौ": 3989,
      "भरा": 3990,
      "मही": 3991,
      "मील": 3992,
      "मंड": 3993,
      "मृत्य": 3994,
      "मगध": 3995,
      "यो": 3996,
      "यमु": 3997,
      "यद्य": 3998,
      "यपालिका": 3999,
      "रण": 4000,
      "रत": 4001,
      "रिया": 4002,
      "रणा": 4003,
      "रखा": 4004,
      "ल)": 4005,
      "लै": 4006,
      "ळून": 4007,
      "व्र": 4008,
      "वार्": 4009,
      "वतात.": 4010,
      "वटी": 4011,
      "वृत": 4012,
      "वारे": 4013,
      "शृ": 4014,
      "शतक": 4015,
      "शब्": 4016,
      "शक्त": 4017,
      "सव": 4018,
      "सै": 4019,
      "सॉ": 4020,
      "सौ": 4021,
      "सों": 4022,
      "सिया": 4023,
      "सदे": 4024,
      "सदी": 4025,
      "सभी": 4026,
      "सशस्त्र": 4027,
      "हरा": 4028,
      "हस्त": 4029,
      "हत्या": 4030,
      "हार्": 4031,
      "हारी": 4032,
      "हजह": 4033,
      "ाफ": 4034,
      "ाला": 4035,
      "ाचा": 4036,
      "िष्ठ": 4037,
      "ीण": 4038,
      "ीचे": 4039,
      "ुप": 4040,
      "ुव": 4041,
      "ूत": 4042,
      "ूबर": 4043,
      "ृह": 4044,
      "ोर": 4045,
      "ोत्तर": 4046,
      "्नि": 4047,
      "२३": 4048,
      "२९": 4049,
      "३७": 4050,
      "४३": 4051,
      "४५": 4052,
      "५२": 4053,
      "५००": 4054,
      "‍नी": 4055,
      "केला": 4056,
      "्याचे": 4057,
      "र्ज": 4058,
      "ातार": 4059,
      "ेंद्र": 4060,
      "thir": 4061,
      "काज": 4062,
      "काने": 4063,
      "स्वा": 4064,
      "प्रमा": 4065,
      "प्रश्": 4066,
      "प्रवेश": 4067,
      "याब": 4068,
      "यामुळे": 4069,
      "inf": 4070,
      "ानी": 4071,
      "ान्": 4072,
      "ानंतर": 4073,
      "them": 4074,
      "राम": 4075,
      "राला": 4076,
      "ert": 4077,
      "ers,": 4078,
      "साहे": 4079,
      "साक्षर": 4080,
      "सामान्य": 4081,
      "साधारण": 4082,
      "विले": 4083,
      "विमान": 4084,
      "विशा": 4085,
      "विरु": 4086,
      "विशेष": 4087,
      "विज्ञान": 4088,
      "विद्रो": 4089,
      "ोंने": 4090,
      "लाभ": 4091,
      "लाव": 4092,
      "लादेश": 4093,
      "नाइ": 4094,
      "नाऱ्या": 4095,
      "कीय": 4096,
      "वाज": 4097,
      "वाम": 4098,
      "red": 4099,
      "ree": 4100,
      "republic": 4101,
      "संर": 4102,
      "संलग": 4103,
      "संपूर्ण": 4104,
      "संबो": 4105,
      "enni": 4106,
      "लेली": 4107,
      "क्षणा": 4108,
      "लीवि": 4109,
      "करत": 4110,
      "करे": 4111,
      "करो": 4112,
      "करती": 4113,
      "dition": 4114,
      "ताज": 4115,
      "तांत्रिक": 4116,
      "तापमान": 4117,
      "तीस": 4118,
      "तीसरी": 4119,
      "राजभाषा": 4120,
      "त्‍": 4121,
      "त्वे": 4122,
      "मुद्": 4123,
      "मुंब": 4124,
      "तिम": 4125,
      "तिसऱ्या": 4126,
      "न्स": 4127,
      "कारभार": 4128,
      "पाच": 4129,
      "पाठ": 4130,
      "होने": 4131,
      "होतो.": 4132,
      "भारतीयों": 4133,
      "ांवर": 4134,
      "निम्": 4135,
      "निर्म": 4136,
      "नियों": 4137,
      "निवास": 4138,
      "देशात": 4139,
      "किनाऱ्या": 4140,
      "हिनी": 4141,
      "चाई": 4142,
      "जातीय": 4143,
      "मानी": 4144,
      "मान्यता": 4145,
      "वर्तन": 4146,
      "दीव": 4147,
      "पूर": 4148,
      "ecut": 4149,
      "शाका": 4150,
      "शाली": 4151,
      "शामिल": 4152,
      "शाहजह": 4153,
      "समी": 4154,
      "लिस": 4155,
      "पुढ": 4156,
      "पुत": 4157,
      "पुरी": 4158,
      "पुड़ा": 4159,
      "पुलिस": 4160,
      "वरिष्ठ": 4161,
      "राज्यसभे": 4162,
      "नीति": 4163,
      "सरस्व": 4164,
      "त्याला": 4165,
      "त्यांची": 4166,
      "असली": 4167,
      "असतात.": 4168,
      "ार्थी": 4169,
      "ly,": 4170,
      "येते.": 4171,
      "उत्तरा": 4172,
      "ल्स": 4173,
      "ल्ले": 4174,
      "षाण": 4175,
      "मीण": 4176,
      "ियो": 4177,
      "ल्या.": 4178,
      "2023": 4179,
      "मोर्": 4180,
      "मोसमी": 4181,
      "ild": 4182,
      "म्म": 4183,
      "भारताचा": 4184,
      "झाली": 4185,
      "रीबी": 4186,
      "र्मण": 4187,
      "urban": 4188,
      "्यांच्या": 4189,
      "्यांचे": 4190,
      "्यांमध्ये": 4191,
      "बहुमूल": 4192,
      "क्रय": 4193,
      "क्रि": 4194,
      "क्रमा": 4195,
      "क्रां": 4196,
      "ation,": 4197,
      "सरकारों": 4198,
      "साथ,": 4199,
      "भाषाएँ": 4200,
      "among": 4201,
      "सारी": 4202,
      "सारख्या": 4203,
      "धर्मों": 4204,
      "धर्मनिरपेक्ष": 4205,
      "रेशिय": 4206,
      "territor": 4207,
      "sequ": 4208,
      "लगातार": 4209,
      "अधिकारी": 4210,
      "अधिकृत": 4211,
      "गया,": 4212,
      "निर्भर": 4213,
      "हिन्द": 4214,
      "लोकसभे": 4215,
      "लोकतांत्रिक": 4216,
      "स्थानीय": 4217,
      "अपेक्षा": 4218,
      "गरजे": 4219,
      "थी,": 4220,
      "मंत्रण": 4221,
      "जिसने": 4222,
      "जिसकी": 4223,
      "स्थापित": 4224,
      "expor": 4225,
      "execut": 4226,
      "उपसाग": 4227,
      "ately": 4228,
      "union": 4229,
      "बनने": 4230,
      "बनविले": 4231,
      "रोजी": 4232,
      "प्रकारचे": 4233,
      "ies,": 4234,
      "प्रदेशों": 4235,
      "प्रदेशातील": 4236,
      "प्राचीनतम": 4237,
      "mother": 4238,
      "महात्": 4239,
      "कडा": 4240,
      "कडून": 4241,
      "गणतंत्र": 4242,
      "गेले.": 4243,
      "व्याप": 4244,
      "मिळते.": 4245,
      "2013": 4246,
      "व्यवस्थ": 4247,
      "व्यवसाय": 4248,
      "गुट": 4249,
      "गुरू": 4250,
      "केंद्रीय": 4251,
      "यांना": 4252,
      "यांचे": 4253,
      "यांचा": 4254,
      "हिमालया": 4255,
      "पश्चिमे": 4256,
      "चुकी": 4257,
      "हुआ,": 4258,
      "शिवा": 4259,
      "सेनाओं": 4260,
      "मुख्यत्वे": 4261,
      "द्वीपक": 4262,
      "द्वीपसमूह": 4263,
      "1951": 4264,
      "साम्राज्यों": 4265,
      "ially": 4266,
      "1,93,": 4267,
      "ज़्या": 4268,
      "टेलीवि": 4269,
      "बढ़ा": 4270,
      "बढ़ने": 4271,
      "मैल)": 4272,
      "मध्यम": 4273,
      "न्यायपालिका": 4274,
      "पारंपरिक": 4275,
      "मनमोहन": 4276,
      "स्ट्रे": 4277,
      "स्टाफ": 4278,
      "तिशील": 4279,
      "early": 4280,
      "endem": 4281,
      "plain": 4282,
      "अर्थव्यवस्थ": 4283,
      "पहली": 4284,
      "हिमालयी": 4285,
      "पीठ": 4286,
      "ured": 4287,
      "commer": 4288,
      "peri": 4289,
      "पैमान": 4290,
      "शुष्क": 4291,
      "सैनिक": 4292,
      "झालेले": 4293,
      "पूर्वीच्या": 4294,
      "उनका": 4295,
      "शहरा": 4296,
      "१९९०": 4297,
      "१९९८": 4298,
      "शिक्षणपद्धती": 4299,
      "अवधि": 4300,
      "आपले": 4301,
      "इतिहासा": 4302,
      "गोलिक": 4303,
      "घेत": 4304,
      "घेण्यास": 4305,
      "दर्शन": 4306,
      "सूचना": 4307,
      "अभि": 4308,
      "पठारा": 4309,
      "यनगर": 4310,
      "२००९": 4311,
      "कामकाज": 4312,
      "पंथी": 4313,
      "लुप्त": 4314,
      "शैक्षणिक": 4315,
      "सकल": 4316,
      "सकता": 4317,
      "सकते": 4318,
      "सेवाओं": 4319,
      "लागू": 4320,
      "देखील": 4321,
      "न्होंने": 4322,
      "१९७१": 4323,
      "ometers": 4324,
      "शोध": 4325,
      "२०१४": 4326,
      "प्रभावित": 4327,
      "प्रांत": 4328,
      "विषय": 4329,
      "विद्यार्थी": 4330,
      "भाषे": 4331,
      "मोठे": 4332,
      "धीरे-धीरे": 4333,
      "इतिहासकार": 4334,
      "विकासशील": 4335,
      "महाराष्ट्रातील": 4336,
      "आर्य": 4337,
      "आरक्षणा": 4338,
      "आक्रमणे": 4339,
      "मार्ग": 4340,
      "किल्ल्या": 4341,
      "वर्णन": 4342,
      "1965,": 4343,
      "अन्तर्": 4344,
      "अन्ततः": 4345,
      "century,": 4346,
      "include": 4347,
      "अगस्त": 4348,
      "अग्नि": 4349,
      "घाट": 4350,
      "घाटी": 4351,
      "ज्याचा": 4352,
      "पहाड़": 4353,
      "पहाड़ी": 4354,
      "बने।": 4355,
      "मसाले": 4356,
      "मसाल्या": 4357,
      "सतपुड़ा": 4358,
      "२.६": 4359,
      "निभाई।": 4360,
      "किनारे": 4361,
      "दक्षिणेकडील": 4362,
      "इंग्रजां": 4363,
      "निवडणू": 4364,
      "eastern": 4365,
      "duced": 4366,
      "domin": 4367,
      "आलेल्या": 4368,
      "आहारात": 4369,
      "उभरा": 4370,
      "ऊँचाई": 4371,
      "फायदा": 4372,
      "बदलां": 4373,
      "्टवे": 4374,
      "पृष्ठीय": 4375,
      "धर्माचा": 4376,
      "सुरुवात": 4377,
      "growing": 4378,
      "peop": 4379,
      "monsoon": 4380,
      "ग्रामीण": 4381,
      "चोल": 4382,
      "जंगले": 4383,
      "जानेवारी": 4384,
      "पत्‍नी": 4385,
      "बैठक": 4386,
      "मराठा": 4387,
      "शतका": 4388,
      "वास्तविक": 4389,
      "राज्यातील": 4390,
      "नियंत्र": 4391,
      "प्रभावशाली": 4392,
      "पुरुषों": 4393,
      "technolog": 4394,
      "diverse": 4395,
      "sett": 4396,
      "Indo-A": 4397,
      "languages": 4398,
      "आमदार": 4399,
      "आसपास": 4400,
      "कमांड": 4401,
      "कटिबंध": 4402,
      "कंपनी": 4403,
      "छोड़कर": 4404,
      "पहुँच": 4405,
      "फैली": 4406,
      "भारतीयांनी": 4407,
      "स्मारका": 4408,
      "विजयनगर": 4409,
      "मालदीव": 4410,
      "हिस्सा": 4411,
      "लिखित": 4412,
      "वन्यजी": 4413,
      "पार्टियों": 4414,
      "गंगेच्या": 4415,
      "दख्खनच्या": 4416,
      "पुर्तगाली": 4417,
      "kilometers": 4418,
      "market": 4419,
      "Himalayas": 4420,
      "grew": 4421,
      "अशियाई": 4422,
      "आंतरिक": 4423,
      "नरेंद्र": 4424,
      "फुट": 4425,
      "म्यानमार": 4426,
      "यशस्वी": 4427,
      "रंगमंचा": 4428,
      "सत्ता": 4429,
      "विरोध": 4430,
      "समझौ": 4431,
      "भागीदारी": 4432,
      "हिन्दुस्तान": 4433,
      "तुलना": 4434,
      "काळाच्या": 4435,
      "वृद्धि": 4436,
      "सुरुवातीला": 4437,
      "अस्तित्त्वात": 4438,
      "वेषभूषा": 4439,
      "birth": 4440,
      "southern": 4441,
      "direct": 4442,
      "European": 4443,
      "Mughal": 4444,
      "Bengal": 4445,
      "Muslim": 4446,
      "caste": 4447,
      "millenni": 4448,
      "penins": 4449,
      "second": 4450,
      "अरावली": 4451,
      "अक्टूबर": 4452,
      "आकर्मण": 4453,
      "आंबेडकर": 4454,
      "ईशान": 4455,
      "उर्वर": 4456,
      "ऑपरेशन": 4457,
      "गैर-": 4458,
      "गोंड": 4459,
      "जंबू": 4460,
      "दहशत": 4461,
      "नमुने": 4462,
      "नदियों": 4463,
      "नर्मदा": 4464,
      "पक्षास": 4465,
      "भौगोलिक": 4466,
      "मृत्यु": 4467,
      "यमुना": 4468,
      "यद्यपि": 4469,
      "वार्षिक": 4470,
      "वृतीय": 4471,
      "शतकात": 4472,
      "शब्द": 4473,
      "सैनि": 4474,
      "सौहार्": 4475,
      "third": 4476,
      "प्रमाणा": 4477,
      "साहेब": 4478,
      "साक्षरता": 4479,
      "साधारणपणे": 4480,
      "विशाल": 4481,
      "विरुद्ध": 4482,
      "विद्रोह": 4483,
      "संलग्न": 4484,
      "संबोध": 4485,
      "मुंबई": 4486,
      "निम्न": 4487,
      "शाहजहान": 4488,
      "सरस्वती": 4489,
      "बहुमूल्य": 4490,
      "sequent": 4491,
      "गरजेचे": 4492,
      "उपसागराला": 4493,
      "महात्मा": 4494,
      "अग्निध": 4495,
      "millennium": 4496,
      "सौहार्द": 4497,
      ".8": 4498,
      ".6%": 4499,
      "100": 4500,
      "28": 4501,
      "422": 4502,
      "40%": 4503,
      "64": 4504,
      "72": 4505,
      "7000": 4506,
      "9,000": 4507,
      "Ara": 4508,
      "During": 4509,
      "Neh": 4510,
      "Pun": 4511,
      "aver": 4512,
      "bar": 4513,
      "bor": 4514,
      "bian": 4515,
      "cy": 4516,
      "col": 4517,
      "cup": 4518,
      "ds": 4519,
      "dam": 4520,
      "dra": 4521,
      "ea": 4522,
      "far": 4523,
      "ge": 4524,
      "hat": 4525,
      "hou": 4526,
      "iet": 4527,
      "jab": 4528,
      "lit": 4529,
      "ling": 4530,
      "lam": 4531,
      "loc": 4532,
      "mem": 4533,
      "nal": 4534,
      "ned": 4535,
      "sultanate": 4536,
      "tri": 4537,
      "val": 4538,
      "var": 4539,
      "vast": 4540,
      "way": 4541,
      "animal": 4542,
      "independ": 4543,
      "one": 4544,
      "remain": 4545,
      "str": 4546,
      "atic": 4547,
      "atures": 4548,
      "ice": 4549,
      "2020": 4550,
      "head": 4551,
      "empl": 4552,
      "empire": 4553,
      "ades": 4554,
      "administ": 4555,
      "istic": 4556,
      "roc": 4557,
      "term": 4558,
      "sever": 4559,
      "Indians": 4560,
      "changes": 4561,
      "2008": 4562,
      "who": 4563,
      "whose": 4564,
      "angered": 4565,
      "1990": 4566,
      "ack": 4567,
      "1975": 4568,
      "ively": 4569,
      "operation": 4570,
      "ultural": 4571,
      "occup": 4572,
      "endangered": 4573,
      "trans": 4574,
      "spe": 4575,
      "work": 4576,
      "prov": 4577,
      "lower": 4578,
      "subsequent": 4579,
      "oss": 4580,
      "osed": 4581,
      "regional": 4582,
      "17.": 4583,
      "increasing": 4584,
      "grand": 4585,
      "viol": 4586,
      "Hinduism": 4587,
      "diversity": 4588,
      "legis": 4589,
      "1857": 4590,
      "language": 4591,
      "Andam": 4592,
      "kingdom": 4593,
      "served": 4594,
      "based": 4595,
      "cess": 4596,
      "Islam": 4597,
      "medi": 4598,
      "tradition": 4599,
      "olved": 4600,
      "coalition": 4601,
      "created": 4602,
      "number": 4603,
      "raph": 4604,
      "movement": 4605,
      "industry": 4606,
      "Central": 4607,
      "Sikh": 4608,
      "States": 4609,
      "executive": 4610,
      "people": 4611,
      "technology": 4612,
      "peninsular": 4613,
      "Nehru": 4614,
      "Punjab": 4615,
      "Andaman": 4616,
      "\"భారతదేశం": 4617,
      "\"భరత": 4618,
      "%).": 4619,
      "(2": 4620,
      "(5": 4621,
      "(8": 4622,
      "(ఆ": 4623,
      "(ఉ": 4624,
      "(ట": 4625,
      "(బ": 4626,
      "(సా": 4627,
      "(గి": 4628,
      "(फ़": 4629,
      "(कुल": 4630,
      "(एन": 4631,
      "(१,": 4632,
      "(ఇదే": 4633,
      "(17.": 4634,
      ",०": 4635,
      ",०००": 4636,
      "-ఆ": 4637,
      "-ఇ": 4638,
      "-ద": 4639,
      "-దేశ": 4640,
      "-पूर्व": 4641,
      "-चीन": 4642,
      "-समय": 4643,
      "-फ़": 4644,
      "-गंगा": 4645,
      "-ఢిల్లీ": 4646,
      "-టె": 4647,
      "-चीफ": 4648,
      "-ఖో": 4649,
      "-లాహోర్": 4650,
      "-monsoon": 4651,
      "..": 4652,
      ".1": 4653,
      ".4": 4654,
      ".२": 4655,
      ".६": 4656,
      ".ఇ": 4657,
      ".ఈ": 4658,
      ".ఏ": 4659,
      ".కి": 4660,
      ".మీ": 4661,
      ".मी.": 4662,
      "/वर्ष": 4663,
      "0,": 4664,
      "04%,": 4665,
      "01,93,": 4666,
      "14%,": 4667,
      "142": 4668,
      "25%": 4669,
      "33": 4670,
      "32,": 4671,
      "400": 4672,
      "52": 4673,
      "75,": 4674,
      "8.": 4675,
      "83,": 4676,
      "82,": 4677,
      "87,": 4678,
      "Am": 4679,
      "Afr": 4680,
      "Bhar": 4681,
      "Dra": 4682,
      "Del": 4683,
      "En": 4684,
      "Ghat": 4685,
      "However,": 4686,
      "Kas": 4687,
      "Nor": 4688,
      "Nuclear": 4689,
      "Pro": 4690,
      "Raj": 4691,
      "Sing": 4692,
      "Sou": 4693,
      "Sea": 4694,
      "Wor": 4695,
      "ai": 4696,
      "ach": 4697,
      "aff": 4698,
      "bu": 4699,
      "ction": 4700,
      "creat": 4701,
      "civil": 4702,
      "day": 4703,
      "democ": 4704,
      "ft": 4705,
      "fer": 4706,
      "fed": 4707,
      "fast": 4708,
      "found": 4709,
      "ga": 4710,
      "go": 4711,
      "gra": 4712,
      "glo": 4713,
      "ha": 4714,
      "ia": 4715,
      "iz": 4716,
      "ief": 4717,
      "kn": 4718,
      "ked": 4719,
      "lin": 4720,
      "last": 4721,
      "mand": 4722,
      "mit": 4723,
      "mak": 4724,
      "made": 4725,
      "mace": 4726,
      "nom": 4727,
      "now": 4728,
      "other": 4729,
      "ple": 4730,
      "pur": 4731,
      "pical": 4732,
      "pay": 4733,
      "phar": 4734,
      "ration": 4735,
      "rich": 4736,
      "s)": 4737,
      "ss": 4738,
      "sur": 4739,
      "ten": 4740,
      "tur": 4741,
      "tain": 4742,
      "ual": 4743,
      "uar": 4744,
      "win": 4745,
      "won": 4746,
      "wild": 4747,
      "yan": 4748,
      "ँचा": 4749,
      "ँग्रे": 4750,
      "ंट": 4751,
      "ंढ": 4752,
      "ंथ": 4753,
      "ंवा": 4754,
      "ंता": 4755,
      "ंचे": 4756,
      "ंकि": 4757,
      "ंदी": 4758,
      "ंजी": 4759,
      "ंठा": 4760,
      "ंकड": 4761,
      "ंचल": 4762,
      "ंतीस": 4763,
      "अख": 4764,
      "अध": 4765,
      "अफ": 4766,
      "अर्": 4767,
      "असा": 4768,
      "असं": 4769,
      "अक्ष": 4770,
      "अंग": 4771,
      "असम": 4772,
      "अल्": 4773,
      "अजि": 4774,
      "अरु": 4775,
      "अत्य": 4776,
      "अग्र": 4777,
      "अनिव": 4778,
      "अलिक": 4779,
      "अशांति": 4780,
      "आए": 4781,
      "आने": 4782,
      "आला": 4783,
      "आता": 4784,
      "आद्र": 4785,
      "आसाम": 4786,
      "आपूर्": 4787,
      "आला.": 4788,
      "आशिय": 4789,
      "आघा": 4790,
      "आदर्श": 4791,
      "इत": 4792,
      "इच्छ": 4793,
      "इण्ड": 4794,
      "इराण": 4795,
      "इलावा": 4796,
      "इजरा": 4797,
      "उल": 4798,
      "उर्": 4799,
      "उद्": 4800,
      "उन्होंने": 4801,
      "ऋत्य": 4802,
      "ए)": 4803,
      "एड": 4804,
      "एस": 4805,
      "एसो": 4806,
      "ऐसे": 4807,
      "ऐसी": 4808,
      "ऑग": 4809,
      "ऑस्": 4810,
      "ऑस्ट्रे": 4811,
      "ओण": 4812,
      "औसत": 4813,
      "औद्योगिक": 4814,
      "कट": 4815,
      "कॅ": 4816,
      "करा": 4817,
      "कहीं": 4818,
      "कन्या": 4819,
      "कन्न": 4820,
      "कनिष्ठ": 4821,
      "कंकड": 4822,
      "खी": 4823,
      "खू": 4824,
      "खे": 4825,
      "खात": 4826,
      "खून": 4827,
      "ग़": 4828,
      "गू": 4829,
      "गान": 4830,
      "गये": 4831,
      "गढ़": 4832,
      "गडा": 4833,
      "गळी": 4834,
      "गव्हा": 4835,
      "गतिशील": 4836,
      "घट": 4837,
      "घु": 4838,
      "घू": 4839,
      "घरे": 4840,
      "घकाल": 4841,
      "घटन": 4842,
      "घटना": 4843,
      "घनिष्ठ": 4844,
      "चक्र": 4845,
      "चस्व": 4846,
      "चंद्र": 4847,
      "छू": 4848,
      "जड": 4849,
      "जॉ": 4850,
      "जना": 4851,
      "जम्": 4852,
      "जगा": 4853,
      "झार": 4854,
      "झर्व": 4855,
      "टका": 4856,
      "टार्": 4857,
      "डच": 4858,
      "डर": 4859,
      "ड्रा": 4860,
      "णय": 4861,
      "त.": 4862,
      "तल": 4863,
      "तन्": 4864,
      "तद्": 4865,
      "तज्ञ": 4866,
      "थम": 4867,
      "थंड": 4868,
      "दात": 4869,
      "दरा": 4870,
      "दली": 4871,
      "दमन": 4872,
      "दौर": 4873,
      "दगड": 4874,
      "दशहरा": 4875,
      "धड": 4876,
      "धर": 4877,
      "धम्म": 4878,
      "नई": 4879,
      "नव": 4880,
      "नृ": 4881,
      "न्य": 4882,
      "नष्ट": 4883,
      "नवर": 4884,
      "नये": 4885,
      "पथ": 4886,
      "परा": 4887,
      "पों": 4888,
      "पति": 4889,
      "पदा": 4890,
      "पत्य": 4891,
      "पन्न": 4892,
      "पाती": 4893,
      "पसन्": 4894,
      "फळ": 4895,
      "फिक": 4896,
      "बई": 4897,
      "बट": 4898,
      "बु": 4899,
      "बती": 4900,
      "बहा": 4901,
      "बन्": 4902,
      "बरी": 4903,
      "बलों": 4904,
      "भ्र": 4905,
      "भवर्ष": 4906,
      "भक्ति": 4907,
      "मल": 4908,
      "म्य": 4909,
      "मते": 4910,
      "मारा": 4911,
      "ममाण": 4912,
      "माता": 4913,
      "मजब": 4914,
      "मबे": 4915,
      "मपुत्र": 4916,
      "मंच": 4917,
      "मणि": 4918,
      "मात्र": 4919,
      "य.": 4920,
      "यल": 4921,
      "यि": 4922,
      "यें": 4923,
      "यक्ष": 4924,
      "यहा": 4925,
      "यातील": 4926,
      "यद्वीप": 4927,
      "यिका": 4928,
      "यत्न": 4929,
      "र)": 4930,
      "रळ": 4931,
      "रै": 4932,
      "रका": 4933,
      "रसा": 4934,
      "रचा": 4935,
      "रंगा": 4936,
      "रडे": 4937,
      "रममाण": 4938,
      "ऱ्यां": 4939,
      "ऱ्यात": 4940,
      "लत": 4941,
      "लम": 4942,
      "ल्य": 4943,
      "लक्ष": 4944,
      "लंड": 4945,
      "लंब": 4946,
      "लब्": 4947,
      "ळची": 4948,
      "ळकार": 4949,
      "वट": 4950,
      "वने": 4951,
      "वस्त": 4952,
      "वाने": 4953,
      "वधान": 4954,
      "वली.": 4955,
      "वक्त": 4956,
      "वजह": 4957,
      "ववैविध": 4958,
      "शः": 4959,
      "श्य": 4960,
      "शतर": 4961,
      "ष्य": 4962,
      "सन": 4963,
      "सल": 4964,
      "सिक": 4965,
      "सक्ष": 4966,
      "सतर": 4967,
      "समान": 4968,
      "सवी": 4969,
      "सभाग": 4970,
      "सिक्": 4971,
      "हम": 4972,
      "हू": 4973,
      "ह्": 4974,
      "हस्": 4975,
      "हवे": 4976,
      "हंप": 4977,
      "हाता": 4978,
      "हजार": 4979,
      "हनन": 4980,
      "ा,": 4981,
      "ावर": 4982,
      "ामध्ये": 4983,
      "ासाठी": 4984,
      "ायिका": 4985,
      "िल": 4986,
      "िला": 4987,
      "िप्त": 4988,
      "िश्च": 4989,
      "ुक": 4990,
      "ुस्थान": 4991,
      "ुण्": 4992,
      "ूदी": 4993,
      "ेडे": 4994,
      "ॉक": 4995,
      "ोत": 4996,
      "ोबार": 4997,
      "्लो": 4998,
      "्त्वा": 4999,
      "्लादेश": 5000,
      "१२०": 5001,
      "१०००": 5002,
      "१२.६": 5003,
      "३,": 5004,
      "३०": 5005,
      "३२": 5006,
      "३३": 5007,
      "४६": 5008,
      "४८": 5009,
      "५५": 5010,
      "५४५": 5011,
      "७९": 5012,
      "८५": 5013,
      "ంతి": 5014,
      "ంద్": 5015,
      "ం\",": 5016,
      "అల": 5017,
      "అశ": 5018,
      "అహ": 5019,
      "అది": 5020,
      "అన్న": 5021,
      "అరు": 5022,
      "అక్ష": 5023,
      "అంద": 5024,
      "అంది": 5025,
      "అద్ద": 5026,
      "అధి": 5027,
      "అలం": 5028,
      "అరే": 5029,
      "అంటే": 5030,
      "అమె": 5031,
      "అధీన": 5032,
      "అమల": 5033,
      "అహ్మ": 5034,
      "ఆగ": 5035,
      "ఆచ": 5036,
      "ఆట": 5037,
      "ఆన": 5038,
      "ఆలో": 5039,
      "ఆదేశ": 5040,
      "ఆవి": 5041,
      "ఆతి": 5042,
      "ఆక్ర": 5043,
      "ఆయా": 5044,
      "ఆనా": 5045,
      "ఆధ్య": 5046,
      "ఆడు": 5047,
      "ఆదాయ": 5048,
      "ఆవల": 5049,
      "ఆగ్": 5050,
      "ఆణి": 5051,
      "ఆక్షరాస్యత": 5052,
      "ఆలస్య": 5053,
      "ఇను": 5054,
      "ఇతి": 5055,
      "ఇము": 5056,
      "ఇంది": 5057,
      "ఇందు": 5058,
      "ఇంకా": 5059,
      "ఇతను": 5060,
      "ఇన్‌": 5061,
      "ఇచ్చే": 5062,
      "ఇప్పటికీ": 5063,
      "ఉద్": 5064,
      "ఉపా": 5065,
      "ఉండి": 5066,
      "ఉండు": 5067,
      "ఉనిక": 5068,
      "ఉష్ణ": 5069,
      "ఋతు": 5070,
      "ఎడ": 5071,
      "ఎమ": 5072,
      "ఎగు": 5073,
      "ఎల్ల": 5074,
      "ఎదు": 5075,
      "ఎంతో": 5076,
      "ఎగువ": 5077,
      "ఏక": 5078,
      "ఏడ": 5079,
      "ఏప్ర": 5080,
      "ఏడు": 5081,
      "ఏటా": 5082,
      "ఏళ్ళ": 5083,
      "ఐదు": 5084,
      "ఒక్": 5085,
      "ఒడి": 5086,
      "ఒలిం": 5087,
      "ఓడ": 5088,
      "ఓటర్": 5089,
      "ఔట్‌": 5090,
      "క,": 5091,
      "కె": 5092,
      "కలు": 5093,
      "కిం": 5094,
      "కని": 5095,
      "కాయ": 5096,
      "కరా": 5097,
      "కంట": 5098,
      "కార్": 5099,
      "కష్ట": 5100,
      "కట్ట": 5101,
      "కమైన": 5102,
      "క్యం": 5103,
      "కమీ": 5104,
      "కలలో": 5105,
      "కూచ": 5106,
      "కమేన": 5107,
      "కలుగు": 5108,
      "కత్తా": 5109,
      "కానీ": 5110,
      "ఖా": 5111,
      "ఖిక": 5112,
      "ఖగో": 5113,
      "ఖర్చు": 5114,
      "గమ": 5115,
      "గృ": 5116,
      "గ్ర": 5117,
      "గతి": 5118,
      "గల్": 5119,
      "గింది.": 5120,
      "గపు": 5121,
      "గలి": 5122,
      "గిన్న": 5123,
      "గమన": 5124,
      "గణి": 5125,
      "గనులు": 5126,
      "గర్,": 5127,
      "గౌర": 5128,
      "గించుకో": 5129,
      "ఘన": 5130,
      "ఘు": 5131,
      "ఘో": 5132,
      "ఘిక,": 5133,
      "ఘర్షణ": 5134,
      "చా": 5135,
      "చో": 5136,
      "చ్": 5137,
      "చిన": 5138,
      "చము": 5139,
      "చింది.": 5140,
      "చరి": 5141,
      "చూడ": 5142,
      "చక్ర": 5143,
      "చిత": 5144,
      "చీ,": 5145,
      "చర్,": 5146,
      "చీర": 5147,
      "చులు,": 5148,
      "చ.కి": 5149,
      "ఛాయుత": 5150,
      "జల": 5151,
      "జూ": 5152,
      "జై": 5153,
      "జౌ": 5154,
      "జ్ర": 5155,
      "జిన": 5156,
      "జాన": 5157,
      "జైన": 5158,
      "జపా": 5159,
      "జ్‌": 5160,
      "జిత": 5161,
      "జిల్ల": 5162,
      "ఞాన": 5163,
      "టక": 5164,
      "టన": 5165,
      "ట్ర": 5166,
      "టంలో": 5167,
      "టిన": 5168,
      "టచే": 5169,
      "ట్రా": 5170,
      "ట్యం": 5171,
      "టంతో": 5172,
      "టం,": 5173,
      "టమూ": 5174,
      "టన్‌": 5175,
      "డ్య": 5176,
      "డాల": 5177,
      "డ్చ": 5178,
      "డ్ల": 5179,
      "డ్‌": 5180,
      "డాలు,": 5181,
      "డానికి": 5182,
      "డించింది.": 5183,
      "డమ్": 5184,
      "డబు": 5185,
      "ఢవి": 5186,
      "ణం": 5187,
      "ణు": 5188,
      "ణించ": 5189,
      "ణదారులు": 5190,
      "త,": 5191,
      "తథ": 5192,
      "తల": 5193,
      "తృ": 5194,
      "తార": 5195,
      "తాయ": 5196,
      "తాయి.": 5197,
      "తత్వ": 5198,
      "తక్కు": 5199,
      "తదు": 5200,
      "తగ్": 5201,
      "తమై": 5202,
      "తలం": 5203,
      "తమ్య": 5204,
      "తాలతో": 5205,
      "తీ,": 5206,
      "తదేశపు": 5207,
      "తీర": 5208,
      "తత్వానికి": 5209,
      "థమ": 5210,
      "థా": 5211,
      "థాన": 5212,
      "థార్": 5213,
      "దశ": 5214,
      "దస": 5215,
      "దృ": 5216,
      "దరా": 5217,
      "దండ": 5218,
      "దాన": 5219,
      "దైన": 5220,
      "దీయ": 5221,
      "దారు": 5222,
      "దగ్": 5223,
      "దరిక": 5224,
      "దక్కను": 5225,
      "దగినది.": 5226,
      "ధం": 5227,
      "ధర": 5228,
      "ధా": 5229,
      "ధు": 5230,
      "ధాల": 5231,
      "ధిన": 5232,
      "ధరి": 5233,
      "నృ": 5234,
      "నై": 5235,
      "నో": 5236,
      "నలు": 5237,
      "నాల": 5238,
      "నవి": 5239,
      "నసా": 5240,
      "నలలో": 5241,
      "ననీ": 5242,
      "నప్పటిక": 5243,
      "నాలతో": 5244,
      "నవచ్చు.": 5245,
      "నదులు": 5246,
      "నబడిన": 5247,
      "పక": 5248,
      "పబ": 5249,
      "పవ": 5250,
      "పస": 5251,
      "పి": 5252,
      "పస్": 5253,
      "పది": 5254,
      "పంలో": 5255,
      "పిన": 5256,
      "పింది.": 5257,
      "పూడ": 5258,
      "పచ్చ": 5259,
      "పరాజ": 5260,
      "పబడ": 5261,
      "పరో": 5262,
      "పించింది.": 5263,
      "పిత": 5264,
      "పించే": 5265,
      "పిక్": 5266,
      "పర్ష": 5267,
      "పౌర": 5268,
      "పండ్": 5269,
      "పత్యం": 5270,
      "పటంలో": 5271,
      "ఫల": 5272,
      "ఫు": 5273,
      "ఫర్": 5274,
      "ఫ్ట": 5275,
      "ఫలి": 5276,
      "ఫిక్": 5277,
      "ఫ్రాన్": 5278,
      "బల": 5279,
      "బై": 5280,
      "బాల": 5281,
      "బండ": 5282,
      "బంగా": 5283,
      "బిన్న": 5284,
      "బ్రా": 5285,
      "బద్ధం": 5286,
      "బ్యా": 5287,
      "భ్య": 5288,
      "భిం": 5289,
      "భంగ": 5290,
      "భదాయ": 5291,
      "భజిత": 5292,
      "మ.": 5293,
      "మయ": 5294,
      "మో": 5295,
      "మార": 5296,
      "మస్": 5297,
      "మిం": 5298,
      "మని": 5299,
      "మిక": 5300,
      "మాయ": 5301,
      "మంలో": 5302,
      "మిన": 5303,
      "మతం": 5304,
      "మంత": 5305,
      "మ్‌": 5306,
      "మరె": 5307,
      "మికత": 5308,
      "మంచి": 5309,
      "మికి": 5310,
      "మద్రా": 5311,
      "మసాల": 5312,
      "మాల్": 5313,
      "యి": 5314,
      "యూ": 5315,
      "యస్": 5316,
      "యాలు": 5317,
      "యము": 5318,
      "యులు": 5319,
      "యంతో": 5320,
      "యంలో,": 5321,
      "యింది": 5322,
      "యనులు,": 5323,
      "యథా": 5324,
      "రొ": 5325,
      "రలో": 5326,
      "రంగా": 5327,
      "రమైన": 5328,
      "రవే": 5329,
      "రవీ": 5330,
      "రించిన": 5331,
      "రారి": 5332,
      "రక్షరాస్యత": 5333,
      "రాలు.": 5334,
      "రకు,": 5335,
      "రతాయ": 5336,
      "రబద్ధం": 5337,
      "ల,": 5338,
      "లిక": 5339,
      "లిన": 5340,
      "లైన": 5341,
      "లకాల": 5342,
      "లపై": 5343,
      "లబె": 5344,
      "లమె": 5345,
      "లహా": 5346,
      "లఘు": 5347,
      "లబై": 5348,
      "లభ్య": 5349,
      "ళల": 5350,
      "ళవ": 5351,
      "ళా": 5352,
      "ళు": 5353,
      "ళులు": 5354,
      "ళనా": 5355,
      "వత": 5356,
      "వస": 5357,
      "వూ": 5358,
      "వరు": 5359,
      "వలి": 5360,
      "వంత": 5361,
      "వద్ద": 5362,
      "వస్తు": 5363,
      "వమి": 5364,
      "వన్య": 5365,
      "వాయు": 5366,
      "వళి": 5367,
      "వాల్": 5368,
      "వనాథ": 5369,
      "వజ్ర": 5370,
      "శే": 5371,
      "శాల": 5372,
      "శక్": 5373,
      "శంలో": 5374,
      "శ్రా": 5375,
      "శ్లో": 5376,
      "శించే": 5377,
      "శక్తి": 5378,
      "షే": 5379,
      "షన్": 5380,
      "షులు": 5381,
      "షం.": 5382,
      "షకాహార": 5383,
      "సొ": 5384,
      "సగా": 5385,
      "సాలు": 5386,
      "సిన": 5387,
      "సవా": 5388,
      "సల్": 5389,
      "సభా": 5390,
      "సత్య": 5391,
      "సమి": 5392,
      "సైనా": 5393,
      "సీలు": 5394,
      "సత్తా": 5395,
      "సాయుత": 5396,
      "సలహా": 5397,
      "హక": 5398,
      "హె": 5399,
      "హొ": 5400,
      "హర్": 5401,
      "హాయ": 5402,
      "హస్త": 5403,
      "హాలు,": 5404,
      "హక్కు": 5405,
      "హ్రాన్": 5406,
      "ాలో": 5407,
      "ాతి": 5408,
      "ాత్": 5409,
      "ాంబ": 5410,
      "ాశ్ర": 5411,
      "ాలోయ": 5412,
      "ానిస్తాన్": 5413,
      "ాము.": 5414,
      "ాదాయంలో": 5415,
      "ాంతి": 5416,
      "ాధిన": 5417,
      "ామని": 5418,
      "ి,": 5419,
      "ిలే": 5420,
      "ిరంగ": 5421,
      "ిద్ధి": 5422,
      "ి.పూ.": 5423,
      "ిళ్ళ": 5424,
      "ిత్యం": 5425,
      "ిపూడ": 5426,
      "ియనులు,": 5427,
      "ిళల": 5428,
      "ిశ్రా": 5429,
      "ీం": 5430,
      "ీకృ": 5431,
      "ీర్ణ": 5432,
      "ీకులు": 5433,
      "ీకరణ": 5434,
      "ీ-ద": 5435,
      "ును": 5436,
      "ుల్": 5437,
      "ువు": 5438,
      "ునిక": 5439,
      "ుపూర్వ": 5440,
      "ుడైన": 5441,
      "ులచే": 5442,
      "ూ,": 5443,
      "ూలా": 5444,
      "ృతంగా": 5445,
      "ెస్": 5446,
      "ెర్": 5447,
      "ెల్": 5448,
      "ెనే": 5449,
      "ెక్కను": 5450,
      "ేత": 5451,
      "ేకా": 5452,
      "ేష్": 5453,
      "ేకమైన": 5454,
      "ేననీ": 5455,
      "ేయులు": 5456,
      "ైస్త": 5457,
      "ైపో": 5458,
      "ోకు": 5459,
      "ోత్": 5460,
      "ోంది.": 5461,
      "ోలి": 5462,
      "ోత్రి": 5463,
      "ోద్య": 5464,
      "్తదేశపు": 5465,
      "‌)": 5466,
      "‌ల": 5467,
      "‌కు": 5468,
      "‌కా": 5469,
      "‌టిక": 5470,
      "–2004": 5471,
      "ार्य": 5472,
      "्रम": 5473,
      "्रवा": 5474,
      "केट": 5475,
      "केले.": 5476,
      "केला.": 5477,
      "केरळ": 5478,
      "్రిద్ధి": 5479,
      "्याच्या": 5480,
      "्यालय": 5481,
      "्याचल": 5482,
      "्यानंतर": 5483,
      "ారాలు,": 5484,
      "ారణంగా": 5485,
      "ారమ్‌": 5486,
      "भारतवर्ष": 5487,
      "भारतभर": 5488,
      "भारत-चीन": 5489,
      "र्ट": 5490,
      "र्ता": 5491,
      "र्घकाल": 5492,
      "ातकाल": 5493,
      "ेंच": 5494,
      "ेंजो": 5495,
      "कान": 5496,
      "काश": 5497,
      "कावे": 5498,
      "काबी": 5499,
      "काश्मीर": 5500,
      "कांपैकी": 5501,
      "काँग्रे": 5502,
      "स्म": 5503,
      "स्फे": 5504,
      "में।": 5505,
      "ann": 5506,
      "ants": 5507,
      "प्रशास": 5508,
      "प्रगति": 5509,
      "प्रदर्शन": 5510,
      "प्रथम": 5511,
      "प्रकाश": 5512,
      "याच": 5513,
      "याचा": 5514,
      "यानंतर": 5515,
      "यासाठी": 5516,
      "inal": 5517,
      "indi": 5518,
      "లోపం": 5519,
      "ानों": 5520,
      "िक,": 5521,
      "िको": 5522,
      "there": 5523,
      "స్లో": 5524,
      "స్వే": 5525,
      "స్లే": 5526,
      "స్సీ": 5527,
      "స్వర్ణ": 5528,
      "रामा": 5529,
      "राशि": 5530,
      "న్మార్": 5531,
      "న్సీ": 5532,
      "న్లుగా": 5533,
      "ది,": 5534,
      "దిర్": 5535,
      "దిరి": 5536,
      "దికి": 5537,
      "దిగ్": 5538,
      "దిభాగం": 5539,
      "దిగువ": 5540,
      "er,": 5541,
      "ergen": 5542,
      "नेता": 5543,
      "नेपाल": 5544,
      "్యంలో": 5545,
      "్యులు": 5546,
      "ond": 5547,
      "ింపు": 5548,
      "ింపబ": 5549,
      "ింసాయుత": 5550,
      "साचे": 5551,
      "साडी": 5552,
      "साचार": 5553,
      "सादर": 5554,
      "साफ़": 5555,
      "सावादी": 5556,
      "साजरा": 5557,
      "साझे": 5558,
      "विभा": 5559,
      "विंध": 5560,
      "विभाज": 5561,
      "विशिष्ट": 5562,
      "वित्त": 5563,
      "सेमी.": 5564,
      "सेल्स": 5565,
      "क्स": 5566,
      "क्शन": 5567,
      "ों,": 5568,
      "ప్రమా": 5569,
      "ప్రయా": 5570,
      "ప్రఖ్య": 5571,
      "ప్రణా": 5572,
      "ప్రార్థ": 5573,
      "ప్రగతి": 5574,
      "ప్రథమ": 5575,
      "ప్రీం": 5576,
      "ला,": 5577,
      "नाग": 5578,
      "नाथ": 5579,
      "नाभवर्ष": 5580,
      "कीम": 5581,
      "कीर्": 5582,
      "నివా": 5583,
      "నిచ్చ": 5584,
      "నియా": 5585,
      "నిస్తు": 5586,
      "నివార": 5587,
      "నిధి": 5588,
      "నియో": 5589,
      "నివి.": 5590,
      "నివల్ల": 5591,
      "నిలిచ": 5592,
      "నిరక్షరాస్యత": 5593,
      "నిలబె": 5594,
      "నిషే": 5595,
      "దే.": 5596,
      "ాలని": 5597,
      "ాలే.": 5598,
      "ాలన్నీ": 5599,
      "ాలెక్కను": 5600,
      "ాలేకా": 5601,
      "वाँ": 5602,
      "वाट": 5603,
      "वाय": 5604,
      "वाले": 5605,
      "वालों": 5606,
      "वाणि": 5607,
      "దేశీ": 5608,
      "దేశిక": 5609,
      "దేశరాజకీయ": 5610,
      "దేశాన్ని": 5611,
      "దేశమంత": 5612,
      "దేశాధిన": 5613,
      "ర్ఘ": 5614,
      "ర్టి": 5615,
      "ర్తా": 5616,
      "ర్కొ": 5617,
      "ర్సిం": 5618,
      "ర్లు.": 5619,
      "ర్జె": 5620,
      "ర్భవ": 5621,
      "reform": 5622,
      "renew": 5623,
      "ste": 5624,
      "stru": 5625,
      "संत": 5626,
      "संक्ष": 5627,
      "संस्था": 5628,
      "संसार": 5629,
      "संबर": 5630,
      "संगठ": 5631,
      "संग्रा": 5632,
      "संचाल": 5633,
      "संगम": 5634,
      "संसदे": 5635,
      "संशोध": 5636,
      "enac": 5637,
      "लेख": 5638,
      "लेले": 5639,
      "लेशिय": 5640,
      "గాంచిన": 5641,
      "గాయి": 5642,
      "त्रता": 5643,
      "న్నత": 5644,
      "న్నై": 5645,
      "న్నో": 5646,
      "న్నా,": 5647,
      "భార్తదేశపు": 5648,
      "భారత,": 5649,
      "భారతం": 5650,
      "భారత్‌": 5651,
      "భారతం,": 5652,
      "భారతంలో,": 5653,
      "ed,": 5654,
      "माग": 5655,
      "माला": 5656,
      "मामले": 5657,
      "ata": 5658,
      "కునే": 5659,
      "కుమార్": 5660,
      "కులను": 5661,
      "కులం": 5662,
      "కుమారు": 5663,
      "కుండా": 5664,
      "కుడ్య": 5665,
      "కుదిర్": 5666,
      "కుర్తా": 5667,
      "करी": 5668,
      "करवाने": 5669,
      "dian": 5670,
      "disp": 5671,
      "diff": 5672,
      "ताचे": 5673,
      "तांद": 5674,
      "तासाठी": 5675,
      "ताक्षर": 5676,
      "थाई": 5677,
      "थांचा": 5678,
      "परन्तु": 5679,
      "भाई": 5680,
      "भांग": 5681,
      "भाबर": 5682,
      "ికంగా": 5683,
      "ికాక": 5684,
      "देता": 5685,
      "देते": 5686,
      "ాలు:": 5687,
      "ాలున్నాయి.": 5688,
      "तीनंतर": 5689,
      "तीसरे": 5690,
      "तीव्र": 5691,
      "ాయం": 5692,
      "ాయతి": 5693,
      "ాయకార": 5694,
      "ాయీలు": 5695,
      "राजकीय": 5696,
      "राजवट": 5697,
      "त्म": 5698,
      "విడ": 5699,
      "వివా": 5700,
      "విడి": 5701,
      "విస్తు": 5702,
      "విధాన": 5703,
      "వినాయక": 5704,
      "విజ్": 5705,
      "వితంలో": 5706,
      "విద్య": 5707,
      "విశి": 5708,
      "విఫల": 5709,
      "విభజిత": 5710,
      "విశే": 5711,
      "విసభా": 5712,
      "విదేశీ": 5713,
      "तरण": 5714,
      "ను,": 5715,
      "నున్న": 5716,
      "ort": 5717,
      "orig": 5718,
      "organ": 5719,
      "मुम्": 5720,
      "मुक्त": 5721,
      "मुलगा": 5722,
      "క్నాల": 5723,
      "క్‌టిక": 5724,
      "ष्म": 5725,
      "ष्णा": 5726,
      "न्हे": 5727,
      "न्हा": 5728,
      "न्ही": 5729,
      "न्धु": 5730,
      "कारी": 5731,
      "कार्रवा": 5732,
      "पाट": 5733,
      "पांड": 5734,
      "पाठी": 5735,
      "पांची": 5736,
      "पावली": 5737,
      "पाषाण": 5738,
      "पांढ": 5739,
      "itect": 5740,
      "कोपे": 5741,
      "कोरडे": 5742,
      "ions": 5743,
      "होली": 5744,
      "होय.": 5745,
      "तेज": 5746,
      "तेथे": 5747,
      "तेलु": 5748,
      "तेज़ी": 5749,
      "तेमाल": 5750,
      "ंगीण": 5751,
      "తిరి": 5752,
      "తిరు": 5753,
      "తియు": 5754,
      "రామన": 5755,
      "రాటం": 5756,
      "రాణించ": 5757,
      "రామాయ": 5758,
      "రాసిన": 5759,
      "రాతియు": 5760,
      "as,": 5761,
      "ांसोबत": 5762,
      "ांविरुद्ध": 5763,
      "नियु": 5764,
      "नियुक्त": 5765,
      "निमंत्रण": 5766,
      "देश्य": 5767,
      "देशातील": 5768,
      "देशांमध्ये": 5769,
      "चेरी": 5770,
      "త్రలో": 5771,
      "త్రాలు": 5772,
      "త్రలతో,": 5773,
      "ించుకు": 5774,
      "ించవచ్చు.": 5775,
      "ese": 5776,
      "ica": 5777,
      "ండర్": 5778,
      "ండ్రా": 5779,
      "ండమస్": 5780,
      "ండ్యులు": 5781,
      "ద్వై": 5782,
      "ద్దిభాగం": 5783,
      "ద్విసభా": 5784,
      "ము,": 5785,
      "ముత్య": 5786,
      "ముందు": 5787,
      "ములు.": 5788,
      "వాద": 5789,
      "వాటి": 5790,
      "వామి": 5791,
      "వాదన": 5792,
      "వాటిలో": 5793,
      "వాహక": 5794,
      "कि.मी.": 5795,
      "किंवा": 5796,
      "త్త": 5797,
      "मियों": 5798,
      "चांग": 5799,
      "चालु": 5800,
      "భారతదేశము": 5801,
      "భారతదేశమే.": 5802,
      "ising": 5803,
      "ission": 5804,
      "ల్లో": 5805,
      "ల్స్": 5806,
      "ల్తా": 5807,
      "मानला": 5808,
      "मानले": 5809,
      "वर्तु": 5810,
      "वर्गी": 5811,
      "वर्चस्व": 5812,
      "ड़े": 5813,
      "मधे": 5814,
      "ంగల": 5815,
      "omet": 5816,
      "दीर्घकाल": 5817,
      "స్తానీ": 5818,
      "స్తాంబ": 5819,
      "స్తూ,": 5820,
      "touch": 5821,
      "ech": 5822,
      "ected": 5823,
      "एकच": 5824,
      "एकना": 5825,
      "शाखा": 5826,
      "समज": 5827,
      "समस": 5828,
      "समे": 5829,
      "రిట్ల": 5830,
      "రిట్లు": 5831,
      "ానంలో": 5832,
      "oup": 5833,
      "ాయిలో": 5834,
      "्येकडील": 5835,
      "लिश": 5836,
      "लिही": 5837,
      "తంగా,": 5838,
      "భాగే": 5839,
      "భాజపా": 5840,
      "భావిస్తు": 5841,
      "రు,": 5842,
      "రుగా": 5843,
      "రుష్": 5844,
      "రుచులు,": 5845,
      "पुर्व": 5846,
      "पुन्हा": 5847,
      "ంటి": 5848,
      "ంటో": 5849,
      "ంటుంది.": 5850,
      "ంటరీ": 5851,
      "పుత్ర": 5852,
      "పుతో": 5853,
      "పులా": 5854,
      "ైనెర్": 5855,
      "స్థూలా": 5856,
      "స్థాయిలో": 5857,
      "राज्यकर्": 5858,
      "పాక్ష": 5859,
      "పాండి": 5860,
      "పావళి": 5861,
      "పాండ్యులు": 5862,
      "दिए": 5863,
      "दिन": 5864,
      "दिवाली": 5865,
      "दिसंबर": 5866,
      "बाल": 5867,
      "बाबा": 5868,
      "बाढ़": 5869,
      "बायो": 5870,
      "बाबती": 5871,
      "भीमबे": 5872,
      "वेढ": 5873,
      "वेरू": 5874,
      "वेळा": 5875,
      "కితా": 5876,
      "సాఫ్ట": 5877,
      "సానియా": 5878,
      "ారు,": 5879,
      "सरपट": 5880,
      "प्राणी": 5881,
      "प्रायद्वीप": 5882,
      "प्रावधान": 5883,
      "ఉన్నాయి": 5884,
      "ఉన్నారు": 5885,
      "ఉన్నట్లు": 5886,
      "ఉన్నతంగా": 5887,
      "इसने": 5888,
      "इसवी": 5889,
      "त्याने": 5890,
      "त्याची": 5891,
      "त्यांचा": 5892,
      "त्यासाठी": 5893,
      "त्यांनी": 5894,
      "१९२०": 5895,
      "१९१३": 5896,
      "ంగా,": 5897,
      "తోంది.": 5898,
      "తోష్ణ": 5899,
      "असैन": 5900,
      "असणे": 5901,
      "असतो.": 5902,
      "असफल": 5903,
      "సంక్ర": 5904,
      "సంధి": 5905,
      "సందర్": 5906,
      "క్షంగా": 5907,
      "ार्थांचा": 5908,
      "कृत": 5909,
      "कृष्णा": 5910,
      "चिन": 5911,
      "येणारे": 5912,
      "रूपरे": 5913,
      "आहेत,": 5914,
      "उत्खन": 5915,
      "उत्थान": 5916,
      "युरोपीय": 5917,
      "ल्म": 5918,
      "स्थल": 5919,
      "मुखी": 5920,
      "जिसे": 5921,
      "जिन्हे": 5922,
      "मीटर": 5923,
      "ियस": 5924,
      "మాతృ": 5925,
      "మాదిరి": 5926,
      "మాండమస్": 5927,
      "ార్క్‌టిక": 5928,
      "विधि": 5929,
      "विधायिका": 5930,
      "स्थाई": 5931,
      "दक्षिण-पूर्व": 5932,
      "मोठी": 5933,
      "मोहिनी": 5934,
      "ility": 5935,
      "ंडी": 5936,
      "म्बे": 5937,
      "जी-": 5938,
      "जीडी": 5939,
      "जीविका": 5940,
      "रीति": 5941,
      "కాగా,": 5942,
      "కావడ": 5943,
      "కాకుండా": 5944,
      "सिख": 5945,
      "सिएशन": 5946,
      "सिन्धु": 5947,
      "वर्षे": 5948,
      "पूर्वे": 5949,
      "पूर्वोत्तर": 5950,
      "olid": 5951,
      "तक,": 5952,
      "दोन्ही": 5953,
      "నేయ": 5954,
      "నేసియా": 5955,
      "నేరుగా": 5956,
      "ష్టి": 5957,
      "ష్టు": 5958,
      "ష్టమైన": 5959,
      "ష్ట్యా": 5960,
      "రాజు.": 5961,
      "రాజధా": 5962,
      "emper": 5963,
      "ाराचे": 5964,
      "्यांचा": 5965,
      "जाऊ": 5966,
      "जापान": 5967,
      "बहुपक्ष": 5968,
      "बहुसंख": 5969,
      "క్రి.పూ.": 5970,
      "క్రైస్త": 5971,
      "తరించింది.": 5972,
      "తరతరాలు": 5973,
      "ప్రాజా": 5974,
      "ప్రాముఖ్య": 5975,
      "ప్రాచు": 5976,
      "ప్రాసె": 5977,
      "ప్రాణు": 5978,
      "ప్రాబల": 5979,
      "ప్రాదేశిక": 5980,
      "adually": 5981,
      "दाख": 5982,
      "दावरी": 5983,
      "दादरा": 5984,
      "కోసం": 5985,
      "కోవార": 5986,
      "పే,": 5987,
      "పేస్": 5988,
      "పేదరిక": 5989,
      "సిద్ధ": 5990,
      "సిద్ధం": 5991,
      "భారతదేశం,": 5992,
      "ారు.ప్రస్తుతము": 5993,
      "णाचल": 5994,
      "राष्ट्रों": 5995,
      "राष्ट्रपति": 5996,
      "ంచే": 5997,
      "తాజ్‌": 5998,
      "యాత్రి": 5999,
      "యావత్": 6000,
      "యాళం": 6001,
      "యాత్రలతో,": 6002,
      "యాండర్": 6003,
      "వచ్చి,": 6004,
      "सामने": 6005,
      "सामना": 6006,
      "क्षेप": 6007,
      "सरकारी": 6008,
      "सदांना": 6009,
      "जनक": 6010,
      "ందని": 6011,
      "ందరో": 6012,
      "ట్టూ": 6013,
      "ట్టుకు": 6014,
      "ట్టెల": 6015,
      "ట్టారు.ప్రస్తుతము": 6016,
      "ద్ధాలు": 6017,
      "ద్ధలతో,": 6018,
      "क्षेत्रात": 6019,
      "क्षेत्रों": 6020,
      "क्षेत्रामध्ये": 6021,
      "भू-": 6022,
      "व्यक्ति": 6023,
      "सुल": 6024,
      "सुरक्षा": 6025,
      "सुधार": 6026,
      "सुवर्ण": 6027,
      "सुधारण": 6028,
      "सुमारा": 6029,
      "स्वयं": 6030,
      "स्वतन्": 6031,
      "भागवत": 6032,
      "కాలతో": 6033,
      "కాలపరి": 6034,
      "కాలాల్లో": 6035,
      "నాటి": 6036,
      "నాట్యం": 6037,
      "మైనవి.": 6038,
      "లిసింది.": 6039,
      "లిథిక": 6040,
      "లియాండర్": 6041,
      "వేర్,": 6042,
      "్లను": 6043,
      "estab": 6044,
      "ternal": 6045,
      "सीम": 6046,
      "result": 6047,
      "resident": 6048,
      "लगी": 6049,
      "ఒకటో": 6050,
      "గుప్": 6051,
      "గుబా": 6052,
      "గుత్తా": 6053,
      "గునవి": 6054,
      "గుతోంది.": 6055,
      "చేర": 6056,
      "చేసు": 6057,
      "చేసే": 6058,
      "చేత,": 6059,
      "ల్లిన": 6060,
      "ల్లింది.": 6061,
      "ల్లాయి.": 6062,
      "ల్లడించింది.": 6063,
      "ల్లీ-ద": 6064,
      "రాష్ట్రపు": 6065,
      "రాష్ట్రాలు,": 6066,
      "రాష్ట్రానికి": 6067,
      "రాష్ట్రపత": 6068,
      "टिळ": 6069,
      "उत्तरदा": 6070,
      "ives": 6071,
      "ంతల": 6072,
      "కొక్క": 6073,
      "కొనసా": 6074,
      "కొద్దిభాగం": 6075,
      "కొత్త": 6076,
      "వ్యయంతో": 6077,
      "వ్యవస": 6078,
      "దేశాలకు": 6079,
      "దేశాలతో": 6080,
      "దేశాల్లో": 6081,
      "దేశాలకూ": 6082,
      "निर्वाह": 6083,
      "త్వం": 6084,
      "త్వాలు": 6085,
      "త్వంగా": 6086,
      "త్వరలో": 6087,
      "త్వంగల": 6088,
      "लोकसंख": 6089,
      "लोकशाही": 6090,
      "लोकनृ": 6091,
      "जोर": 6092,
      "धान्ये": 6093,
      "िक्ष": 6094,
      "स्थानों": 6095,
      "स्थानिक्": 6096,
      "fort": 6097,
      "मंत्रा": 6098,
      "यहूदी": 6099,
      "డిగించుకో": 6100,
      "డు.": 6101,
      "డుకు": 6102,
      "డుంబ": 6103,
      "ణాటక": 6104,
      "ణాదికి": 6105,
      "పాలకులు": 6106,
      "పాలయింది": 6107,
      "పాలకులను": 6108,
      "శాతం": 6109,
      "శాశ్": 6110,
      "శాకాహార": 6111,
      "న్నిస్లో": 6112,
      "स्थापत्याचे": 6113,
      "change": 6114,
      "external": 6115,
      "elit": 6116,
      "उपप्रकार": 6117,
      "उपग्र": 6118,
      "उपसागर": 6119,
      "उपलब्": 6120,
      "पटल": 6121,
      "साम्राज्ये": 6122,
      "und": 6123,
      "une": 6124,
      "कुलीन": 6125,
      "दलों": 6126,
      "दलीय": 6127,
      "दलदली": 6128,
      "बनला": 6129,
      "बनली": 6130,
      "रोवली": 6131,
      "रोखून": 6132,
      "वैश्": 6133,
      "కారం": 6134,
      "దా:": 6135,
      "దాటే": 6136,
      "దాటిన": 6137,
      "పారిశ్రా": 6138,
      "మార్గం": 6139,
      "మార్కె": 6140,
      "హిందువు": 6141,
      "प्रकारात": 6142,
      "प्रकारची": 6143,
      "భారతీయుడైన": 6144,
      "స్తుంది.": 6145,
      "sum": 6146,
      "such": 6147,
      "ब्रह्": 6148,
      "महाल": 6149,
      "महाभारत": 6150,
      "महाखंड": 6151,
      "महाविद्या": 6152,
      "प्रदेशांत": 6153,
      "again": 6154,
      "त्यक्ष": 6155,
      "महान": 6156,
      "महत्व": 6157,
      "मह्त्वा": 6158,
      "ంబే": 6159,
      "ఎన్నుకొ": 6160,
      "చెంది": 6161,
      "చెందింది.": 6162,
      "చెన్నై": 6163,
      "తుడు": 6164,
      "తులకాల": 6165,
      "తురుష్": 6166,
      "దక్షణాసియా": 6167,
      "పంచె": 6168,
      "పంచుకుంట": 6169,
      "పంచాయతి": 6170,
      "మేరో": 6171,
      "మేరకు,": 6172,
      "మేళవ": 6173,
      "మేషన్": 6174,
      "మధ్య,": 6175,
      "మధ్యకాలంలో": 6176,
      "మధ్యవర్తి": 6177,
      "మధ్యల,": 6178,
      "్‌వేర్,": 6179,
      "1961": 6180,
      "రాజ్యాలను": 6181,
      "రాజ్యసమి": 6182,
      "when": 6183,
      "कडधान्ये": 6184,
      "गणित": 6185,
      "नामों": 6186,
      "नामशेष": 6187,
      "కృష్": 6188,
      "కృష్ణ": 6189,
      "కృష్టమైన": 6190,
      "బడింది.": 6191,
      "వస్థానంలో": 6192,
      "సును": 6193,
      "సుదీ": 6194,
      "సుమారు": 6195,
      "సుప్రీం": 6196,
      "సుల్తా": 6197,
      "ానికి,": 6198,
      "विविधता": 6199,
      "ప్రధానమంత్ర": 6200,
      "భారతదేశంలోని": 6201,
      "భాష,": 6202,
      "భాషలలో": 6203,
      "భాషా,": 6204,
      "భాషలతో,": 6205,
      "పేరుతో": 6206,
      "దక్షిణాదికి": 6207,
      "केंद्र-": 6208,
      "रूपए": 6209,
      "अनुसूची": 6210,
      "चित्रपटांची": 6211,
      "चित्रपटाला": 6212,
      "about": 6213,
      "utes": 6214,
      "utical": 6215,
      "आणली.": 6216,
      "అయింది.": 6217,
      "అయిత": 6218,
      "ఇతరులు": 6219,
      "ఇతరదేశాలను": 6220,
      "ఇతరదేశాలకు": 6221,
      "టువంటి": 6222,
      "పెట్ర": 6223,
      "పెట్టారు.ప్రస్తుతము": 6224,
      "పరిధి": 6225,
      "పరిపాలన": 6226,
      "పరిపాలించ": 6227,
      "పరిస్థితి": 6228,
      "పరిఢవి": 6229,
      "మతాల": 6230,
      "మతాలు,": 6231,
      "మతాలతో": 6232,
      "మతస్తులు": 6233,
      "మతాలు:": 6234,
      "మితో": 6235,
      "మిగి": 6236,
      "మితిక": 6237,
      "రోడ్ల": 6238,
      "రోధాల": 6239,
      "ర్యన్": 6240,
      "ర్యము": 6241,
      "లాగృ": 6242,
      "లాభదాయ": 6243,
      "లాంటి": 6244,
      "వారిగా": 6245,
      "వర్గం": 6246,
      "వర్ధి": 6247,
      "వర్గాలు": 6248,
      "స్వాధీన": 6249,
      "స్వాములు.": 6250,
      "ప్రాంతాలతో": 6251,
      "ప్రాంతాలకు": 6252,
      "రైలు.": 6253,
      "వ్యవస్థ,": 6254,
      "వ్యవస్థల": 6255,
      "వ్యవస్థగా": 6256,
      "వ్యవస్థకు": 6257,
      "వ్యవస్థకు,": 6258,
      "పార్టీల": 6259,
      "పార్టీగా": 6260,
      "పార్టీకి": 6261,
      "పార్టీలతో": 6262,
      "హిందూస్తాన్": 6263,
      "హిందూస్తానీ": 6264,
      "साहित्या": 6265,
      "साहित्यात": 6266,
      "ब्रिटिशकालीन": 6267,
      "ब्रिटिशांविरुद्ध": 6268,
      "liance": 6269,
      "कर्मियों": 6270,
      "पदार्थ": 6271,
      "पदार्थांचा": 6272,
      "शिखर": 6273,
      "शिरका": 6274,
      "मुख्यमंत्री": 6275,
      "मंत्रीमंड": 6276,
      "1958": 6277,
      "1996": 6278,
      "1998లో": 6279,
      "ंबद्दल": 6280,
      "असेही": 6281,
      "तिकर्ता": 6282,
      "मतदान": 6283,
      "मतभे": 6284,
      "रिवाज": 6285,
      "रिझर्व": 6286,
      "గిపోయింది.": 6287,
      "వలస": 6288,
      "వలను": 6289,
      "వలెనే": 6290,
      "ప్రపంచదేశాలలో": 6291,
      "ించినందు": 6292,
      "ించినవే.": 6293,
      "मिलित": 6294,
      "స్థానం": 6295,
      "స్థానాలు": 6296,
      "స్థానమైన": 6297,
      "స్థానం.": 6298,
      "స్థానే.": 6299,
      "స్థానంలో,": 6300,
      "సాంఘిక,": 6301,
      "विधानसभा": 6302,
      "క్రీ.": 6303,
      "defin": 6304,
      "1,200": 6305,
      "1,01,93,": 6306,
      "बढ़ो": 6307,
      "षण,": 6308,
      "सभासदांना": 6309,
      "मध्यप्रदेशातील": 6310,
      "समय-समय": 6311,
      "ush": 6312,
      "1948లో": 6313,
      "थे,": 6314,
      "पारसी": 6315,
      "मनु": 6316,
      "मनोर": 6317,
      "मूळ": 6318,
      "सहित": 6319,
      "అతివేగంగా": 6320,
      "అతిముఖ్యమైన": 6321,
      "అతిశీ": 6322,
      "ఉత్సాహ": 6323,
      "ఉత్కృష్టమైన": 6324,
      "జరిగింది.": 6325,
      "జరిగాయి": 6326,
      "ట్కా": 6327,
      "పోలో": 6328,
      "పోటీ": 6329,
      "పోతూ": 6330,
      "పోర్చు": 6331,
      "పోషకాహార": 6332,
      "పోరాటం": 6333,
      "మంజూ": 6334,
      "మీరు": 6335,
      "శ్రద్ధలతో,": 6336,
      "ుకుంది.": 6337,
      "్రెడ్": 6338,
      "విధి": 6339,
      "విధంగా": 6340,
      "విధించిన": 6341,
      "జాతులు": 6342,
      "జాతులు,": 6343,
      "ంద్రనాథ": 6344,
      "हिन्दी-": 6345,
      "ప్పించుకో": 6346,
      "జనాభాలో": 6347,
      "263": 6348,
      "plate": 6349,
      "play": 6350,
      "place": 6351,
      "आजही": 6352,
      "गाँ": 6353,
      "चलने": 6354,
      "ज्वाला": 6355,
      "पहाता": 6356,
      "योग्य": 6357,
      "बनाए": 6358,
      "बना।": 6359,
      "बनाया": 6360,
      "बनाई।": 6361,
      "बनाई,": 6362,
      "ఉంటూ": 6363,
      "ఉంటాయి": 6364,
      "ఎక్కువైపో": 6365,
      "ఏర్పర": 6366,
      "ఏర్పాటు": 6367,
      "కలిగిన": 6368,
      "టికంటే": 6369,
      "డ్మిం": 6370,
      "పట్టాలు": 6371,
      "పట్టును": 6372,
      "పట్టాలెక్కను": 6373,
      "బహిరంగ": 6374,
      "బహాయీలు": 6375,
      "లేనివి.": 6376,
      "వంటలు": 6377,
      "వంటలకు": 6378,
      "సంగమ": 6379,
      "సరిస్తూ,": 6380,
      "ీనములో": 6381,
      "ీనోద్య": 6382,
      "ప్రస్తుత": 6383,
      "द्वारे": 6384,
      "సాధించింది.": 6385,
      "సాధించి": 6386,
      "సాధారణంగా": 6387,
      "युद्धों": 6388,
      "కాంగ్రెసే": 6389,
      "संस्कृती,": 6390,
      "संस्कृतीची": 6391,
      "అధికారాలు": 6392,
      "అధికారంలో": 6393,
      "అధికారాన్ని": 6394,
      "అధికారికంగా": 6395,
      "కేంద్రాల్లో": 6396,
      "కేంద్రీకృ": 6397,
      "మొదటిది": 6398,
      "మొదటిసార": 6399,
      "దక్షిణదిగ్": 6400,
      "apon": 6401,
      "अंग्रेजों": 6402,
      "एशियाई": 6403,
      "ग्रंथ": 6404,
      "णे,": 6405,
      "दुसऱ्या": 6406,
      "पैंतीस": 6407,
      "बंगाली": 6408,
      "हुए,": 6409,
      "हुए।": 6410,
      "झालेली": 6411,
      "अनुसार,": 6412,
      "gener": 6413,
      "इन-चीफ": 6414,
      "पर्वता": 6415,
      "शहरे": 6416,
      "కల్పే": 6417,
      "కల్గి": 6418,
      "కల్పం": 6419,
      "కల్పుతూ": 6420,
      "కల్పించే": 6421,
      "గరలో": 6422,
      "గోర్": 6423,
      "గోళిక": 6424,
      "గోధు": 6425,
      "గోడుంబ": 6426,
      "జనగణ": 6427,
      "తిక,": 6428,
      "దుగా": 6429,
      "దుస్తులు": 6430,
      "ధిపత్యం": 6431,
      "పరమైన": 6432,
      "పరమో": 6433,
      "బాగా": 6434,
      "బాంబే": 6435,
      "బ్రహ్మ": 6436,
      "భూపతి": 6437,
      "మనమే": 6438,
      "మనదేశంలో": 6439,
      "మహల్": 6440,
      "మహిళల": 6441,
      "మహేష్": 6442,
      "యోచన": 6443,
      "యోరారి": 6444,
      "రంగం": 6445,
      "రంగాల": 6446,
      "రంగము": 6447,
      "రంగాల్లో": 6448,
      "వుని": 6449,
      "వుతుంది.": 6450,
      "వున్నా,": 6451,
      "వుంటుంది.": 6452,
      "ప్రతినిధి": 6453,
      "ాలలోను": 6454,
      "ాలనుండి": 6455,
      "करोड़),": 6456,
      "मुद्रा": 6457,
      "ంగ్లేయులు": 6458,
      "पुराने": 6459,
      "पुराना": 6460,
      "१९९६": 6461,
      "१९९९": 6462,
      "క్రమంగా": 6463,
      "రెండువై": 6464,
      "రెండుకోట్లకు": 6465,
      "క్రీడల": 6466,
      "मैदानों": 6467,
      "ప్రభుత్వంలో": 6468,
      "ప్రభుత్వాలన్నీ": 6469,
      "ప్రభుత్వంచే": 6470,
      "జాతీయాదాయంలో": 6471,
      "సంగీత": 6472,
      "సంగీతము": 6473,
      "సంగీతంలో": 6474,
      "సరిహద్దులు": 6475,
      "ported": 6476,
      "produc": 6477,
      "protec": 6478,
      "अवसाद": 6479,
      "अवलंब": 6480,
      "आपके": 6481,
      "आपल्या": 6482,
      "आपातकाल": 6483,
      "इस्तेमाल": 6484,
      "गठित": 6485,
      "गोल": 6486,
      "गोवा": 6487,
      "गोदावरी": 6488,
      "घेऊ": 6489,
      "घेण्यात": 6490,
      "जगह": 6491,
      "जगात": 6492,
      "दूर": 6493,
      "दूसरे": 6494,
      "दर्जा": 6495,
      "दर्ज़": 6496,
      "पडतो": 6497,
      "फ्रेंच": 6498,
      "श्री": 6499,
      "सूत्र": 6500,
      "िकांश": 6501,
      "नेतृत्‍": 6502,
      "नाट्य": 6503,
      "न्नति": 6504,
      "दिल्लीतील": 6505,
      "क्रमशः": 6506,
      "ज्ञात": 6507,
      "contri": 6508,
      "weapon": 6509,
      "मौसम": 6510,
      "लिया।": 6511,
      "१८५७": 6512,
      "ఆధునిక": 6513,
      "ఆధీనములో": 6514,
      "ఉపరాష్ట్రపత": 6515,
      "గ్డమ్": 6516,
      "గలుపు": 6517,
      "చుట్టూ": 6518,
      "ణికుల": 6519,
      "దీనికి": 6520,
      "దీన్ని": 6521,
      "దీవులు": 6522,
      "దీనివల్ల": 6523,
      "దీపావళి": 6524,
      "నీ,": 6525,
      "నీతి": 6526,
      "బెల్": 6527,
      "బెట్కా": 6528,
      "భిన్నత్వాలు": 6529,
      "మైంది.": 6530,
      "మైత్రి": 6531,
      "మైతే": 6532,
      "మైదాన": 6533,
      "మూడవ": 6534,
      "మూడే.": 6535,
      "యుగం": 6536,
      "యుద్ధం": 6537,
      "యు.ఏ": 6538,
      "యునై": 6539,
      "యుద్ధాలు": 6540,
      "రహదారు": 6541,
      "లంక": 6542,
      "వైశాల": 6543,
      "केलेल्या": 6544,
      "कामयाब": 6545,
      "स्वरुप": 6546,
      "भाज्या": 6547,
      "విస్తారు.": 6548,
      "విస్తరించిన": 6549,
      "విస్తీర్ణ": 6550,
      "విస్తృతంగా": 6551,
      "1984": 6552,
      "1987": 6553,
      "త్వాన": 6554,
      "हिंसाचार": 6555,
      "భాగం,": 6556,
      "భాగం.": 6557,
      "పెద్దగా": 6558,
      "మంత్రిత్వ": 6559,
      "మంత్రివర్గం": 6560,
      "ప్పటికీ,": 6561,
      "తరువాత,": 6562,
      "ఏర్పడిన": 6563,
      "బహుమతి": 6564,
      "బహుభాషా,": 6565,
      "సరిహద్దున": 6566,
      "సరిహద్దులలో": 6567,
      "సరిహద్దులను": 6568,
      "అత్యధికంగా": 6569,
      "నడిపిస్త": 6570,
      "నడిపించి,": 6571,
      "निकोबार": 6572,
      "बोला": 6573,
      "बोली": 6574,
      "यूपी": 6575,
      "यूरेशिय": 6576,
      "समुद्रा": 6577,
      "कांचे": 6578,
      "कांनी": 6579,
      "प्रमाणे": 6580,
      "सेवांचा": 6581,
      "लागते.": 6582,
      "देखो": 6583,
      "देखने": 6584,
      "देखते": 6585,
      "निर्यात": 6586,
      "शास्त्रातील": 6587,
      "सम्पूर्ण": 6588,
      "सम्प्रभु": 6589,
      "सम्मिलित": 6590,
      "१९७४": 6591,
      "१९७५": 6592,
      "१९७७": 6593,
      "न्यायाधिकार": 6594,
      "features": 6595,
      "elected": 6596,
      "15న": 6597,
      "ईसाई": 6598,
      "शांत": 6599,
      "అనునది": 6600,
      "అనుమతి": 6601,
      "అనువైన": 6602,
      "అనుసరిస్తూ,": 6603,
      "గేజి": 6604,
      "చైనాతో": 6605,
      "తనలో": 6606,
      "తెలిసింది.": 6607,
      "తెప్పించుకో": 6608,
      "పతకం": 6609,
      "పొందింది.": 6610,
      "పొడిగించుకో": 6611,
      "బియా": 6612,
      "బిజిన": 6613,
      "బియస్": 6614,
      "రూపంలో": 6615,
      "రూపొందింది.": 6616,
      "ళ్లను": 6617,
      "వడానికి,": 6618,
      "సమశీ": 6619,
      "సమయంలో,": 6620,
      "సమష్టి": 6621,
      "సారాల": 6622,
      "సారవంత": 6623,
      "సము:": 6624,
      "సముచిత": 6625,
      "సర్వసత్తా": 6626,
      "प्रतिबंध": 6627,
      "प्रांताचे": 6628,
      "विषुव": 6629,
      "ప్రజల": 6630,
      "ప్రజలకు": 6631,
      "ప్రజలచే": 6632,
      "हालांकि": 6633,
      "నుండి,": 6634,
      "ించేది": 6635,
      "वेगवेगळे": 6636,
      "असलेला": 6637,
      "असलेल्या": 6638,
      "సంస్కృతి": 6639,
      "సంస్కృతం": 6640,
      "సంస్కృతిలో": 6641,
      "సంస్కృతులతో": 6642,
      "సంస్కృతీ,": 6643,
      "युगातील": 6644,
      "కూడినది.": 6645,
      "ఒకటిగా,": 6646,
      "చేయలేదు": 6647,
      "చేయిస్తారు.": 6648,
      "చేయటంతో": 6649,
      "చేయడానికి": 6650,
      "చేయబడింది.": 6651,
      "రాష్ట్రపతి,": 6652,
      "రాష్ట్రపతిచే": 6653,
      "మార్గంలో": 6654,
      "మార్గము": 6655,
      "మార్గాలలో": 6656,
      "మార్గాలను": 6657,
      "మార్గాలే.": 6658,
      "काळातच": 6659,
      "తున్నారు.": 6660,
      "తున్నవార్": 6661,
      "తున్నప్పటికీ,": 6662,
      "మొదలగువ": 6663,
      "మొదలగునవి": 6664,
      "ప్రపంచంలోనే": 6665,
      "పట్టణాల": 6666,
      "పట్టణాలను": 6667,
      "కాంగ్రెసును": 6668,
      "इतिहासातील": 6669,
      "उदाहरणे": 6670,
      "రహదారులు,": 6671,
      "అభిప్రాయ": 6672,
      "సౌకర్యాలు": 6673,
      "సౌకర్యము.": 6674,
      "సౌకర్యవం": 6675,
      "minister.": 6676,
      "उद्योग,": 6677,
      "जैसी": 6678,
      "जैववैविध": 6679,
      "बिनेट": 6680,
      "बेटे": 6681,
      "मार्च": 6682,
      "वृक्ष": 6683,
      "राज्यांत": 6684,
      "राज्यांच्या": 6685,
      "राज्यांमध्ये": 6686,
      "वर्णित": 6687,
      "जिनके": 6688,
      "पर्वतश्रे": 6689,
      "पर्वतमाला": 6690,
      "शहरीकरण": 6691,
      "बांधले": 6692,
      "बांधली": 6693,
      "बांधून": 6694,
      "बांधणी": 6695,
      "स्वरूपात": 6696,
      "1250": 6697,
      "121,01,93,": 6698,
      "extens": 6699,
      ".72%": 6700,
      ".70%),": 6701,
      "तमिलनाड": 6702,
      "नैऋत्य": 6703,
      "नृत्यप्रकार": 6704,
      "बनीं।": 6705,
      "सतों": 6706,
      "అని,": 6707,
      "కీలో": 6708,
      "క్యులు": 6709,
      "క్యారమ్‌": 6710,
      "జిత్": 6711,
      "జిస్లే": 6712,
      "టెడ్": 6713,
      "టెక్నాల": 6714,
      "టెన్నిస్లో": 6715,
      "నాయకుల": 6716,
      "పదవి": 6717,
      "పదవి.": 6718,
      "పదార్థ": 6719,
      "పద్ధతి": 6720,
      "పద్ధతులు": 6721,
      "పద్ధతిలో": 6722,
      "పద్ధతులతో": 6723,
      "మూల": 6724,
      "వరీ": 6725,
      "వరకూ": 6726,
      "వహించింది.": 6727,
      "వహించి": 6728,
      "వహించే": 6729,
      "వహిస్త": 6730,
      "వెల్లడించింది.": 6731,
      "స్లామ్": 6732,
      "ప్రకారం,": 6733,
      "నిర్మిస్తు": 6734,
      "నిర్వాహక": 6735,
      "క్కలు": 6736,
      "ద్వీపే,": 6737,
      "किनारा": 6738,
      "हिंदुस्थान": 6739,
      "पुत्रा": 6740,
      "స్థానిక": 6741,
      "స్థాపక": 6742,
      "పాక్,": 6743,
      "१९८०": 6744,
      "१९८९": 6745,
      "సంప్రదాయాలను": 6746,
      "दक्षिणेतील": 6747,
      "मोहेंजो": 6748,
      "వచ్చినవారి": 6749,
      "వచ్చినది,": 6750,
      "కార్యనిర్వాహక": 6751,
      "మేనకల": 6752,
      "ప్రధానమంత్రిని": 6753,
      "భాషలు,": 6754,
      "పరిశ్రమ.": 6755,
      "వ్యవస్థలోని": 6756,
      "1971లోను": 6757,
      "भरतनाट्य": 6758,
      "मूल्यों": 6759,
      "ఉత్తర,": 6760,
      "ఆర్థిక,": 6761,
      "కలిగి,": 6762,
      "పాకిస్తాన్తో": 6763,
      "పాకిస్థాన్,": 6764,
      "పాకిస్థాన్కు": 6765,
      "దక్షిణాన,": 6766,
      "బాద్,": 6767,
      "మహాసముద్రం": 6768,
      "మహాభారతం": 6769,
      "ఆధారిత": 6770,
      "ఆధారాలు.": 6771,
      "స్వతంత్రం": 6772,
      "నడిపించటం": 6773,
      "నడిపించాలనే": 6774,
      "నడిపించవచ్చని": 6775,
      "నడిపించటమూ": 6776,
      "न्यायालयों": 6777,
      "సర్వీసును": 6778,
      "న్యాయవ్యవస్థలో": 6779,
      "న్యాయవ్యవస్థ,": 6780,
      "న్యాయస్థానమైన": 6781,
      "हालाँकि,": 6782,
      "निवडले": 6783,
      "foreign": 6784,
      "ओळखला": 6785,
      "ఇండియా,": 6786,
      "కుటుంబాలు": 6787,
      "కుటుంబాలకు": 6788,
      "అభివృద్ధి,": 6789,
      "23%).": 6790,
      "6%),": 6791,
      "class": 6792,
      "polic": 6793,
      "elections": 6794,
      ".30%),": 6795,
      ".36%),": 6796,
      "Union": 6797,
      "ods": 6798,
      "societ": 6799,
      "south-": 6800,
      "इत्यादि": 6801,
      "गए।": 6802,
      "जुन्या": 6803,
      "डिग्री": 6804,
      "फाळ": 6805,
      "शक्तियों": 6806,
      "केन्द्रीय": 6807,
      "केन्द्रशासित": 6808,
      "प्रारम्भिक": 6809,
      "ergy": 6810,
      "वायुसेना": 6811,
      "राजाओं": 6812,
      "देशाचे": 6813,
      "१९६२": 6814,
      "जनतांत्रिक": 6815,
      "खासकर": 6816,
      "महाद्वीपों": 6817,
      "गुजरा": 6818,
      "compan": 6819,
      "इमारती": 6820,
      "1010": 6821,
      "There": 6822,
      "growth": 6823,
      "longer": 6824,
      "vidian": 6825,
      "support": 6826,
      "1962లో": 6827,
      "कूल": 6828,
      "खोरे": 6829,
      "चरम": 6830,
      "चला,": 6831,
      "चलाया।": 6832,
      "जंगलों": 6833,
      "धोरण": 6834,
      "पानगळी": 6835,
      "पत्ति": 6836,
      "बैंक": 6837,
      "मराठी": 6838,
      "१६३८": 6839,
      "१६४८": 6840,
      "అవసర": 6841,
      "అవతరించింది.": 6842,
      "అవరోధాల": 6843,
      "అవి,": 6844,
      "అవినీతి": 6845,
      "ఆక్రమించిన": 6846,
      "ఆక్రమణదారులు": 6847,
      "ఆక్రమించుకు": 6848,
      "ఆహార్యం": 6849,
      "ఇవ్వ": 6850,
      "ఇవన్నీ": 6851,
      "ఇవికాక": 6852,
      "ఇంగ్లండు": 6853,
      "ఉండగా,": 6854,
      "ఉండటం": 6855,
      "ఉండటం,": 6856,
      "ఎన్నికలలో": 6857,
      "కథక్": 6858,
      "కథకళ": 6859,
      "కథనాలతో": 6860,
      "కలకత్తా": 6861,
      "కలగలుపు": 6862,
      "కిందట": 6863,
      "గెలిచ": 6864,
      "జీవితంలో": 6865,
      "టాగోర్": 6866,
      "తులు;": 6867,
      "తమిళనా": 6868,
      "నగరాలు": 6869,
      "నగరాలనే": 6870,
      "నగరాలనుండి": 6871,
      "పంపిన": 6872,
      "పక్షం": 6873,
      "భరతుడు": 6874,
      "మెహర్": 6875,
      "మౌఖిక": 6876,
      "మానవుని": 6877,
      "మారుమూల": 6878,
      "లెందరో": 6879,
      "లెజిస్లే": 6880,
      "లెక్కలు": 6881,
      "లక్షల": 6882,
      "సహాయకార": 6883,
      "సేవ": 6884,
      "సార్క్": 6885,
      "సూచనలు": 6886,
      "హాసాల": 6887,
      "హాకీలో": 6888,
      "హ్వాల్": 6889,
      "स्वीकार": 6890,
      "प्रचलन": 6891,
      "దినాలు,": 6892,
      "దినాలకు": 6893,
      "नेहरु": 6894,
      "ప్రారంభమైన": 6895,
      "लाख),": 6896,
      "ించబడింది.": 6897,
      "ండా)": 6898,
      "ముంబాయి": 6899,
      "मिला,": 6900,
      "పురుషులు": 6901,
      "పుట్టాయి.": 6902,
      "పుట్టిల్": 6903,
      "పుట్టుపూర్వ": 6904,
      "స్థిరమైన": 6905,
      "प्राण्यांच्या": 6906,
      "प्राण्यांमध्ये": 6907,
      "సంఘము.": 6908,
      "సంఘర్షణ": 6909,
      "సంఖ్యలో": 6910,
      "సంఖ్యాక": 6911,
      "సంవత్సారాల": 6912,
      "उत्पादन": 6913,
      "కూడుకున్నది.": 6914,
      "కోవడంతో": 6915,
      "జాతిపిత": 6916,
      "లిచారు.": 6917,
      "ఒకేఒక": 6918,
      "ఒకేమాదిరి": 6919,
      "గుర్తించింది.": 6920,
      "గుర్తింపు": 6921,
      "గుర్తించవచ్చు.": 6922,
      "చేసింది.ఢాకా": 6923,
      "రాష్ట్రాలు:": 6924,
      "రాష్ట్రాలుగా,": 6925,
      "consolid": 6926,
      "కొన్ని:": 6927,
      "వ్యాసము:": 6928,
      "साम्राज्याच्या": 6929,
      "साम्राज्याची": 6930,
      "वैशिष्ट्ये": 6931,
      "కారణంగా,": 6932,
      "దాదాపుగా": 6933,
      "బడతాయి.": 6934,
      "इंडो-": 6935,
      "వారసత్వాన్ని": 6936,
      "వారసత్వానికి": 6937,
      "వారసత్వంగా": 6938,
      "హిందూదేశం,": 6939,
      "ఉత్తరాదిన": 6940,
      "పూర్వం": 6941,
      "పూర్వపు": 6942,
      "శ్రీశై": 6943,
      "శ్రీరామన": 6944,
      "శ్రీలంక": 6945,
      "కలిసివస్తు": 6946,
      "సాధించగా,": 6947,
      "సాధించగలి": 6948,
      "సాధించాము.": 6949,
      "ప్రతిపాదనల్లో": 6950,
      "पृष्ठाचा": 6951,
      "ఉపఖండం": 6952,
      "ఉపఖండపు": 6953,
      "ఉపఖండములో": 6954,
      "వైవిధ్యం": 6955,
      "వైవిధ్యమైనది.": 6956,
      "వైవిధ్యమైనవి.": 6957,
      "अमेरिका,": 6958,
      "పొందినది.": 6959,
      "సముద్రతీర": 6960,
      "సమాఖ్య.": 6961,
      "సమాఖ్యలు": 6962,
      "विद्यार्थ्यांची": 6963,
      "ప్రజాస్వామ్య,": 6964,
      "కోర్టులు,": 6965,
      "పేర్కొన్నాయి.": 6966,
      "పేర్కొంటు": 6967,
      "పేర్కొనవచ్చు.": 6968,
      "మొదలైనవి": 6969,
      "మొదలైనవి.": 6970,
      "మొదలైనటువంటి": 6971,
      "స్వాతంత్ర్యానికి": 6972,
      "సింధులోయ": 6973,
      "సింధుాలోయ": 6974,
      "నిర్వహణలో": 6975,
      "अमरीका": 6976,
      "व्हावे": 6977,
      "కంపెనీపై": 6978,
      "నాయకత్వంలో": 6979,
      "నాయకత్వాన": 6980,
      "పండుగలు,": 6981,
      "ద్వీపం.": 6982,
      "ద్వీప-దేశ": 6983,
      "ద్వీపకల్పం": 6984,
      "కార్యక్రమాలలో": 6985,
      "సాంప్రదాయికమైన": 6986,
      "ఆఫ్ఘానిస్తాన్": 6987,
      "ఇస్లామాబాద్-టె": 6988,
      "జన్మనిచ్చ": 6989,
      "జన్మస్థానం.": 6990,
      "జన్మదినాలకు": 6991,
      "జరుపుకునే": 6992,
      "బంగ్లాదేశ్": 6993,
      "ళ్ళు": 6994,
      "హిమాలయాలు": 6995,
      "వాణిజ్యపరంగా": 6996,
      "సంకీర్ణం": 6997,
      "సంకీర్ణాలేకా": 6998,
      "నాగరికతకు": 6999,
      "तमिळनाडूतील": 7000,
      "1652": 7001,
      "1853": 7002,
      "species,": 7003,
      "Plateau": 7004,
      "scri": 7005,
      "tax": 7006,
      "अंतिम": 7007,
      "अधिराज्य": 7008,
      "अलावा,": 7009,
      "आर्क": 7010,
      "आर्द्र": 7011,
      "उदय": 7012,
      "उदयास": 7013,
      "उठाव": 7014,
      "उठाया": 7015,
      "कमाली": 7016,
      "कटिका": 7017,
      "कंपनियों": 7018,
      "घडल्या": 7019,
      "जवळपास": 7020,
      "तराई": 7021,
      "नवीन": 7022,
      "नद्यांमध्ये": 7023,
      "पहुँ": 7024,
      "फिर": 7025,
      "फिल्म": 7026,
      "फैला": 7027,
      "मरण": 7028,
      "महिन": 7029,
      "महिला": 7030,
      "र-इन-चीफ": 7031,
      "रल)": 7032,
      "वानंतर": 7033,
      "स्मारक": 7034,
      "प्रगती": 7035,
      "विजय": 7036,
      "विद्यापीठ": 7037,
      "परिष": 7038,
      "मिश्रित": 7039,
      "मिलियन)": 7040,
      "हिस्सों": 7041,
      "स्थापत्यशास्त्रातील": 7042,
      "मिळाले.": 7043,
      "मिळाला.": 7044,
      "यांच्यात": 7045,
      "वन्यसं": 7046,
      "1991లో": 7047,
      "rule.": 7048,
      "ग्रीक": 7049,
      "पार्टियां": 7050,
      "अभियानों": 7051,
      "स्वातंत्र्यप्राप्": 7052,
      "ऋषभदेव": 7053,
      "ऋषभदेवा": 7054,
      "गंगेचे": 7055,
      "दख्खनचे": 7056,
      "नागरिकों": 7057,
      "पुर्तगाल": 7058,
      ".9%)": 7059,
      "All": 7060,
      "ratic": 7061,
      "rise": 7062,
      "leading": 7063,
      "1977లో": 7064,
      "(0.36%),": 7065,
      "(0.9%)": 7066,
      "(3.72%": 7067,
      "Constitution": 7068,
      "mid-": 7069,
      "middle": 7070,
      "अजनाभवर्ष": 7071,
      "अहिंसावादी": 7072,
      "अशोक": 7073,
      "अशोकाने": 7074,
      "आयातक": 7075,
      "ओडिशा": 7076,
      "ओडिसी": 7077,
      "क्योंकि": 7078,
      "गिधा": 7079,
      "ग्वेद": 7080,
      "ग्लेशिय": 7081,
      "चली।": 7082,
      "तटों": 7083,
      "पर्जन": 7084,
      "पहिला": 7085,
      "मनाए": 7086,
      "रखने": 7087,
      "रही।": 7088,
      "लौटना": 7089,
      "लड़ाकू": 7090,
      "शिकार": 7091,
      "शिकारी": 7092,
      "शहरों": 7093,
      "स्रोत": 7094,
      "ेतही": 7095,
      "ంకాగా": 7096,
      "అణు": 7097,
      "అణ్వ": 7098,
      "అంటారు.": 7099,
      "అంటార్క్‌టిక": 7100,
      "అన్నిటికంటే": 7101,
      "అప్పటి": 7102,
      "అప్పిలే": 7103,
      "ఆసియాలో": 7104,
      "ఇటీవల": 7105,
      "ఇటీవలి": 7106,
      "ఇక్కడ": 7107,
      "ఇక్కడి": 7108,
      "ఇండో-ఆ": 7109,
      "ఇండోనేసియా": 7110,
      "ఐక్యరాజ్యసమి": 7111,
      "ఒలంపిక్‌": 7112,
      "ఒలంపిక్": 7113,
      "కరించింది.": 7114,
      "కరమేనని": 7115,
      "కర్‌)": 7116,
      "కర్ణాటక": 7117,
      "ఖో-ఖో": 7118,
      "గంగోత్రి": 7119,
      "గ్రామ": 7120,
      "గ్రాండ్": 7121,
      "చదరంగంలో": 7122,
      "చదరంగము": 7123,
      "చిరు": 7124,
      "చిత్రాలు": 7125,
      "చూసింది.": 7126,
      "చూపబడ": 7127,
      "చవితి": 7128,
      "చవిచూసింది.": 7129,
      "జెండా": 7130,
      "జోక్యం": 7131,
      "జోన్లుగా": 7132,
      "ట్‌బాల": 7133,
      "తేలిక": 7134,
      "తక్కువ.": 7135,
      "దర్శకు": 7136,
      "ద్రావిడ": 7137,
      "నూటన": 7138,
      "నెరవే": 7139,
      "నెహ్వాల్": 7140,
      "పార్లమె": 7141,
      "పార్సీలు": 7142,
      "పల్లవులు": 7143,
      "పల్లెల్": 7144,
      "పడుతుంది.": 7145,
      "పడుతున్నారు.": 7146,
      "పర్వతాలతో": 7147,
      "పర్వదినాలు,": 7148,
      "బునిస్తు": 7149,
      "భవించినవే.": 7150,
      "భౌగోళిక": 7151,
      "భౌతిక,": 7152,
      "భక్తి,": 7153,
      "భక్తిశ్రద్ధలతో,": 7154,
      "మలయాళం": 7155,
      "రీతులు": 7156,
      "రికా": 7157,
      "రకాలు.": 7158,
      "రకాలుగా": 7159,
      "లౌకిక": 7160,
      "లౌకిక,": 7161,
      "ళికలు": 7162,
      "వంశంలో": 7163,
      "శిలాగృ": 7164,
      "శైలీ": 7165,
      "శకుంతల": 7166,
      "సెర్టి": 7167,
      "సైతం": 7168,
      "సైనిక": 7169,
      "సిక్కు": 7170,
      "సిక్కులు": 7171,
      "హైకోర్టులు": 7172,
      "హైదరా": 7173,
      "प्रेमक": 7174,
      "స్వీకారం": 7175,
      "స్వీకరించింది.": 7176,
      "ప్రదేశ్‌": 7177,
      "ప్రదేశే,": 7178,
      "ప్రాయమైనది.": 7179,
      "ప్రత్యేకమైన": 7180,
      "ప్రత్యక్షంగా": 7181,
      "नाही.": 7182,
      "నియమించబడిన": 7183,
      "నియమించబడ్డ": 7184,
      "भावार्थ": 7185,
      "देवाच्या": 7186,
      "విలువైన": 7187,
      "విలువలను": 7188,
      "విశ్వనాథ": 7189,
      "విశ్వామి": 7190,
      "విమానాశ్ర": 7191,
      "होत्या.": 7192,
      "భాగమేనని": 7193,
      "భాగస్వాములు.": 7194,
      "భావిస్తారు.": 7195,
      "భావిస్తారు,": 7196,
      "पुराव": 7197,
      "ంటున్నది.": 7198,
      "स्तरावर": 7199,
      "बांग्लादेश": 7200,
      "సాహిత్యం": 7201,
      "प्राप्ति": 7202,
      "असल्याने": 7203,
      "असल्याची": 7204,
      "సంబంధించిన": 7205,
      "సంస్కరణలు": 7206,
      "సంస్కరణలతో": 7207,
      "झाल्यानंतर": 7208,
      "కాశ్మీర్": 7209,
      "కాశ్మీరు": 7210,
      "చ్చేరి": 7211,
      "మొగలులు": 7212,
      "కోల్‌కా": 7213,
      "కోల్పోతూ": 7214,
      "కాలేజి": 7215,
      "కాలేజీ": 7216,
      "వేదాలు": 7217,
      "వేదాలలో": 7218,
      "उत्तर-पश्चिम": 7219,
      "agriculture": 7220,
      "agricultural": 7221,
      "महत्त्वाच्या": 7222,
      "ఎన్నుకుంటారు.": 7223,
      "ఎన్నుకుంటుంది.": 7224,
      "2003–2004": 7225,
      "రెండోది.": 7226,
      "चित्रपटसृष्टी": 7227,
      "शिक्षणाच्या": 7228,
      "మతములు": 7229,
      "మతములకు": 7230,
      "మిస్తున్నాయి.": 7231,
      "వర్గీకరణ": 7232,
      "వర్గాలలోను": 7233,
      "వర్ణించబడింది.": 7234,
      "వర్షాలు": 7235,
      "వర్షం\",": 7236,
      "క్రీ.పూ.5": 7237,
      "క్రీ.పూ.20": 7238,
      "మంత్రులచే": 7239,
      "మీర్జాలు": 7240,
      "అయినప్పటికీ,": 7241,
      "అయినప్పటికినీ": 7242,
      "లేదు.": 7243,
      "గోదావరి": 7244,
      "గోదావరీ": 7245,
      "పరీక్షలు": 7246,
      "పరీక్షను": 7247,
      "ప్రతిపక్షం": 7248,
      "ప్రతిపక్షమైంది.": 7249,
      "इंग्लंड": 7250,
      "इंग्लिश": 7251,
      "ఉపయోగిస్తారు": 7252,
      "ఉపయోగిస్తుంది.": 7253,
      "ఏర్పడే": 7254,
      "ఏర్పడింది.": 7255,
      "బ్రిటీష్": 7256,
      "బ్రిటీషు": 7257,
      "ప్రముఖమైనది": 7258,
      "ప్రముఖమైనదే.": 7259,
      "अमेरिकन": 7260,
      "अमेरिकी": 7261,
      "తూర్పున": 7262,
      "రూపాంతరం": 7263,
      "రూపాంతరమే.": 7264,
      "సమాజము": 7265,
      "సమాజం.": 7266,
      "కులాలు,భాషలు,": 7267,
      "కోర్టులకు": 7268,
      "రైల్వేశాఖకు": 7269,
      "సింధూనదికి": 7270,
      "లోక్‌సభలో": 7271,
      "నిర్మించినందు": 7272,
      "నిర్మించేది": 7273,
      "పాలనలోకి": 7274,
      "సభ్యులను": 7275,
      "సభ్యురాలు.": 7276,
      "సామ్రాజ్యాలు": 7277,
      "పశ్చిమాన,": 7278,
      "భరతనాట్యం": 7279,
      "లక్షణాలు": 7280,
      "లక్షణాన్ని": 7281,
      "ప్రారంభించాలనే": 7282,
      "ప్రారంభించాలని": 7283,
      "ముంబైలో": 7284,
      "పురుషుల": 7285,
      "పురుషులకు": 7286,
      "సంవత్సరాల": 7287,
      "సంవత్సరాలలో": 7288,
      "వ్యాపారం": 7289,
      "ఆఫ్ఘనిస్తాన్‌కు": 7290,
      "బంగ్లాదేశ్‌ల": 7291,
      "బంగ్లాదేశ్‌లలో": 7292,
      "population": 7293,
      "Buddhism": 7294,
      "కన్నడం": 7295,
      "కబడ్డీలో": 7296,
      "చారిత్రకంగా": 7297,
      "టైటిల్": 7298,
      "టైటిళ్ళు": 7299,
      "తర్వాత": 7300,
      "తర్వాతి": 7301,
      "నెలకొని": 7302,
      "నెలకొన్న": 7303,
      "పీఠభూమికి": 7304,
      "పీఠభూమితో": 7305,
      "పవిత్రంగా": 7306,
      "బౌద్ధులు": 7307,
      "రచయిత.": 7308,
      "రచయితలెందరో": 7309,
      "ప్రయోజనాలు": 7310,
      "ప్రయోజనకరమేనని": 7311,
      "నిడివిలో": 7312,
      "నిడివిని": 7313,
      "కూడుకొనినప్పటిక": 7314,
      "కాపాడుకుంటూనే": 7315,
      "జాబితాలో": 7316,
      "చెప్పుకోవచ్చు.": 7317,
      "చెప్పుకోదగినది.": 7318,
      "సహస్రాబ్దిలో": 7319,
      "7%.": 7320,
      "Western": 7321,
      "curren": 7322,
      "crust": 7323,
      "greater": 7324,
      "hmir": 7325,
      "tropical": 7326,
      "architect": 7327,
      "ago.": 7328,
      "1974లో": 7329,
      "55,000": 7330,
      "83.8": 7331,
      "cient": 7332,
      "capit": 7333,
      "court": 7334,
      "following": 7335,
      "rights": 7336,
      "अंदमान": 7337,
      "आठवीं": 7338,
      "आवश्य": 7339,
      "उमट": 7340,
      "ऊर्जा": 7341,
      "एवम": 7342,
      "कथक": 7343,
      "छाऊ": 7344,
      "जन्म": 7345,
      "ढाँचा": 7346,
      "नमूद": 7347,
      "पसंती": 7348,
      "बहती": 7349,
      "महीने": 7350,
      "रियासतों": 7351,
      "सियाचिन": 7352,
      "हस्तक्षेप": 7353,
      "प्रश्न": 7354,
      "influ": 7355,
      "नाइट": 7356,
      "वामपंथी": 7357,
      "संरक्षण": 7358,
      "करेगी": 7359,
      "करोड": 7360,
      "ताजमहाल": 7361,
      "निर्माता": 7362,
      "किनाऱ्यालग": 7363,
      "शाकाहारी": 7364,
      "पुढार": 7365,
      "पुतळा": 7366,
      "राज्यसभेतील": 7367,
      "उत्तरांचल": 7368,
      "मोर्चा": 7369,
      "क्रयशक्ति": 7370,
      "क्रिकेट": 7371,
      "क्रमांका": 7372,
      "territories": 7373,
      "गुरूकूल": 7374,
      "पश्चिमेकडे": 7375,
      "शिवाजी": 7376,
      "द्वीपकल्प": 7377,
      "ज़्यादा": 7378,
      "टेलीविजन": 7379,
      "बढ़ा।": 7380,
      "मध्यमवर्ग": 7381,
      "endemic": 7382,
      "अर्थव्यवस्थेत": 7383,
      "हिमालयीन": 7384,
      "commercial": 7385,
      "period": 7386,
      "पैमाने": 7387,
      "सैनिकों": 7388,
      "पठारावरील": 7389,
      "आरक्षणामुळे": 7390,
      "अन्तर्गत": 7391,
      "पहाड़ियाँ": 7392,
      "इंग्रजांनी": 7393,
      "निवडणूक": 7394,
      "उभरा।": 7395,
      "बदलांमुळे": 7396,
      "्टवेयर": 7397,
      "नियंत्रण": 7398,
      "कमांडर-इन-चीफ": 7399,
      "कटिबंधीय": 7400,
      "स्मारकावरून": 7401,
      "वन्यजीव": 7402,
      "समझौते": 7403,
      "directly": 7404,
      "ईशान्येकडील": 7405,
      "उर्वरित": 7406,
      "गोंडवन": 7407,
      "जंबूद्वीप": 7408,
      "दहशतवाद": 7409,
      "संबोधित": 7410,
      "शाहजहानने": 7411,
      "अग्निध्रा": 7412,
      "सौहार्दपूर्ण": 7413,
      "422.": 7414,
      "house": 7415,
      "liter": 7416,
      "local": 7417,
      "member": 7418,
      "employ": 7419,
      "grandmother": 7420,
      "legislat": 7421,
      "1857లో": 7422,
      "kingdoms": 7423,
      "\"భారతదేశం\"": 7424,
      "\"భరతవర్షం\",": 7425,
      "(5.30%),": 7426,
      "(8.70%),": 7427,
      "(ఆంగ్లేయులు": 7428,
      "(ఉదా:": 7429,
      "(టండ్రా": 7430,
      "(బ్రెడ్": 7431,
      "(సాకర్‌)": 7432,
      "(గిల్లీ-ద": 7433,
      "(ఇదే,": 7434,
      "(17.23%).": 7435,
      "-ఇస్తాంబ": 7436,
      "-ఢిల్లీ-లాహోర్": 7437,
      "..).": 7438,
      "32,87,": 7439,
      "75,7%.": 7440,
      "83,04%,": 7441,
      "82,14%,": 7442,
      "Africa": 7443,
      "Bharat": 7444,
      "Dravidian": 7445,
      "Delhi": 7446,
      "Kashmir": 7447,
      "Singh": 7448,
      "Southeast": 7449,
      "World": 7450,
      "federal": 7451,
      "maceutical": 7452,
      "pharmaceutical": 7453,
      "turned": 7454,
      "अधिकांश": 7455,
      "अक्षुण्": 7456,
      "अजिंठा": 7457,
      "अरुणाचल": 7458,
      "अग्रणी": 7459,
      "अनिवार्य": 7460,
      "आपूर्तिकर्ता": 7461,
      "आशियातील": 7462,
      "आघाडी": 7463,
      "इतका": 7464,
      "इच्छुक": 7465,
      "इण्डिया": 7466,
      "इजरायल": 7467,
      "एसजी": 7468,
      "एसोसिएशन": 7469,
      "ऑगस्ट": 7470,
      "ऑस्कर": 7471,
      "ओणम": 7472,
      "ग़रीबी": 7473,
      "घटने": 7474,
      "घूमर": 7475,
      "घरेलू": 7476,
      "छूट": 7477,
      "जॉर्ज": 7478,
      "जम्मू": 7479,
      "झारखंड": 7480,
      "टार्कटिका": 7481,
      "दातर": 7482,
      "धरतो": 7483,
      "नवगठित": 7484,
      "नवरात्र": 7485,
      "पोंगल": 7486,
      "पसन्द": 7487,
      "बुद्ध": 7488,
      "बरीच": 7489,
      "म्यु": 7490,
      "मजबूत": 7491,
      "मंचों,": 7492,
      "यहां": 7493,
      "रैंक": 7494,
      "रसायन": 7495,
      "वस्तु": 7496,
      "सक्षम": 7497,
      "सभागृह": 7498,
      "सिक्कीम": 7499,
      "हस्ताक्षर": 7500,
      "हवेली": 7501,
      "हाताळून": 7502,
      "ेडेरल)": 7503,
      "అలీనోద్య": 7504,
      "అశోకు": 7505,
      "అహింసాయుత": 7506,
      "అన్నం,": 7507,
      "అరుదుగా": 7508,
      "అక్షరబద్ధం": 7509,
      "అందరూ": 7510,
      "అందించిన": 7511,
      "అద్దం": 7512,
      "అధిగమ": 7513,
      "అలంకార": 7514,
      "అరేబియా": 7515,
      "అమెరికా": 7516,
      "అధీనంలో": 7517,
      "అమలవుతుంది.": 7518,
      "అహ్మదీయ": 7519,
      "ఆగష్టు": 7520,
      "ఆచారాలు,": 7521,
      "ఆటలు": 7522,
      "ఆనంద్": 7523,
      "ఆలోచన": 7524,
      "ఆదేశాలు,": 7525,
      "ఆవిర్భవ": 7526,
      "ఆక్రమిస్తున్నాయి.": 7527,
      "ఆనాది": 7528,
      "ఆధ్యాత్": 7529,
      "ఆడుతున్నవార్": 7530,
      "ఆదాయం": 7531,
      "ఆగ్నేయ": 7532,
      "ఆణిముత్య": 7533,
      "ఆలస్యం": 7534,
      "ఇనుము,": 7535,
      "ఇతిహాసాల": 7536,
      "ఇముడ్చ": 7537,
      "ఇందిరా": 7538,
      "ఇందులో": 7539,
      "ఇన్‌ఫర్": 7540,
      "ఉద్భవించినవే.": 7541,
      "ఉపాధి": 7542,
      "ఉండి,": 7543,
      "ఉండుటచే": 7544,
      "ఉనికికి": 7545,
      "ఋతుపవ": 7546,
      "ఎడారి": 7547,
      "ఎమర్జె": 7548,
      "ఎగుమతి": 7549,
      "ఎల్లలుగా": 7550,
      "ఎదుర్కొ": 7551,
      "ఏకత్వంగల": 7552,
      "ఏడవస్థానంలో": 7553,
      "ఏప్రిల్": 7554,
      "ఏళ్ళపాటు": 7555,
      "ఒక్కొక్క": 7556,
      "ఒడిస్సీ": 7557,
      "ఒలింపిక్‌": 7558,
      "ఓడించి,": 7559,
      "ఓటర్లపై": 7560,
      "ఔట్‌సొ": 7561,
      "కలుపుతూ": 7562,
      "కింగ్డమ్": 7563,
      "కనిపించింది.": 7564,
      "కరాచీ,": 7565,
      "కంటైనెర్": 7566,
      "కార్పస్": 7567,
      "కష్టంకాగా": 7568,
      "కట్టడాలు,": 7569,
      "కమీజ్": 7570,
      "కూచిపూడ": 7571,
      "కమేననీ,": 7572,
      "కలుగుతాయి.": 7573,
      "ఖాతం": 7574,
      "ఖగోళ": 7575,
      "ఖర్చుతో": 7576,
      "గ్రీకులు": 7577,
      "గిన్నె": 7578,
      "గమనించి,": 7579,
      "గణితం": 7580,
      "గౌరవిస్తారు.": 7581,
      "ఘనత": 7582,
      "ఘోర": 7583,
      "ఘర్షణను": 7584,
      "చాళు": 7585,
      "చోళులు": 7586,
      "చ్ఛాయుత": 7587,
      "చమురు,": 7588,
      "చరిత్రలో": 7589,
      "చూడండి": 7590,
      "చక్రవర్తి": 7591,
      "చ.కి.మీ": 7592,
      "జైనులు": 7593,
      "జౌళి": 7594,
      "జానపద": 7595,
      "జిల్లా": 7596,
      "ట్రాఫిక్": 7597,
      "డాలర్లు.": 7598,
      "డ్‌గేజి": 7599,
      "డబుల్స్": 7600,
      "తారతమ్య": 7601,
      "తక్కువే.": 7602,
      "తదుపరి": 7603,
      "తగ్గిపోయింది.": 7604,
      "తలంపుతో": 7605,
      "థానే": 7606,
      "దశలో": 7607,
      "దసరా": 7608,
      "దృష్ట్యా": 7609,
      "దండయాత్రలతో,": 7610,
      "దైనందిన": 7611,
      "దగ్గరలో": 7612,
      "ధరించే": 7613,
      "ధరిస్తారు": 7614,
      "నృత్య": 7615,
      "నోబెల్": 7616,
      "పస్రిద్ధి": 7617,
      "పిలిచారు.": 7618,
      "పదిశాతం": 7619,
      "పచ్చజెండా": 7620,
      "పరాజయం": 7621,
      "పరోక్ష": 7622,
      "పర్షియనులు,": 7623,
      "పండ్లు": 7624,
      "ఫుట్‌బాల": 7625,
      "ఫలితంగా": 7626,
      "ఫ్రాన్స్": 7627,
      "బండ్లను": 7628,
      "బంగాళా": 7629,
      "బిన్నత్వంలో": 7630,
      "బ్రాడ్‌గేజి": 7631,
      "బ్యాడ్మిం": 7632,
      "భింబెట్కా": 7633,
      "భంగం": 7634,
      "మయన్మార్": 7635,
      "మారింది.": 7636,
      "మినహాయ": 7637,
      "మతం,": 7638,
      "మరెన్నో": 7639,
      "మద్రాసు": 7640,
      "మసాలాలు,": 7641,
      "మాల్దీవులు": 7642,
      "యూదులు": 7643,
      "యమున": 7644,
      "యథాతథ": 7645,
      "రొట్టెల": 7646,
      "రంగానికి": 7647,
      "రవీంద్రనాథ": 7648,
      "రతాయని": 7649,
      "లైనప్పటికీ": 7650,
      "లబైరెండుకోట్లకు": 7651,
      "లభ్యమైన": 7652,
      "వూపింది.": 7653,
      "వరుసగా": 7654,
      "వన్యప్రాణు": 7655,
      "వజ్రాలు": 7656,
      "శక్తులు;": 7657,
      "శ్లోకాలతో": 7658,
      "శక్తిగా": 7659,
      "సవాళ్లను": 7660,
      "సల్వార్": 7661,
      "సత్యజిత్": 7662,
      "హెబియస్": 7663,
      "హొలీ": 7664,
      "హక్కులకు": 7665,
      "హ్రాన్-ఇస్తాంబ": 7666,
      "ోత్తరాలు": 7667,
      "ోలియం": 7668,
      "काबीज": 7669,
      "काँग्रेस": 7670,
      "स्फेअर": 7671,
      "प्रशासना": 7672,
      "స్వేచ్ఛాయుత": 7673,
      "रामाय": 7674,
      "ింపబడి": 7675,
      "साझेदारी": 7676,
      "विभाजन": 7677,
      "विंध्याचल": 7678,
      "विभाजित": 7679,
      "सेल्सियस": 7680,
      "ప్రమాణ": 7681,
      "ప్రయాణికుల": 7682,
      "ప్రఖ్యాతి": 7683,
      "ప్రణాళికలు": 7684,
      "ప్రార్థనలలో": 7685,
      "ప్రగతిని": 7686,
      "నివాసాలు": 7687,
      "నివారిస్తారు.": 7688,
      "నియోలిథిక": 7689,
      "నిలిచింది.": 7690,
      "నిలబెట్టుకు": 7691,
      "నిషేధం": 7692,
      "वाणिज्य": 7693,
      "దేశరాజకీయాల్లో": 7694,
      "దేశమంతటా": 7695,
      "దేశాధినేత": 7696,
      "ర్సింగ్": 7697,
      "संक्षिप्त": 7698,
      "संगठन": 7699,
      "संग्राम": 7700,
      "संचालित": 7701,
      "భారత్‌లో": 7702,
      "కుమార్తె": 7703,
      "కుమారుడు.": 7704,
      "కుడ్యచిత్రాలు": 7705,
      "కుదిర్చిన": 7706,
      "వివాదం": 7707,
      "విడిపోయింది.": 7708,
      "విధానాలతో": 7709,
      "విజ్ఞాన": 7710,
      "విద్యను": 7711,
      "విశిష్ట": 7712,
      "విభజితమై": 7713,
      "విశేషం.": 7714,
      "मुम्बई": 7715,
      "कार्रवाई": 7716,
      "पांढऱ्या": 7717,
      "कोपेन": 7718,
      "तेलुगू": 7719,
      "తిరిగే": 7720,
      "తిరుగుబా": 7721,
      "రాణించలేదు.": 7722,
      "రామాయణం": 7723,
      "రాతియుగపు": 7724,
      "नियुक्ति": 7725,
      "ద్వైపాక్ష": 7726,
      "ముందుగా": 7727,
      "వాటిల్లింది.": 7728,
      "चालुक्यों": 7729,
      "वर्तुळकार": 7730,
      "वर्गीकरण": 7731,
      "రిట్లలో": 7732,
      "భాగే,": 7733,
      "భావిస్తున్నది.": 7734,
      "స్థూలాదాయంలో": 7735,
      "పాండిచ్చేరి": 7736,
      "बाबासाहेब": 7737,
      "बायोस्फेअर": 7738,
      "बाबतीत": 7739,
      "भीमबेटका": 7740,
      "కితాబునిస్తు": 7741,
      "సాఫ్ట్‌వేర్,": 7742,
      "असैनिक": 7743,
      "సంక్రాంతి": 7744,
      "సందర్శించే": 7745,
      "रूपरेखा": 7746,
      "उत्खनन": 7747,
      "जीडीपी": 7748,
      "కావడం": 7749,
      "सिन्धु-गंगा": 7750,
      "రాజధానులు,": 7751,
      "बहुपक्षीय": 7752,
      "बहुसंख्य": 7753,
      "క్రైస్తవులు": 7754,
      "తరతరాలుగా": 7755,
      "ప్రాజాస్వామ్య": 7756,
      "ప్రాముఖ్యతను": 7757,
      "ప్రాచుర్యము": 7758,
      "ప్రాసెస్": 7759,
      "ప్రాబల్యం": 7760,
      "కోవారంటో": 7761,
      "పేదరికం,": 7762,
      "సిద్ధించింది.": 7763,
      "తాజ్‌మహల్": 7764,
      "యాత్రికులు": 7765,
      "యావత్‌": 7766,
      "सुधारणांचा": 7767,
      "सुमारास": 7768,
      "स्वतन्त्रता": 7769,
      "కాలపరిమితిక": 7770,
      "establish": 7771,
      "resulting": 7772,
      "గుప్తులకాల": 7773,
      "గుత్తాధిపత్యం": 7774,
      "చేసుకోవడంతో": 7775,
      "కొనసాగుతోంది.": 7776,
      "వ్యవసాయం": 7777,
      "దేశాల్లోనూ": 7778,
      "త్వరలోనే": 7779,
      "लोकसंख्ये": 7780,
      "పాలకులనుండి": 7781,
      "శాశ్వత": 7782,
      "उपग्रह": 7783,
      "उपलब्ध": 7784,
      "దాటేసింది.": 7785,
      "పారిశ్రామిక": 7786,
      "మార్కెట్": 7787,
      "హిందువులైనప్పటికీ": 7788,
      "ब्रह्मपुत्र": 7789,
      "महत्वपूर्ण": 7790,
      "ఎన్నుకొనబడిన": 7791,
      "తురుష్కుల": 7792,
      "దక్షణాసియాలో": 7793,
      "పంచుకుంటోంది.": 7794,
      "మేరోః": 7795,
      "మేళవింపబడి": 7796,
      "మధ్యవర్తిత్వం": 7797,
      "కృష్ణా": 7798,
      "సుదీర్ఘ": 7799,
      "సుల్తానులు": 7800,
      "ప్రధానమంత్రికి": 7801,
      "భాషలలోను,": 7802,
      "అయితే,": 7803,
      "పెట్రోలియం": 7804,
      "పరిధిలో": 7805,
      "పరిఢవిల్లాయి.": 7806,
      "మిగిలిన": 7807,
      "లాభదాయకమేననీ,": 7808,
      "వర్ధిల్లిన": 7809,
      "స్వాధీనం": 7810,
      "मंत्रीमंडळ": 7811,
      "मतभेद": 7812,
      "స్థానే...).": 7813,
      "मनोरंजन": 7814,
      "అతిశీతల": 7815,
      "ఉత్సాహంగా,": 7816,
      "ఉత్కృష్టమైన,": 7817,
      "జరిగాయి.": 7818,
      "పోటీలలో": 7819,
      "పోర్చుగల్": 7820,
      "మంజూరు": 7821,
      "ज्वालामुखी": 7822,
      "ఎక్కువైపోతున్నప్పటికీ,": 7823,
      "ఏర్పరచింది.": 7824,
      "పట్టాలెక్కనుంది.": 7825,
      "బహిరంగంగా": 7826,
      "సాధించిపెట్టారు.ప్రస్తుతము": 7827,
      "కాంగ్రెసేతర": 7828,
      "కేంద్రీకృతమై": 7829,
      "మొదటిసారిగా": 7830,
      "దక్షిణదిగ్భాగే,": 7831,
      "గోధుమ": 7832,
      "గోడుంబిళ్ళ": 7833,
      "జనగణన": 7834,
      "దుస్తులు.": 7835,
      "పరమోన్నత": 7836,
      "బ్రహ్మపుత్ర": 7837,
      "యోచనలో": 7838,
      "ప్రతినిధిచే": 7839,
      "రెండువైపులా": 7840,
      "नेतृत्‍व": 7841,
      "ఉపరాష్ట్రపతులు": 7842,
      "మైదానంతో": 7843,
      "యు.ఏ.ఇ": 7844,
      "యునైటెడ్": 7845,
      "రహదారులను": 7846,
      "వైశాల్యంలో": 7847,
      "విస్తీర్ణంతో": 7848,
      "నడిపిస్తామని": 7849,
      "यूरेशियन": 7850,
      "అనుమతిని": 7851,
      "అనువైనది.": 7852,
      "తెప్పించుకోవడానికి,": 7853,
      "పొడిగించుకోవచ్చని": 7854,
      "బిజినెస్": 7855,
      "రూపంలో)": 7856,
      "సమశీతోష్ణ": 7857,
      "సారవంతమైన": 7858,
      "సర్వసత్తాక,": 7859,
      "మొదలగువారు": 7860,
      "మొదలగునవి).": 7861,
      "అభిప్రాయపడుతున్నారు.": 7862,
      "సౌకర్యవంతంగా,": 7863,
      "पर्वतश्रेणी": 7864,
      "121,01,93,422.": 7865,
      "तमिलनाडु": 7866,
      "టెక్నాలజీ": 7867,
      "పదార్థాలు,": 7868,
      "పద్ధతులున్నాయి.": 7869,
      "వహిస్తాయి.": 7870,
      "నిర్మిస్తున్న": 7871,
      "१६३८ला": 7872,
      "అవసరమైతే": 7873,
      "ఆక్రమణదారులు,": 7874,
      "ఆక్రమించుకున్నారు.": 7875,
      "ఇవ్వబడిన": 7876,
      "కథకళి": 7877,
      "గెలిచిన": 7878,
      "తమిళనాడుకు": 7879,
      "మెహర్గర్,": 7880,
      "మౌఖికమైనది.": 7881,
      "లెజిస్లేచర్,": 7882,
      "సహాయకారిగా": 7883,
      "సూచనలు,": 7884,
      "పుట్టిల్లు.": 7885,
      "పుట్టుపూర్వోత్తరాలు": 7886,
      "సంఘర్షణలను": 7887,
      "ఒకేమాదిరిగా": 7888,
      "చేసింది.ఢాకా-ఢిల్లీ-లాహోర్": 7889,
      "వారసత్వాన్ని,": 7890,
      "శ్రీశైలస్య": 7891,
      "శ్రీరామనవమి": 7892,
      "కలిసివస్తుందని": 7893,
      "సాధించగలిగినది.": 7894,
      "సముద్రతీరము": 7895,
      "పేర్కొంటున్నారు.": 7896,
      "ద్వీప-దేశాలు.": 7897,
      "ఇస్లామాబాద్-టెహ్రాన్-ఇస్తాంబ": 7898,
      "జన్మనిచ్చింది.": 7899,
      "సంకీర్ణాలేకాగా": 7900,
      "स्वातंत्र्यप्राप्तीनंतर": 7901,
      "(3.72%),": 7902,
      "गिधाड": 7903,
      "ग्लेशियर": 7904,
      "అణ్వస్త్ర": 7905,
      "అంటార్క్‌టికాలో": 7906,
      "అప్పిలేట్": 7907,
      "ఇండో-ఆర్యన్": 7908,
      "ఐక్యరాజ్యసమితి": 7909,
      "చూపబడింది": 7910,
      "తేలికేననీ": 7911,
      "దర్శకుడైన": 7912,
      "నూటనలబైరెండుకోట్లకు": 7913,
      "నెరవేరతాయని": 7914,
      "పార్లమెంటరీ": 7915,
      "పల్లెల్లోని": 7916,
      "వంశంలోని": 7917,
      "శిలాగృహాలు,": 7918,
      "సెర్టియోరారి": 7919,
      "హైదరాబాద్,": 7920,
      "విశ్వనాథన్": 7921,
      "విశ్వామిత్ర": 7922,
      "విమానాశ్రయాలు": 7923,
      "కోల్‌కాతా": 7924,
      "వర్గీకరణలో": 7925,
      "నిర్మించినందువల్ల": 7926,
      "కూడుకొనినప్పటికినీ": 7927,
      "83.80%": 7928,
      "आवश्यक": 7929,
      "(ఆంగ్లేయులు)": 7930,
      "(టండ్రా)": 7931,
      "(బ్రెడ్,": 7932,
      "(గిల్లీ-దండా)": 7933,
      "32,87,263": 7934,
      "अक्षुण्ण": 7935,
      "అలీనోద్యమంలో": 7936,
      "అశోకుడు": 7937,
      "అధిగమించి": 7938,
      "అహ్మదీయులు": 7939,
      "ఆవిర్భవించింది.": 7940,
      "ఆధ్యాత్మికత": 7941,
      "ఆడుతున్నవార్లలో": 7942,
      "ఆణిముత్యం.": 7943,
      "ఇతిహాసాలపై": 7944,
      "ఇముడ్చుకుంది.": 7945,
      "ఇన్‌ఫర్మేషన్": 7946,
      "ఋతుపవనాలు": 7947,
      "ఎమర్జెన్సీ": 7948,
      "ఎదుర్కొంటున్నది.": 7949,
      "ఒక్కొక్కటే": 7950,
      "ఔట్‌సొర్సింగ్": 7951,
      "కూచిపూడి": 7952,
      "చాళుక్యులు": 7953,
      "తారతమ్యాలున్నాయి.": 7954,
      "ఫుట్‌బాల్‌": 7955,
      "బంగాళాఖాతం": 7956,
      "బ్యాడ్మింటన్‌": 7957,
      "మినహాయించి,": 7958,
      "రవీంద్రనాథ్": 7959,
      "వన్యప్రాణుల": 7960,
      "నియోలిథిక్": 7961,
      "నిలబెట్టుకున్నాయి.": 7962,
      "తిరుగుబాటు": 7963,
      "ద్వైపాక్షిక": 7964,
      "కితాబునిస్తున్నారు.": 7965,
      "కాలపరిమితికి": 7966,
      "గుప్తులకాలం": 7967,
      "చేసింది.ఢాకా-ఢిల్లీ-లాహోర్‌ల": 7968,
      "ఇస్లామాబాద్-టెహ్రాన్-ఇస్తాంబుల్": 7969,
      ");": 7970,
      "-operation": 7971,
      "1200": 7972,
      "21.": 7973,
      "300": 7974,
      "49": 7975,
      "600": 7976,
      "64%": 7977,
      "80": 7978,
      "Ac": 7979,
      "At": 7980,
      "Ash": 7981,
      "Bh": 7982,
      "Bra": 7983,
      "Bang": 7984,
      "Bay": 7985,
      "CN": 7986,
      "Civil": 7987,
      "DA": 7988,
      "Dec": 7989,
      "Democ": 7990,
      "F)": 7991,
      "Fron": 7992,
      "Gup": 7993,
      "Gree": 7994,
      "IU": 7995,
      "Jain": 7996,
      "Lan": 7997,
      "Myan": 7998,
      "Nic": 7999,
      "Non-": 8000,
      "NDA": 8001,
      "PA": 8002,
      "Per": 8003,
      "She": 8004,
      "Sri": 8005,
      "Tam": 8006,
      "Treat": 8007,
      "Thar": 8008,
      "UPA": 8009,
      "adi": 8010,
      "air": 8011,
      "bes": 8012,
      "ble": 8013,
      "beral": 8014,
      "bell": 8015,
      "car": 8016,
      "cle": 8017,
      "cro": 8018,
      "cult": 8019,
      "cy,": 8020,
      "cy.": 8021,
      "del": 8022,
      "eign": 8023,
      "equ": 8024,
      "fam": 8025,
      "four": 8026,
      "flo": 8027,
      "gth": 8028,
      "gas": 8029,
      "gain": 8030,
      "gav": 8031,
      "glish": 8032,
      "guar": 8033,
      "hu": 8034,
      "hy": 8035,
      "her": 8036,
      "his": 8037,
      "hab": 8038,
      "here": 8039,
      "however,": 8040,
      "i)": 8041,
      "ip": 8042,
      "ious": 8043,
      "ject": 8044,
      "ke": 8045,
      "lay": 8046,
      "line": 8047,
      "lades": 8048,
      "loss": 8049,
      "mat": 8050,
      "mig": 8051,
      "mult": 8052,
      "marg": 8053,
      "much": 8054,
      "mamm": 8055,
      "mi)": 8056,
      "na": 8057,
      "nation": 8058,
      "near": 8059,
      "name": 8060,
      "oin": 8061,
      "otion": 8062,
      "oted": 8063,
      "obar": 8064,
      "ped": 8065,
      "ption": 8066,
      "pover": 8067,
      "pass": 8068,
      "ran": 8069,
      "rates": 8070,
      "sed": 8071,
      "sing": 8072,
      "sol": 8073,
      "sover": 8074,
      "sect": 8075,
      "ti": 8076,
      "tic": 8077,
      "tle": 8078,
      "til": 8079,
      "test": 8080,
      "tak": 8081,
      "ty,": 8082,
      "text": 8083,
      "ues": 8084,
      "use": 8085,
      "uary": 8086,
      "uous": 8087,
      "ve": 8088,
      "vic": 8089,
      "vill": 8090,
      "went": 8091,
      "wide": 8092,
      "thor": 8093,
      "threat": 8094,
      "th-largest": 8095,
      "anted": 8096,
      "ines": 8097,
      "inated": 8098,
      "intro": 8099,
      "then": 8100,
      "era": 8101,
      "erial": 8102,
      "ones": 8103,
      "only": 8104,
      "onial": 8105,
      "rest": 8106,
      "recor": 8107,
      "reven": 8108,
      "reduced": 8109,
      "refer": 8110,
      "sty": 8111,
      "stat": 8112,
      "stand": 8113,
      "stren": 8114,
      "ense": 8115,
      "energy": 8116,
      "alth": 8117,
      "alle": 8118,
      "als,": 8119,
      "along": 8120,
      "ality": 8121,
      "educ": 8122,
      "ative": 8123,
      "and,": 8124,
      "anding": 8125,
      "div": 8126,
      "dist": 8127,
      "ara": 8128,
      "arter": 8129,
      "around": 8130,
      "oral": 8131,
      "193": 8132,
      "1900": 8133,
      "1930": 8134,
      "itat": 8135,
      "Indira": 8136,
      "es.": 8137,
      "ise": 8138,
      "enter": 8139,
      "tow": 8140,
      "took": 8141,
      "ection": 8142,
      "left": 8143,
      "2019": 8144,
      "2026": 8145,
      "2024": 8146,
      "ilway": 8147,
      "heet": 8148,
      "urya": 8149,
      "adop": 8150,
      "imper": 8151,
      "imated": 8152,
      "amp": 8153,
      "role": 8154,
      "ross": 8155,
      "cean": 8156,
      "est-": 8157,
      "estic": 8158,
      "estimated": 8159,
      "separ": 8160,
      "resp": 8161,
      "astri": 8162,
      "conduc": 8163,
      "railway": 8164,
      "ived": 8165,
      "iving": 8166,
      "ivity": 8167,
      "chain": 8168,
      "export": 8169,
      "exchange": 8170,
      "elop": 8171,
      "untouch": 8172,
      "ies.": 8173,
      "moist": 8174,
      "etic": 8175,
      "1967": 8176,
      "2001": 8177,
      "2009": 8178,
      "2011,": 8179,
      "duct": 8180,
      "rial": 8181,
      "within": 8182,
      "income": 8183,
      "ability": 8184,
      "liberal": 8185,
      "1998": 8186,
      "1991,": 8187,
      "area": 8188,
      "ments": 8189,
      "defe": 8190,
      "ity,": 8191,
      "earli": 8192,
      "ending": 8193,
      "plac": 8194,
      "six": 8195,
      "sian": 8196,
      "trade": 8197,
      "ders": 8198,
      "co-operation": 8199,
      "ure,": 8200,
      "genous": 8201,
      "prom": 8202,
      "process": 8203,
      "partic": 8204,
      "partition": 8205,
      "ctive": 8206,
      "contain": 8207,
      "wealth": 8208,
      "1989": 8209,
      "Chief": 8210,
      "ressed": 8211,
      "become": 8212,
      "year.": 8213,
      "Asian": 8214,
      "sho": 8215,
      "share": 8216,
      "assert": 8217,
      "alled": 8218,
      "regions": 8219,
      "ministers.": 8220,
      "ralian": 8221,
      "century": 8222,
      "centuries": 8223,
      "century.": 8224,
      "centuries,": 8225,
      "governments": 8226,
      "ograph": 8227,
      "extinc": 8228,
      "decade": 8229,
      "group": 8230,
      "gradually": 8231,
      "bodi": 8232,
      "clim": 8233,
      "east.": 8234,
      "predomin": 8235,
      "ryan": 8236,
      "composed": 8237,
      "Asia,": 8238,
      "30,000": 8239,
      "This": 8240,
      "These": 8241,
      "supp": 8242,
      "suppl": 8243,
      "supported": 8244,
      "maintain": 8245,
      "consist": 8246,
      "consid": 8247,
      "16.6%": 8248,
      "ified": 8249,
      "loose": 8250,
      "parliament.": 8251,
      "1.1": 8252,
      "subcontinent,": 8253,
      "history": 8254,
      "basin": 8255,
      "kilomet": 8256,
      "oka": 8257,
      "ustralian": 8258,
      "art,": 8259,
      "leader,": 8260,
      "marked": 8261,
      "Himalayan": 8262,
      "Maurya": 8263,
      "cording": 8264,
      "present": 8265,
      "president": 8266,
      "armies": 8267,
      "olving": 8268,
      "constitutional": 8269,
      "devotion": 8270,
      "develop": 8271,
      "populous": 8272,
      "Buddha": 8273,
      "crucial": 8274,
      "factor": 8275,
      "thought": 8276,
      "oldest": 8277,
      "ago,": 8278,
      "2012–": 8279,
      "Desert": 8280,
      "Janata": 8281,
      "January": 8282,
      "Republic": 8283,
      "bio": 8284,
      "nings": 8285,
      "signed": 8286,
      "time,": 8287,
      "vention": 8288,
      "them.": 8289,
      "Indo-Aryan": 8290,
      "Indo-Australian": 8291,
      "third-largest": 8292,
      "Arabian": 8293,
      "average": 8294,
      "colonial": 8295,
      "drain": 8296,
      "independence": 8297,
      "remaining": 8298,
      "strong": 8299,
      "rock": 8300,
      "severe": 8301,
      "increasingly": 8302,
      "violence": 8303,
      "Islamic": 8304,
      "mediately": 8305,
      "Among": 8306,
      "English": 8307,
      "global": 8308,
      "wildlife": 8309,
      "indigenous": 8310,
      "enacted": 8311,
      "disputes": 8312,
      "protected": 8313,
      "contribut": 8314,
      "capita": 8315,
      "established": 8316,
      "According": 8317,
      "Ashoka": 8318,
      "Brahm": 8319,
      "Banglades": 8320,
      "Front": 8321,
      "IUCN": 8322,
      "Jainism": 8323,
      "Lank": 8324,
      "Myanmar": 8325,
      "Nicobar": 8326,
      "Persian": 8327,
      "Tamil": 8328,
      "bellion": 8329,
      "gave": 8330,
      "guard": 8331,
      "hub": 8332,
      "habitat": 8333,
      "material": 8334,
      "sovereign": 8335,
      "sector": 8336,
      "victor": 8337,
      "widely": 8338,
      "recorded": 8339,
      "revenues": 8340,
      "strength": 8341,
      "imperial": 8342,
      "conducted": 8343,
      "kilometres": 8344,
      "Bangladesh": 8345,
      "\"पूर्व": 8346,
      "\"इंड": 8347,
      "\"आस": 8348,
      "$2": 8349,
      "$४": 8350,
      "$६": 8351,
      "$८": 8352,
      "$1,": 8353,
      "$१७": 8354,
      "$24": 8355,
      "$64": 8356,
      "'भारत": 8357,
      "'भा": 8358,
      "'राष्ट्र": 8359,
      "'रत": 8360,
      "(7": 8361,
      "(I": 8362,
      "(ओ": 8363,
      "(ध": 8364,
      "(४": 8365,
      "(या": 8366,
      "(से": 8367,
      "(भा": 8368,
      "(राज": 8369,
      "(१९": 8370,
      "(ce": 8371,
      "(केंद्र": 8372,
      "(सर्व": 8373,
      "(हिन्दी": 8374,
      "(नंतर": 8375,
      "(कॉ": 8376,
      "(कॉंग्रेस": 8377,
      "(Ch": 8378,
      "(सम्": 8379,
      "(15": 8380,
      "(लगभग": 8381,
      "(२.": 8382,
      "(भाजपा": 8383,
      "(आधिकारिक": 8384,
      "(ens": 8385,
      "(1947,": 8386,
      "(इ.स.": 8387,
      "(including": 8388,
      "(Ar": 8389,
      "(शिवा": 8390,
      "(आता": 8391,
      "(३,": 8392,
      "(1961": 8393,
      "(फ्रेंच": 8394,
      "(मार्च": 8395,
      "(लौटना": 8396,
      "(जीडीपी": 8397,
      "(untouch": 8398,
      "(imperial": 8399,
      "):": 8400,
      ")|": 8401,
      ")।": 8402,
      ",4": 8403,
      ",ज": 8404,
      ",५": 8405,
      ",६": 8406,
      "-1": 8407,
      "-l": 8408,
      "-फ": 8409,
      "-७": 8410,
      "-In": 8411,
      "-राज्य": 8412,
      "-दक्षिण": 8413,
      "-साथ": 8414,
      "-व्यव": 8415,
      "-रूप": 8416,
      "-तृ": 8417,
      "-वैदिक": 8418,
      "-सित": 8419,
      "-प्राप्त": 8420,
      "-प्रधानमंत्री": 8421,
      "-year": 8422,
      "-15": 8423,
      "-अपने": 8424,
      "-अलग": 8425,
      "-जु": 8426,
      "-१६": 8427,
      "-१९५०": 8428,
      "-sc": 8429,
      "-तरह": 8430,
      "-संघीय": 8431,
      "-सांस्कृतिक": 8432,
      "-छोटे": 8433,
      "-कप": 8434,
      "-पाँच": 8435,
      "-majority": 8436,
      "-आर्य": 8437,
      "-day": 8438,
      "-ga": 8439,
      "-kn": 8440,
      "-अफ": 8441,
      "-उल": 8442,
      "-वेरू": 8443,
      "-स्थल": 8444,
      "-रिवाज": 8445,
      "-सूत्र": 8446,
      "-गुजरा": 8447,
      "-grandmother": 8448,
      "-sty": 8449,
      "-div": 8450,
      "-Chief": 8451,
      ".१": 8452,
      ".७": 8453,
      ".5%": 8454,
      ".३८": 8455,
      ".३७": 8456,
      ".४६": 8457,
      "/बोली": 8458,
      "0.": 8459,
      "1st": 8460,
      "1.3": 8461,
      "11.": 8462,
      "140": 8463,
      "25": 8464,
      "2200": 8465,
      "3%": 8466,
      "31": 8467,
      "3000": 8468,
      "3.3": 8469,
      "4,": 8470,
      "45": 8471,
      "426": 8472,
      "4,000": 8473,
      "4.0": 8474,
      "462": 8475,
      "55.": 8476,
      "6.": 8477,
      "6th": 8478,
      "672": 8479,
      "6.4": 8480,
      "75%": 8481,
      "7.5%": 8482,
      "74.0": 8483,
      "76.4": 8484,
      "8%": 8485,
      "8%)": 8486,
      "9000": 8487,
      "92,": 8488,
      "As": 8489,
      "Ach": 8490,
      "Aut": 8491,
      "Bi": 8492,
      "Bet": 8493,
      "Cl": 8494,
      "Dal": 8495,
      "Dom": 8496,
      "Dem": 8497,
      "Ear": 8498,
      "Follow": 8499,
      "Fort": 8500,
      "Gr": 8501,
      "Gu": 8502,
      "Gang": 8503,
      "Gond": 8504,
      "IM": 8505,
      "IR": 8506,
      "Im": 8507,
      "Jaw": 8508,
      "Jamm": 8509,
      "June": 8510,
      "Ko": 8511,
      "Kaver": 8512,
      "KF)": 8513,
      "LT": 8514,
      "Lak": 8515,
      "Min": 8516,
      "Mon": 8517,
      "Mal": 8518,
      "Mem": 8519,
      "Mid": 8520,
      "Many": 8521,
      "Major": 8522,
      "Net": 8523,
      "Oc": 8524,
      "Our": 8525,
      "Ocean": 8526,
      "P.": 8527,
      "PI": 8528,
      "PP": 8529,
      "Pl": 8530,
      "Po": 8531,
      "Pr": 8532,
      "Pre": 8533,
      "Pall": 8534,
      "Part": 8535,
      "President": 8536,
      "PKF)": 8537,
      "Red": 8538,
      "Rain": 8539,
      "Roy": 8540,
      "Sh": 8541,
      "So": 8542,
      "Sim": 8543,
      "Sab": 8544,
      "Sum": 8545,
      "Sultanate": 8546,
      "SIR": 8547,
      "TE": 8548,
      "Ti": 8549,
      "To": 8550,
      "Tit": 8551,
      "Tem": 8552,
      "Tri": 8553,
      "TIM": 8554,
      "V.": 8555,
      "Vi": 8556,
      "Vaj": 8557,
      "Valle": 8558,
      "Winter": 8559,
      "ah": 8560,
      "aː": 8561,
      "aic": 8562,
      "ail": 8563,
      "aem": 8564,
      "aim": 8565,
      "aut": 8566,
      "afe": 8567,
      "ahar": 8568,
      "bon": 8569,
      "bul": 8570,
      "bel": 8571,
      "bri": 8572,
      "buc": 8573,
      "bour": 8574,
      "bers": 8575,
      "back": 8576,
      "cr": 8577,
      "cen": 8578,
      "cat": 8579,
      "cil": 8580,
      "crit": 8581,
      "came": 8582,
      "crow": 8583,
      "cris": 8584,
      "cheet": 8585,
      "dr": 8586,
      "dre": 8587,
      "dar": 8588,
      "dem": 8589,
      "dro": 8590,
      "dest": 8591,
      "dry": 8592,
      "dense": 8593,
      "ee": 8594,
      "ew": 8595,
      "eous": 8596,
      "eigh": 8597,
      "fi": 8598,
      "foun": 8599,
      "flow": 8600,
      "fied": 8601,
      "flower": 8602,
      "fund": 8603,
      "gn": 8604,
      "gin": 8605,
      "gig": 8606,
      "hā": 8607,
      "han": 8608,
      "hen": 8609,
      "hal": 8610,
      "hor": 8611,
      "hol": 8612,
      "hig": 8613,
      "hun": 8614,
      "hous": 8615,
      "hered": 8616,
      "i-": 8617,
      "ile": 8618,
      "ira": 8619,
      "ians": 8620,
      "jur": 8621,
      "jay": 8622,
      "jo-": 8623,
      "lf": 8624,
      "lal": 8625,
      "lies": 8626,
      "lid": 8627,
      "lab": 8628,
      "live": 8629,
      "les,": 8630,
      "law": 8631,
      "mall": 8632,
      "mers": 8633,
      "mns": 8634,
      "mission": 8635,
      "nd": 8636,
      "ner": 8637,
      "non": 8638,
      "nic": 8639,
      "net": 8640,
      "next": 8641,
      "och": 8642,
      "pat": 8643,
      "pec": 8644,
      "phe": 8645,
      "past": 8646,
      "pet": 8647,
      "put": 8648,
      "posed": 8649,
      "push": 8650,
      "ring": 8651,
      "ranges": 8652,
      "rural": 8653,
      "range": 8654,
      "s;": 8655,
      "sw": 8656,
      "son": 8657,
      "sal": 8658,
      "sil": 8659,
      "slow": 8660,
      "safe": 8661,
      "small": 8662,
      "t-": 8663,
      "tan": 8664,
      "tre": 8665,
      "ting": 8666,
      "ts,": 8667,
      "treas": 8668,
      "treat": 8669,
      "temper": 8670,
      "ued": 8671,
      "uable": 8672,
      "ufac": 8673,
      "van": 8674,
      "vis": 8675,
      "vol": 8676,
      "vel": 8677,
      "voted": 8678,
      "wan": 8679,
      "wing": 8680,
      "wom": 8681,
      "wet": 8682,
      "writ": 8683,
      "xim": 8684,
      "yal": 8685,
      "ze": 8686,
      "zed": 8687,
      "νδ": 8688,
      "ँट": 8689,
      "ँस": 8690,
      "ँगर": 8691,
      "ँटा": 8692,
      "ं,": 8693,
      "ंख": 8694,
      "ंज": 8695,
      "ंव": 8696,
      "ंकी": 8697,
      "ंभा": 8698,
      "ंहा": 8699,
      "ंते": 8700,
      "ंबा": 8701,
      "ंभी": 8702,
      "ंतक": 8703,
      "ंसाह": 8704,
      "ंतील": 8705,
      "ंटे": 8706,
      "ंसाठी": 8707,
      "ंरिक": 8708,
      "ंवरील": 8709,
      "ंसोबत": 8710,
      "ंटर": 8711,
      "ंजू": 8712,
      "ःख": 8713,
      "अट": 8714,
      "अल": 8715,
      "अश": 8716,
      "अ‍": 8717,
      "अवि": 8718,
      "अले": 8719,
      "अराज": 8720,
      "अद्": 8721,
      "अनि": 8722,
      "अलि": 8723,
      "अत्या": 8724,
      "अप्": 8725,
      "अदा": 8726,
      "अंब": 8727,
      "अतिक": 8728,
      "अशिय": 8729,
      "अध्या": 8730,
      "अमीर": 8731,
      "अंक": 8732,
      "अलां": 8733,
      "अक्षर": 8734,
      "अल्प": 8735,
      "अस्थि": 8736,
      "अट्ट": 8737,
      "अयशस्वी": 8738,
      "अहम": 8739,
      "अ-वैदिक": 8740,
      "आख": 8741,
      "आन": 8742,
      "आया": 8743,
      "आती": 8744,
      "आपा": 8745,
      "आश्": 8746,
      "आकृ": 8747,
      "आयु": 8748,
      "आल्या": 8749,
      "आंध": 8750,
      "आजा": 8751,
      "आभू": 8752,
      "आशिया": 8753,
      "आवं": 8754,
      "आमत": 8755,
      "आले.": 8756,
      "आमू": 8757,
      "आदर": 8758,
      "आफ्र": 8759,
      "आकडे": 8760,
      "आवंट": 8761,
      "आया।": 8762,
      "आवास": 8763,
      "आल्या.": 8764,
      "आमंत्रण": 8765,
      "आकडा": 8766,
      "आस्ट्रे": 8767,
      "आत्म": 8768,
      "आजीविका": 8769,
      "इओ": 8770,
      "इर": 8771,
      "इ़": 8772,
      "इका": 8773,
      "इया": 8774,
      "इला": 8775,
      "इन्": 8776,
      "इजा": 8777,
      "इंद्र": 8778,
      "इज़": 8779,
      "इयों": 8780,
      "इव्": 8781,
      "इंजी": 8782,
      "इडर": 8783,
      "इंटर": 8784,
      "ई;": 8785,
      "ईर": 8786,
      "ईस्वी": 8787,
      "ईसवी": 8788,
      "उठ": 8789,
      "उभा": 8790,
      "उतर": 8791,
      "उपा": 8792,
      "उद्ध": 8793,
      "उसी": 8794,
      "उदार": 8795,
      "उदर": 8796,
      "उधार": 8797,
      "उड़ी": 8798,
      "उंच": 8799,
      "उगम": 8800,
      "उचित": 8801,
      "उथल": 8802,
      "उल्ले": 8803,
      "उंट": 8804,
      "उदेश्य": 8805,
      "उन्नति": 8806,
      "ऊस": 8807,
      "ऊंची": 8808,
      "ऊपरी": 8809,
      "ऋग्वेद": 8810,
      "एज": 8811,
      "एफ": 8812,
      "एल": 8813,
      "एवि": 8814,
      "एकी": 8815,
      "एन्": 8816,
      "एवर": 8817,
      "एंड": 8818,
      "एयर": 8819,
      "एतद्": 8820,
      "एक्स": 8821,
      "ऐं": 8822,
      "ऐतिहा": 8823,
      "ऑल": 8824,
      "ऑफ़": 8825,
      "ऑक्ट": 8826,
      "ओस": 8827,
      "ओसा": 8828,
      "ओव्या": 8829,
      "ओडिया": 8830,
      "औप": 8831,
      "औष": 8832,
      "कण": 8833,
      "कळ": 8834,
      "क़": 8835,
      "कै": 8836,
      "कौ": 8837,
      "क्या": 8838,
      "कने": 8839,
      "कसे": 8840,
      "कना": 8841,
      "कता": 8842,
      "कथा": 8843,
      "कहा": 8844,
      "कमान": 8845,
      "कलि": 8846,
      "कल्": 8847,
      "कल्या": 8848,
      "कमो": 8849,
      "कम्": 8850,
      "क्यात": 8851,
      "कच्": 8852,
      "कंब": 8853,
      "कपड": 8854,
      "काता": 8855,
      "ककला": 8856,
      "कड़ी": 8857,
      "कमानव": 8858,
      "कट्ट": 8859,
      "कमानी": 8860,
      "क्यांचा": 8861,
      "क-रूप": 8862,
      "खट": 8863,
      "खड": 8864,
      "ख्य": 8865,
      "ख्र": 8866,
      "खर्": 8867,
      "खान": 8868,
      "खले": 8869,
      "खाना": 8870,
      "खण्ड": 8871,
      "खजु": 8872,
      "खलां": 8873,
      "खदेव": 8874,
      "खिला": 8875,
      "खगोल": 8876,
      "ग,": 8877,
      "गझ": 8878,
      "गट": 8879,
      "गळ": 8880,
      "गौ": 8881,
      "गार": 8882,
      "गिक": 8883,
      "गती": 8884,
      "गित": 8885,
      "गंड": 8886,
      "गर्म": 8887,
      "गृत": 8888,
      "गलु": 8889,
      "गच्छ": 8890,
      "गलां": 8891,
      "गमर": 8892,
      "गृह": 8893,
      "गरीबी": 8894,
      "गतासाठी": 8895,
      "गंभी": 8896,
      "घि": 8897,
      "घ्र": 8898,
      "घरा": 8899,
      "घतात.": 8900,
      "घोड़": 8901,
      "घडा": 8902,
      "घदू": 8903,
      "घराण": 8904,
      "घंटे": 8905,
      "चम": 8906,
      "चव": 8907,
      "चू": 8908,
      "चें": 8909,
      "चिक": 8910,
      "चने": 8911,
      "चले": 8912,
      "चतु": 8913,
      "चणी": 8914,
      "चैन": 8915,
      "चंद": 8916,
      "चयन": 8917,
      "चन्द्र": 8918,
      "चूण": 8919,
      "चट्ट": 8920,
      "चपाती": 8921,
      "चंडी": 8922,
      "छ:": 8923,
      "छट": 8924,
      "छे": 8925,
      "छले": 8926,
      "छत्र": 8927,
      "छित": 8928,
      "छठा": 8929,
      "ज,": 8930,
      "जम": 8931,
      "जर": 8932,
      "जव": 8933,
      "जान": 8934,
      "जत्र": 8935,
      "जित": 8936,
      "जर्व": 8937,
      "जड़": 8938,
      "ज्ये": 8939,
      "जरी": 8940,
      "जर्म": 8941,
      "ज्यां": 8942,
      "जरे": 8943,
      "जटि": 8944,
      "जनाव": 8945,
      "ज्यात": 8946,
      "जशी": 8947,
      "जांच्या": 8948,
      "जवान": 8949,
      "जमले": 8950,
      "जानी": 8951,
      "जपुरी": 8952,
      "झु": 8953,
      "झां": 8954,
      "झगड": 8955,
      "झिक,": 8956,
      "झपाट": 8957,
      "टत": 8958,
      "टस": 8959,
      "टॉ": 8960,
      "ट्": 8961,
      "ट्र": 8962,
      "टें": 8963,
      "टान": 8964,
      "टते": 8965,
      "टून": 8966,
      "टनी": 8967,
      "टये": 8968,
      "ट्रा": 8969,
      "टियाँ": 8970,
      "टकों": 8971,
      "टकरा": 8972,
      "टंकी": 8973,
      "टक्या": 8974,
      "ठर": 8975,
      "ठसा": 8976,
      "ठची": 8977,
      "ठित": 8978,
      "ठंड": 8979,
      "ठहर": 8980,
      "ठला.": 8981,
      "ठ्याचे": 8982,
      "डम": 8983,
      "डु": 8984,
      "डॅ": 8985,
      "डो": 8986,
      "डारत": 8987,
      "डया": 8988,
      "डच्या": 8989,
      "डां": 8990,
      "डून": 8991,
      "डल्या": 8992,
      "डिक्": 8993,
      "डण्यात": 8994,
      "डतो.": 8995,
      "डमक": 8996,
      "डियाँ": 8997,
      "डप्पा": 8998,
      "डसॉ": 8999,
      "डान्": 9000,
      "डियो": 9001,
      "ड्यांच्या": 9002,
      "ढि": 9003,
      "ढी": 9004,
      "ढो": 9005,
      "ढती": 9006,
      "ढां": 9007,
      "ढलु": 9008,
      "ढण्यात": 9009,
      "ढांचे": 9010,
      "णत्या": 9011,
      "णारी": 9012,
      "णियों": 9013,
      "त:": 9014,
      "तह": 9015,
      "तै": 9016,
      "तमा": 9017,
      "तति": 9018,
      "तून": 9019,
      "तारी": 9020,
      "तशी": 9021,
      "तदु": 9022,
      "तियाँ": 9023,
      "तटर": 9024,
      "तौर": 9025,
      "तियां": 9026,
      "तकरी": 9027,
      "थक": 9028,
      "थर": 9029,
      "थि": 9030,
      "थमधील": 9031,
      "दद": 9032,
      "दश": 9033,
      "दृ": 9034,
      "दक्": 9035,
      "दों": 9036,
      "दित": 9037,
      "दड़": 9038,
      "दस्त": 9039,
      "दाने": 9040,
      "दंगा": 9041,
      "द्याने": 9042,
      "दसरा": 9043,
      "दसव": 9044,
      "दगडा": 9045,
      "दंतक": 9046,
      "दडो": 9047,
      "धे": 9048,
      "ध्": 9049,
      "धक्": 9050,
      "ध्ये": 9051,
      "धातील": 9052,
      "धारा": 9053,
      "धारी": 9054,
      "ध्यात": 9055,
      "धरो": 9056,
      "धियाँ": 9057,
      "धाम": 9058,
      "ध-संघीय": 9059,
      "नए": 9060,
      "नम": 9061,
      "नॅ": 9062,
      "नो": 9063,
      "न‍": 9064,
      "न’": 9065,
      "नका": 9066,
      "नों": 9067,
      "नक्ष": 9068,
      "नारा": 9069,
      "नाने": 9070,
      "नंत": 9071,
      "नरे": 9072,
      "नव्या": 9073,
      "नवं": 9074,
      "नाता": 9075,
      "नकल": 9076,
      "नरी,": 9077,
      "निक्ष": 9078,
      "नचंद": 9079,
      "नडु": 9080,
      "पए": 9081,
      "पच": 9082,
      "पस": 9083,
      "पॅ": 9084,
      "पॉ": 9085,
      "पौ": 9086,
      "प्य": 9087,
      "पें": 9088,
      "पिक": 9089,
      "पला": 9090,
      "पदे": 9091,
      "पराज": 9092,
      "पन्": 9093,
      "पष्ट": 9094,
      "पनी": 9095,
      "पसर": 9096,
      "पत्या": 9097,
      "पल्": 9098,
      "पिय": 9099,
      "पल्या": 9100,
      "पंड": 9101,
      "पाने": 9102,
      "पणा": 9103,
      "पकाल": 9104,
      "पब्": 9105,
      "पडी": 9106,
      "पडा": 9107,
      "पाता": 9108,
      "पतच्या": 9109,
      "पगडा": 9110,
      "पऱ्यात": 9111,
      "पँट": 9112,
      "पनडु": 9113,
      "फर": 9114,
      "फॉ": 9115,
      "फो": 9116,
      "फले": 9117,
      "फ्रा": 9118,
      "फळे": 9119,
      "फ्टवे": 9120,
      "फ्लो": 9121,
      "बध": 9122,
      "बम": 9123,
      "बस": 9124,
      "बें": 9125,
      "बरा": 9126,
      "बंग": 9127,
      "बद्ध": 9128,
      "बार्": 9129,
      "बल्": 9130,
      "बजा": 9131,
      "बदा": 9132,
      "ब्रे": 9133,
      "बऱ्या": 9134,
      "बदार": 9135,
      "बस्ति": 9136,
      "बूत": 9137,
      "बंट": 9138,
      "बँटा": 9139,
      "बघतात.": 9140,
      "बढती": 9141,
      "भात": 9142,
      "भवा": 9143,
      "भद्र": 9144,
      "भंड": 9145,
      "भरी": 9146,
      "भारा": 9147,
      "भजन": 9148,
      "भव्य": 9149,
      "भाती": 9150,
      "भवानंतर": 9151,
      "भदेवाच्या": 9152,
      "म,": 9153,
      "मई": 9154,
      "मठ": 9155,
      "म्र": 9156,
      "मात": 9157,
      "मकर": 9158,
      "मन्": 9159,
      "मद्": 9160,
      "मंग": 9161,
      "मलि": 9162,
      "मल्": 9163,
      "मल्या": 9164,
      "मरी": 9165,
      "मसि": 9166,
      "म्यां": 9167,
      "महिन्": 9168,
      "मशी": 9169,
      "मज़": 9170,
      "मलों": 9171,
      "मन्तु": 9172,
      "मजल": 9173,
      "मलया": 9174,
      "मंदी": 9175,
      "मतासाठी": 9176,
      "मंजू": 9177,
      "मइर": 9178,
      "मदद": 9179,
      "यम": 9180,
      "यव": 9181,
      "य।": 9182,
      "यर्": 9183,
      "यिक": 9184,
      "यीय": 9185,
      "यत्र": 9186,
      "यत्": 9187,
      "यून": 9188,
      "यदि": 9189,
      "यंड": 9190,
      "यम्": 9191,
      "यसी": 9192,
      "यचर": 9193,
      "यत्त": 9194,
      "यटस": 9195,
      "यद्याने": 9196,
      "रद": 9197,
      "रव": 9198,
      "रस": 9199,
      "रार": 9200,
      "रवि": 9201,
      "रों": 9202,
      "रिय": 9203,
      "रिक्": 9204,
      "रहीं": 9205,
      "रबदल": 9206,
      "रवरी": 9207,
      "रफे": 9208,
      "रणे,": 9209,
      "रचने": 9210,
      "ऱ्य": 9211,
      "ल,": 9212,
      "लब": 9213,
      "लव": 9214,
      "लवि": 9215,
      "लद्": 9216,
      "लते": 9217,
      "लचि": 9218,
      "लये": 9219,
      "लाने": 9220,
      "लिक्": 9221,
      "लयां": 9222,
      "लवाद": 9223,
      "लक्षण": 9224,
      "लघु": 9225,
      "लॉक": 9226,
      "लड़े": 9227,
      "लम्बे": 9228,
      "लकाता": 9229,
      "ळम": 9230,
      "ळ्या": 9231,
      "ळातील": 9232,
      "ळ्यां": 9233,
      "ळाने": 9234,
      "वह": 9235,
      "वॉ": 9236,
      "वें": 9237,
      "वस्": 9238,
      "वों": 9239,
      "वला": 9240,
      "वमी": 9241,
      "वारा": 9242,
      "वते.": 9243,
      "वसाह": 9244,
      "वस्त्र": 9245,
      "वला.": 9246,
      "वारिक": 9247,
      "वयास": 9248,
      "वाना": 9249,
      "वजयंती": 9250,
      "वण्याची": 9251,
      "ववृतीय": 9252,
      "शल": 9253,
      "शत्र": 9254,
      "शही": 9255,
      "शस्त": 9256,
      "शकु": 9257,
      "शमिल": 9258,
      "श्यांच्या": 9259,
      "शल्य": 9260,
      "शर्ट": 9261,
      "शकारी": 9262,
      "शरद": 9263,
      "षेतही": 9264,
      "षभदेवाच्या": 9265,
      "स\"": 9266,
      "सृ": 9267,
      "स्य": 9268,
      "सके": 9269,
      "समु": 9270,
      "सहि": 9271,
      "सार्": 9272,
      "सचि": 9273,
      "सप्": 9274,
      "सजा": 9275,
      "सतात.": 9276,
      "सज्": 9277,
      "सवीं": 9278,
      "सत्तर": 9279,
      "सत्री": 9280,
      "सळून": 9281,
      "सशक्त": 9282,
      "सपाट": 9283,
      "सन्नति": 9284,
      "हद": 9285,
      "हर्": 9286,
      "हात": 9287,
      "हद्": 9288,
      "हते": 9289,
      "हमान": 9290,
      "हड़": 9291,
      "हळे": 9292,
      "हटी": 9293,
      "हडा": 9294,
      "हटा": 9295,
      "हाती": 9296,
      "हर्ष": 9297,
      "हल्ले": 9298,
      "हपुत्रा": 9299,
      "हडप्पा": 9300,
      "हलवि": 9301,
      "ामा": 9302,
      "ाची": 9303,
      "ास्त्र": 9304,
      "ामधील": 9305,
      "ाचार": 9306,
      "ाप्रमाणे": 9307,
      "ादित": 9308,
      "ित्र": 9309,
      "िल्": 9310,
      "िस्तान": 9311,
      "िन्स": 9312,
      "िपत्य": 9313,
      "िचेरी": 9314,
      "िंबा": 9315,
      "िपतच्या": 9316,
      "िवारिक": 9317,
      "ीव": 9318,
      "ीस": 9319,
      "ी।": 9320,
      "ींग": 9321,
      "ींची": 9322,
      "ीनुसार": 9323,
      "ुण": 9324,
      "ुता": 9325,
      "ुति": 9326,
      "ुकार": 9327,
      "ुरि": 9328,
      "ुडे": 9329,
      "ुष्क": 9330,
      "ूक": 9331,
      "ूर": 9332,
      "ूळ": 9333,
      "ूक्": 9334,
      "ूले": 9335,
      "ूहा": 9336,
      "ूची": 9337,
      "ून्": 9338,
      "ूपा": 9339,
      "ूचे": 9340,
      "ृती": 9341,
      "ॅक": 9342,
      "ॅकॅ": 9343,
      "ॅनाइट": 9344,
      "ेप": 9345,
      "ेश": 9346,
      "े।": 9347,
      "ेस्ट": 9348,
      "ेशन": 9349,
      "ेश्च": 9350,
      "ैव": 9351,
      "ोँ": 9352,
      "ोने": 9353,
      "ोवा": 9354,
      "ोती": 9355,
      "ोची": 9356,
      "ोचे": 9357,
      "ोलि": 9358,
      "ोलो": 9359,
      "ोरि": 9360,
      "ोबर": 9361,
      "ोलों": 9362,
      "ोत्री": 9363,
      "ोडिया": 9364,
      "ोषिक": 9365,
      "ोपाठ": 9366,
      "ोखी": 9367,
      "ौज": 9368,
      "ौहार": 9369,
      "ौघात": 9370,
      "ौलत": 9371,
      "्‍": 9372,
      "्ने": 9373,
      "्त्र": 9374,
      "्टी": 9375,
      "्थक": 9376,
      "ॠग्वेद": 9377,
      "ॠषभदेवाच्या": 9378,
      "।।": 9379,
      "०४": 9380,
      "०६": 9381,
      "०८": 9382,
      "१–": 9383,
      "१००": 9384,
      "१२००": 9385,
      "१५०": 9386,
      "१४.": 9387,
      "२२": 9388,
      "२५": 9389,
      "२२.": 9390,
      "२५,": 9391,
      "२५७": 9392,
      "२२.६": 9393,
      "२,०": 9394,
      "३%": 9395,
      "३१": 9396,
      "३९": 9397,
      "३४०": 9398,
      "३५००": 9399,
      "४५०": 9400,
      "४४.": 9401,
      "४२३": 9402,
      "५८": 9403,
      "५१,": 9404,
      "५४३": 9405,
      "५.४६": 9406,
      "५वें": 9407,
      "५१–": 9408,
      "६%": 9409,
      "६६": 9410,
      "६००": 9411,
      "६४७": 9412,
      "६.२": 9413,
      "६.६": 9414,
      "६०६": 9415,
      "६५.४६": 9416,
      "७%": 9417,
      "७०": 9418,
      "७१": 9419,
      "७२": 9420,
      "७८": 9421,
      "७वा": 9422,
      "७४.": 9423,
      "७.६": 9424,
      "७,५": 9425,
      "८%": 9426,
      "८२.": 9427,
      "८४.": 9428,
      "९४": 9429,
      "९१८": 9430,
      "९०००": 9431,
      "९०,": 9432,
      "९४०": 9433,
      "९३३": 9434,
      "९६.६": 9435,
      "ॲंग": 9436,
      "ॲण्ड": 9437,
      "ॲक्शन": 9438,
      "Ἰνδ": 9439,
      "‌(": 9440,
      "‍या": 9441,
      "‍बर": 9442,
      "‍स्थापन": 9443,
      "‍पकाल": 9444,
      "–0": 9445,
      "–20": 9446,
      "–१५": 9447,
      "–१३": 9448,
      "–2012": 9449,
      "–1990": 9450,
      "—जैसे": 9451,
      "—हटा": 9452,
      "‘दल": 9453,
      "‘संविधान": 9454,
      "‘आधुनिक": 9455,
      "’,": 9456,
      "“नेट": 9457,
      "“Roy": 9458,
      "्यंतर": 9459,
      "्यपूर्ण": 9460,
      "्यवादी": 9461,
      "्यछा": 9462,
      "्योरि": 9463,
      "ारपट": 9464,
      "ारणी": 9465,
      "्रों": 9466,
      "्रुव": 9467,
      "के,": 9468,
      "केल्या": 9469,
      "केरल": 9470,
      "केबल": 9471,
      "केल्या.": 9472,
      "केबिनेट": 9473,
      "्याय": 9474,
      "्यात्": 9475,
      "्याची": 9476,
      "्याचा": 9477,
      "्यातक": 9478,
      "्यास्व": 9479,
      "्यासाठी": 9480,
      "्यावर्त": 9481,
      "्यापैकी": 9482,
      "्यासक्र": 9483,
      "भारत.": 9484,
      "भारतं": 9485,
      "भारतील": 9486,
      "भारतभूमी": 9487,
      "भारतरत्न": 9488,
      "र्ती": 9489,
      "र्जी": 9490,
      "र्टि": 9491,
      "र्तु": 9492,
      "र्गा": 9493,
      "र्फ़": 9494,
      "र्फे": 9495,
      "र्पण": 9496,
      "र्बांधणी": 9497,
      "र्न‍": 9498,
      "ातच": 9499,
      "ात्य": 9500,
      "ातला": 9501,
      "ातांमध्ये": 9502,
      "ात्यांचे": 9503,
      "ेंसी": 9504,
      "ेंदिवस": 9505,
      "those": 9506,
      "का,": 9507,
      "काया": 9508,
      "काली": 9509,
      "कामा": 9510,
      "कापा": 9511,
      "काश्": 9512,
      "कालो": 9513,
      "काव्य": 9514,
      "काठी": 9515,
      "काटे": 9516,
      "कांचा": 9517,
      "कांग्रेस": 9518,
      "काफ़": 9519,
      "कायदा": 9520,
      "कासीम": 9521,
      "काठची": 9522,
      "काढण्यात": 9523,
      "कायद्याने": 9524,
      "स्वर्ण": 9525,
      "स्क्री": 9526,
      "स्लम": 9527,
      "स्मरण": 9528,
      "स्पष्ट": 9529,
      "स्फो": 9530,
      "में)": 9531,
      "में‌": 9532,
      "anag": 9533,
      "anism": 9534,
      "ancient": 9535,
      "प्रथा": 9536,
      "प्रत्या": 9537,
      "प्रजा": 9538,
      "प्रदा": 9539,
      "प्रस्थाप": 9540,
      "प्रयोग": 9541,
      "प्रदू": 9542,
      "प्रबंधन": 9543,
      "प्रवाह": 9544,
      "प्रवास": 9545,
      "प्रंच": 9546,
      "प्रस्तरा": 9547,
      "प्रदर्श": 9548,
      "प्रबळ": 9549,
      "प्रवर्तन": 9550,
      "प्रकट": 9551,
      "प्रणय": 9552,
      "प्रपाती": 9553,
      "प्रयत्न": 9554,
      "प्रत्यक्ष": 9555,
      "प्रकल्": 9556,
      "प्रशस्त": 9557,
      "प्रिन्स": 9558,
      "प्रोवा": 9559,
      "प्रातांमध्ये": 9560,
      "याच्या": 9561,
      "याचे": 9562,
      "यादी": 9563,
      "यामध्ये": 9564,
      "यावरून": 9565,
      "याधिकार": 9566,
      "यापाठ": 9567,
      "यायि": 9568,
      "init": 9569,
      "institution": 9570,
      "indh": 9571,
      "instru": 9572,
      "है:": 9573,
      "है;": 9574,
      "हैसू": 9575,
      "ानो": 9576,
      "िकार": 9577,
      "िकता": 9578,
      "िक-स्थल": 9579,
      "िकीनुसार": 9580,
      "they": 9581,
      "these": 9582,
      "राव": 9583,
      "राच्या": 9584,
      "राहो": 9585,
      "रांग": 9586,
      "राहि": 9587,
      "रामन": 9588,
      "रांना": 9589,
      "रांवरील": 9590,
      "राखले": 9591,
      "रायसी": 9592,
      "erc": 9593,
      "ering": 9594,
      "erous": 9595,
      "नेने": 9596,
      "नेहे": 9597,
      "नेपा": 9598,
      "नेचा": 9599,
      "नेमधील": 9600,
      "नेशन": 9601,
      "नेवल": 9602,
      "नेकले": 9603,
      "नेऊन": 9604,
      "साई": 9605,
      "सांग": 9606,
      "सामान": 9607,
      "साम्": 9608,
      "साव्या": 9609,
      "साइन": 9610,
      "सामुद्र": 9611,
      "सांह": 9612,
      "साडे": 9613,
      "सापडले": 9614,
      "साधन": 9615,
      "साजरे": 9616,
      "विन": 9617,
      "विना": 9618,
      "विदे": 9619,
      "विद्": 9620,
      "विष्ट": 9621,
      "विड़": 9622,
      "विलय": 9623,
[...]
