{
  "version": "1.0",
  "truncation": null,
  "padding": null,
  "added_tokens": [
    {
      "id": 0,
      "content": "[UNK]",
      "single_word": false,
      "lstrip": false,
      "rstrip": false,
      "normalized": false,
      "special": true
    },
    {
      "id": 1,
      "content": "[PAD]",
      "single_word": false,
      "lstrip": false,
      "rstrip": false,
      "normalized": false,
      "special": true
    },
    {
      "id": 2,
      "content": "[CLS]",
      "single_word": false,
      "lstrip": false,
      "rstrip": false,
      "normalized": false,
      "special": true
    },
    {
      "id": 3,
      "content": "[SEP]",
      "single_word": false,
      "lstrip": false,
      "rstrip": false,
      "normalized": false,
      "special": true
    },
    {
      "id": 4,
      "content": "[MASK]",
      "single_word": false,
      "lstrip": false,
      "rstrip": false,
      "normalized": false,
      "special": true
    }
  ],
  "normalizer": {
    "type": "NFKC"
  },
  "pre_tokenizer": {
    "type": "Metaspace",
    "replacement": "▁",
    "prepend_scheme": "always",
    "split": true
  },
  "post_processor": null,
  "decoder": {
    "type": "Metaspace",
    "replacement": "▁",
    "prepend_scheme": "always",
    "split": true
  },
  "model": {
    "type": "BPE",
    "dropout": null,
    "unk_token": "[UNK]",
    "continuing_subword_prefix": null,
    "end_of_word_suffix": null,
    "fuse_unk": false,
    "byte_fallback": false,
    "ignore_merges": false,
    "vocab": {
      "[UNK]": 0,
      "[PAD]": 1,
      "[CLS]": 2,
      "[SEP]": 3,
      "[MASK]": 4,
      "\n": 5,
      "\r": 6,
      "!": 7,
      "\"": 8,
      "#": 9,
      "$": 10,
      "%": 11,
      "&": 12,
      "'": 13,
      "(": 14,
      ")": 15,
      "*": 16,
      "+": 17,
      ",": 18,
      "-": 19,
      ".": 20,
      "/": 21,
      "0": 22,
      "1": 23,
      "2": 24,
      "3": 25,
      "4": 26,
      "5": 27,
      "6": 28,
      "7": 29,
      "8": 30,
      "9": 31,
      ":": 32,
      ";": 33,
      "<": 34,
      "=": 35,
      ">": 36,
      "?": 37,
      "A": 38,
      "B": 39,
      "C": 40,
      "D": 41,
      "E": 42,
      "F": 43,
      "G": 44,
      "H": 45,
      "I": 46,
      "J": 47,
      "K": 48,
      "L": 49,
      "M": 50,
      "N": 51,
      "O": 52,
      "P": 53,
      "Q": 54,
      "R": 55,
      "S": 56,
      "T": 57,
      "U": 58,
      "V": 59,
      "W": 60,
      "X": 61,
      "Y": 62,
      "Z": 63,
      "[": 64,
      "\\": 65,
      "]": 66,
      "^": 67,
      "_": 68,
      "`": 69,
      "a": 70,
      "b": 71,
      "c": 72,
      "d": 73,
      "e": 74,
      "f": 75,
      "g": 76,
      "h": 77,
      "i": 78,
      "j": 79,
      "k": 80,
      "l": 81,
      "m": 82,
      "n": 83,
      "o": 84,
      "p": 85,
      "q": 86,
      "r": 87,
      "s": 88,
      "t": 89,
      "u": 90,
      "v": 91,
      "w": 92,
      "x": 93,
      "y": 94,
      "z": 95,
      "{": 96,
      "|": 97,
      "}": 98,
      "~": 99,
      "°": 100,
      "·": 101,
      "Ö": 102,
      "á": 103,
      "â": 104,
      "æ": 105,
      "ç": 106,
      "è": 107,
      "é": 108,
      "í": 109,
      "ñ": 110,
      "ö": 111,
      "ü": 112,
      "ā": 113,
      "ī": 114,
      "İ": 115,
      "Ś": 116,
      "ś": 117,
      "ū": 118,
      "ș": 119,
      "ə": 120,
      "ɦ": 121,
      "ɪ": 122,
      "ɾ": 123,
      "ʊ": 124,
      "ʼ": 125,
      "ˈ": 126,
      "ː": 127,
      "ί": 128,
      "α": 129,
      "δ": 130,
      "θ": 131,
      "ν": 132,
      "π": 133,
      "ς": 134,
      "ό": 135,
      "ँ": 136,
      "ं": 137,
      "ः": 138,
      "अ": 139,
      "आ": 140,
      "इ": 141,
      "ई": 142,
      "उ": 143,
      "ऊ": 144,
      "ऋ": 145,
      "ऍ": 146,
      "ए": 147,
      "ऐ": 148,
      "ऑ": 149,
      "ओ": 150,
      "औ": 151,
      "क": 152,
      "ख": 153,
      "ग": 154,
      "घ": 155,
      "ङ": 156,
      "च": 157,
      "छ": 158,
      "ज": 159,
      "झ": 160,
      "ञ": 161,
      "ट": 162,
      "ठ": 163,
      "ड": 164,
      "ढ": 165,
      "ण": 166,
      "त": 167,
      "थ": 168,
      "द": 169,
      "ध": 170,
      "न": 171,
      "प": 172,
      "फ": 173,
      "ब": 174,
      "भ": 175,
      "म": 176,
      "य": 177,
      "र": 178,
      "ऱ": 179,
      "ल": 180,
      "ळ": 181,
      "व": 182,
      "श": 183,
      "ष": 184,
      "स": 185,
      "ह": 186,
      "़": 187,
      "ा": 188,
      "ि": 189,
      "ी": 190,
      "ु": 191,
      "ू": 192,
      "ृ": 193,
      "ॅ": 194,
      "े": 195,
      "ै": 196,
      "ॉ": 197,
      "ॊ": 198,
      "ो": 199,
      "ौ": 200,
      "्": 201,
      "ॠ": 202,
      "।": 203,
      "०": 204,
      "१": 205,
      "२": 206,
      "३": 207,
      "४": 208,
      "५": 209,
      "६": 210,
      "७": 211,
      "८": 212,
      "९": 213,
      "॰": 214,
      "ॲ": 215,
      "ం": 216,
      "ః": 217,
      "అ": 218,
      "ఆ": 219,
      "ఇ": 220,
      "ఈ": 221,
      "ఉ": 222,
      "ఋ": 223,
      "ఎ": 224,
      "ఏ": 225,
      "ఐ": 226,
      "ఒ": 227,
      "ఓ": 228,
      "ఔ": 229,
      "క": 230,
      "ఖ": 231,
      "గ": 232,
      "ఘ": 233,
      "చ": 234,
      "ఛ": 235,
      "జ": 236,
      "ఞ": 237,
      "ట": 238,
      "ఠ": 239,
      "డ": 240,
      "ఢ": 241,
      "ణ": 242,
      "త": 243,
      "థ": 244,
      "ద": 245,
      "ధ": 246,
      "న": 247,
      "ప": 248,
      "ఫ": 249,
      "బ": 250,
      "భ": 251,
      "మ": 252,
      "య": 253,
      "ర": 254,
      "ల": 255,
      "ళ": 256,
      "వ": 257,
      "శ": 258,
      "ష": 259,
      "స": 260,
      "హ": 261,
      "ా": 262,
      "ి": 263,
      "ీ": 264,
      "ు": 265,
      "ూ": 266,
      "ృ": 267,
      "ె": 268,
      "ే": 269,
      "ై": 270,
      "ొ": 271,
      "ో": 272,
      "ౌ": 273,
      "్": 274,
      "ṅ": 275,
      "ṇ": 276,
      "Ṛ": 277,
      "ṣ": 278,
      "ṭ": 279,
      "Ἰ": 280,
      "‌": 281,
      "‍": 282,
      "‎": 283,
      "–": 284,
      "—": 285,
      "‘": 286,
      "’": 287,
      "“": 288,
      "”": 289,
      "†": 290,
      "•": 291,
      "′": 292,
      "‹": 293,
      "›": 294,
      "⁡": 295,
      "₹": 296,
      "↑": 297,
      "−": 298,
      "▁": 299,
      "▲": 300,
      "](": 301,
      "./": 302,
      "](./": 303,
      "▁[": 304,
      "nd": 305,
      "▁\"": 306,
      "\")": 307,
      "ia": 308,
      "te": 309,
      "in": 310,
      "on": 311,
      "ndia": 312,
      "ti": 313,
      "re": 314,
      "India": 315,
      "er": 316,
      "th": 317,
      "20": 318,
      "ार": 319,
      "ar": 320,
      "▁|": 321,
      "an": 322,
      "or": 323,
      "\r\n": 324,
      "al": 325,
      "en": 326,
      "▁क": 327,
      "्र": 328,
      "es": 329,
      "of": 330,
      "is": 331,
      "▁-": 332,
      "भार": 333,
      "भारत": 334,
      "ci": 335,
      "▁a": 336,
      "▁स": 337,
      "the": 338,
      "tion": 339,
      "te_": 340,
      "्य": 341,
      "ed": 342,
      "#ci": 343,
      "#cite_": 344,
      "it": 345,
      "▁(": 346,
      "▁of": 347,
      "om": 348,
      "▁the": 349,
      "ou": 350,
      "](./India": 351,
      "▁म": 352,
      "ic": 353,
      "201": 354,
      "ht": 355,
      "▁प": 356,
      "as": 357,
      "रा": 358,
      "▁India": 359,
      "OT": 360,
      "19": 361,
      "oo": 362,
      "tp": 363,
      "id": 364,
      ":/": 365,
      "http": 366,
      "no": 367,
      "://": 368,
      "్ర": 369,
      "ch": 370,
      "▁p": 371,
      "ान": 372,
      "le": 373,
      "](./India#cite_": 374,
      "**": 375,
      "-0": 376,
      "र्": 377,
      "▁in": 378,
      "200": 379,
      "▁s": 380,
      "tr": 381,
      "la": 382,
      "▁and": 383,
      "-1": 384,
      "](./भारत": 385,
      "ార": 386,
      "▁ह": 387,
      "iv": 388,
      "ing": 389,
      "्त": 390,
      "https": 391,
      "▁के": 392,
      "ref": 393,
      "https://": 394,
      "ent": 395,
      "▁A": 396,
      "note": 397,
      "ें": 398,
      "[[": 399,
      "ra": 400,
      ").": 401,
      "या": 402,
      "ook": 403,
      "us": 404,
      "ge": 405,
      "▁1": 406,
      "▁S": 407,
      "ref-": 408,
      "note-": 409,
      "ec": 410,
      "▁c": 411,
      "िक": 412,
      "](https://": 413,
      "am": 414,
      "▁f": 415,
      "▁C": 416,
      "ation": 417,
      "78": 418,
      "▁अ": 419,
      "ीय": 420,
      "▁\r\n": 421,
      "▁b": 422,
      "we": 423,
      "▁व": 424,
      "at": 425,
      "ist": 426,
      "ాల": 427,
      "li": 428,
      "\"),": 429,
      "IS": 430,
      "▁P": 431,
      "ur": 432,
      "ाल": 433,
      "et": 434,
      ".\r\n": 435,
      "FO": 436,
      "NOT": 437,
      "OTNOT": 438,
      "FOOTNOT": 439,
      "FOOTNOTE": 440,
      "to": 441,
      "▁में": 442,
      "▁m": 443,
      "978": 444,
      "▁[↑": 445,
      "్య": 446,
      "BN": 447,
      "ना": 448,
      "ISBN": 449,
      "he": 450,
      "ac": 451,
      "ww": 452,
      "il": 453,
      "▁w": 454,
      "ov": 455,
      "ial": 456,
      "ter": 457,
      "ang": 458,
      "▁ज": 459,
      "ेश": 460,
      "▁द": 461,
      "భార": 462,
      "భారత": 463,
      "▁2": 464,
      "्ष": 465,
      "▁भारत": 466,
      "▁201": 467,
      "దే": 468,
      "ों": 469,
      "](./भारत#cite_": 470,
      "fi": 471,
      "res": 472,
      "]](./India#cite_": 473,
      "దేశ": 474,
      "▁ప": 475,
      "▁प्र": 476,
      "](./India#cite_ref-": 477,
      "]](./India#cite_note-": 478,
      "राज": 479,
      "ol": 480,
      "enti": 481,
      "Sou": 482,
      "_of": 483,
      "red": 484,
      "▁आ": 485,
      "िया": 486,
      "▁M": 487,
      "▁T": 488,
      "_of_": 489,
      "ंग": 490,
      "స్": 491,
      "▁**": 492,
      "op": 493,
      "_क": 494,
      "ce": 495,
      "▁d": 496,
      "and": 497,
      "er)": 498,
      "ion": 499,
      "సా": 500,
      "ig": 501,
      "्या": 502,
      "identi": 503,
      ".c": 504,
      "▁R": 505,
      "10": 506,
      "fier)": 507,
      "identifier)": 508,
      "-0)": 509,
      "lin": 510,
      "ला": 511,
      "्व": 512,
      "web": 513,
      "▁ब": 514,
      "भा": 515,
      "▁|\r\n": 516,
      "ad": 517,
      "ul": 518,
      "org": 519,
      "▁त": 520,
      "न्": 521,
      "ment": 522,
      "▁है": 523,
      "▁न": 524,
      "book": 525,
      "న్": 526,
      "ate": 527,
      "ers": 528,
      "tic": 529,
      "त्र": 530,
      "),": 531,
      ".org": 532,
      "es/": 533,
      "ర్": 534,
      "00": 535,
      "्ट": 536,
      "um": 537,
      "▁to": 538,
      ".org/": 539,
      "link": 540,
      "-2": 541,
      "▁B": 542,
      "books": 543,
      "em": 544,
      "ता": 545,
      "ind": 546,
      "और": 547,
      "Sp": 548,
      "ir": 549,
      "=1": 550,
      "IT": 551,
      ".g": 552,
      "▁की": 553,
      ".com": 554,
      "202": 555,
      "chiv": 556,
      "_(": 557,
      "▁का": 558,
      "ER": 559,
      "ua": 560,
      "action": 561,
      "EF": 562,
      "▁India\")": 563,
      "▁से": 564,
      "ITER": 565,
      "▁D": 566,
      "edit": 567,
      "action=": 568,
      "el": 569,
      "ITEREF": 570,
      "action=edit": 571,
      "_स": 572,
      "ास": 573,
      ".com/": 574,
      "ity": 575,
      "ित": 576,
      "&red": 577,
      "?action=edit": 578,
      "link=1": 579,
      "&redlink=1": 580,
      "?action=edit&redlink=1": 581,
      "▁[↑](./India#cite_ref-": 582,
      "▁19": 583,
      "లు": 584,
      "▁•": 585,
      "os": 586,
      "▁*": 587,
      "ecial": 588,
      "ev": 589,
      "▁h": 590,
      "▁और": 591,
      "angua": 592,
      "12": 593,
      "రా": 594,
      "sia": 595,
      ".[[": 596,
      "india": 597,
      "·**": 598,
      "▁**·**": 599,
      "Special": 600,
      "▁E": 601,
      "▁I": 602,
      "tu": 603,
      "sh": 604,
      "Special:": 605,
      "rc": 606,
      "वि": 607,
      "क्ष": 608,
      "▁l": 609,
      "un": 610,
      "im": 611,
      "Un": 612,
      "ची": 613,
      "#C": 614,
      "राज्य": 615,
      "▁\"भारत": 616,
      ".శ": 617,
      ".శ.": 618,
      "ak": 619,
      "#CITEREF": 620,
      "భారతదేశ": 621,
      "षा": 622,
      "स्त": 623,
      "rces/": 624,
      "Book": 625,
      "సా.శ.": 626,
      "లో": 627,
      "978-0": 628,
      "दी": 629,
      "Sources/": 630,
      "Special:Book": 631,
      "Special:BookSources/": 632,
      "स्": 633,
      "tri": 634,
      "ly": 635,
      "og": 636,
      "▁క": 637,
      "ory": 638,
      "पु": 639,
      "-3": 640,
      "-4": 641,
      "▁200": 642,
      "ay": 643,
      "cal": 644,
      "50": 645,
      "देश": 646,
      "▁H": 647,
      "▁e": 648,
      "ति": 649,
      "www": 650,
      "od": 651,
      "_India": 652,
      "▁G": 653,
      "-8": 654,
      "मा": 655,
      "ow": 656,
      "ాలు": 657,
      "ष्ट": 658,
      "రి": 659,
      "ress": 660,
      "▁N": 661,
      "క్": 662,
      "11": 663,
      "भाषा": 664,
      "▁3": 665,
      "री": 666,
      "ld": 667,
      "ంద": 668,
      "ले": 669,
      "\").": 670,
      "calf": 671,
      "ep": 672,
      "etcalf": 673,
      "▁వ": 674,
      "rom": 675,
      "ని": 676,
      "199": 677,
      "]](./भारत#cite_": 678,
      "ber": 679,
      "▁ग": 680,
      ")\r\n": 681,
      "](./India#CITEREF": 682,
      "▁श": 683,
      "ती": 684,
      "chive": 685,
      "▁re": 686,
      "था": 687,
      "▁उ": 688,
      "्रे": 689,
      "archive": 690,
      "ern": 691,
      "ary": 692,
      "ts": 693,
      "త్ర": 694,
      "anguage": 695,
      ".in": 696,
      "वा": 697,
      "▁on": 698,
      "ub": 699,
      "▁g": 700,
      "ष्ट्र": 701,
      "ational": 702,
      "ల్": 703,
      "ivers": 704,
      "--": 705,
      "_in": 706,
      "ew": 707,
      "ted": 708,
      "rit": 709,
      "http://": 710,
      "▁---": 711,
      "▁(identifier)": 712,
      "_(identifier)": 713,
      "▁(identifier)\")": 714,
      "www.": 715,
      "ap": 716,
      "ri": 717,
      "archive.org/": 718,
      "con": 719,
      "▁को": 720,
      "ने": 721,
      "▁F": 722,
      "]](./India#cite_note-FOOTNOTE": 723,
      "▁सं": 724,
      "n_": 725,
      "▁[\"": 726,
      "▁[म": 727,
      "प्र": 728,
      "▁p.": 729,
      "భారతదేశం": 730,
      "mp": 731,
      "सा": 732,
      "▁or": 733,
      "978-0-": 734,
      "का": 735,
      "ంగ": 736,
      "▁n": 737,
      "ली": 738,
      "▁స": 739,
      "13": 740,
      "18": 741,
      "▁J": 742,
      "▁इ": 743,
      "oun": 744,
      "ab": 745,
      "ons": 746,
      "Metcalf": 747,
      "▁वि": 748,
      "26": 749,
      "40": 750,
      "web.": 751,
      "for": 752,
      "▁ए": 753,
      "▁మ": 754,
      "▁th": 755,
      "](https://web.": 756,
      "▁पर": 757,
      "web/": 758,
      "archive.org/web/": 759,
      "](https://web.archive.org/web/": 760,
      "oc": 761,
      "](./भारत#cite_ref-": 762,
      "]](./भारत#cite_note-": 763,
      "▁from": 764,
      "orld": 765,
      "List": 766,
      "st": 767,
      "id=": 768,
      "gle": 769,
      "▁ప్ర": 770,
      "ish": 771,
      "av": 772,
      "ain": 773,
      "▁by": 774,
      "ast": 775,
      "AA": 776,
      "सं": 777,
      "▁[A": 778,
      "iversity": 779,
      "िन्": 780,
      "_म": 781,
      "पा": 782,
      "▁202": 783,
      "ీయ": 784,
      "\")\r\n": 785,
      "_के": 786,
      "15": 787,
      "ड़": 788,
      "oogle": 789,
      "▁\"C": 790,
      "_of_India": 791,
      "16": 792,
      "](./C": 793,
      "त्त": 794,
      "_A": 795,
      "978-1": 796,
      "ंड": 797,
      "ండ": 798,
      "##": 799,
      "The": 800,
      "?id=": 801,
      "▁है।": 802,
      "books.g": 803,
      ".com/books": 804,
      "oogle.com/books": 805,
      "books.google.com/books": 806,
      "▁[S": 807,
      "17": 808,
      "▁[ISBN": 809,
      "books.google.com/books?id=": 810,
      "▁The": 811,
      "14": 812,
      "uc": 813,
      "▁L": 814,
      "▁Re": 815,
      "िल": 816,
      "▁is": 817,
      "](./ISBN": 818,
      "▁\"ISBN": 819,
      "▁[ISBN](./ISBN": 820,
      "▁[ISBN](./ISBN_(identifier)": 821,
      "ud": 822,
      "▁for": 823,
      "▁र": 824,
      "▁([": 825,
      "म्": 826,
      "▁O": 827,
      "జ్య": 828,
      "▁Indian": 829,
      "द्र": 830,
      "▁చ": 831,
      "*.": 832,
      "and_": 833,
      "▁सा": 834,
      "राष्ट्र": 835,
      "23": 836,
      "err": 837,
      "▁Asia": 838,
      "-9": 839,
      "ens": 840,
      "hi": 841,
      "▁[C": 842,
      "र्व": 843,
      "](https://books.google.com/books?id=": 844,
      "▁[*": 845,
      "ges": 846,
      "_and_": 847,
      "తా": 848,
      "_in_India": 849,
      "28": 850,
      "try": 851,
      "నా": 852,
      "िय": 853,
      "ము": 854,
      ".gov": 855,
      "_के_": 856,
      "har": 857,
      "South": 858,
      "University": 859,
      "తి": 860,
      "్ట": 861,
      "हा": 862,
      "ेत्र": 863,
      "▁\"म": 864,
      "ith": 865,
      "▁W": 866,
      "ear": 867,
      "p.": 868,
      "](./म": 869,
      "late": 870,
      "जा": 871,
      "▁य": 872,
      "िम": 873,
      "inal": 874,
      "ik": 875,
      "▁ल": 876,
      "▁pp.": 877,
      "s/": 878,
      "త్": 879,
      ".in/": 880,
      "30": 881,
      "▁\"M": 882,
      "error": 883,
      "'s": 884,
      "up": 885,
      "సి": 886,
      "art": 887,
      "istory": 888,
      "24": 889,
      "ore": 890,
      "णी": 891,
      "▁[↑](./India#cite_ref-FOOTNOTE": 892,
      "ag": 893,
      "1.": 894,
      "▁4": 895,
      "lation": 896,
      "ff": 897,
      "gion": 898,
      "Har": 899,
      "-7": 900,
      "br": 901,
      "ज़": 902,
      "▁[M": 903,
      "▁राज्य": 904,
      "ism": 905,
      ")[[": 906,
      "र्म": 907,
      "PA": 908,
      "▁\"S": 909,
      "▁भाषा": 910,
      "](./M": 911,
      "pg": 912,
      "ot": 913,
      "▁(సా.శ.": 914,
      "▁In": 915,
      "](./Special:BookSources/": 916,
      "कार": 917,
      "](./S": 918,
      "tein": 919,
      "umm": 920,
      "25": 921,
      "70": 922,
      "ys": 923,
      "िस": 924,
      "▁भ": 925,
      "al_": 926,
      "s\")": 927,
      "land": 928,
      "ma": 929,
      "ులు": 930,
      "▁రా": 931,
      "▁r": 932,
      "ort": 933,
      "▁\"Special:BookSources/": 934,
      "oth": 935,
      "యా": 936,
      "–సా.శ.": 937,
      "్రా": 938,
      "90": 939,
      "▁t": 940,
      "चा": 941,
      "▁K": 942,
      "▁అ": 943,
      "▁[↑](./भारत#cite_ref-": 944,
      "und": 945,
      "ha": 946,
      "▁as": 947,
      "&pg": 948,
      "्च": 949,
      "&pg=": 950,
      "our": 951,
      "ंध": 952,
      "▁[B": 953,
      "ते": 954,
      "ి.": 955,
      "iginal": 956,
      "गर": 957,
      "ong": 958,
      "-5": 959,
      "▁\"B": 960,
      "cy": 961,
      "ిక": 962,
      "o-": 963,
      "द्": 964,
      "omm": 965,
      "्रा": 966,
      "7.": 967,
      "tate": 968,
      "▁१": 969,
      "ut": 970,
      "52": 971,
      "](https://web.archive.org/web/201": 972,
      "▁original": 973,
      "](./B": 974,
      "&pg=PA": 975,
      "ृत": 976,
      "తం": 977,
      "▁\"P": 978,
      "▁कर": 979,
      "eved": 980,
      "5.": 981,
      "ून": 982,
      "विश": 983,
      "pr": 984,
      "tern": 985,
      "](./P": 986,
      "▁Press": 987,
      "trieved": 988,
      "▁Retrieved": 989,
      "ve": 990,
      "జ్యం": 991,
      "In": 992,
      "_C": 993,
      "ture": 994,
      "Ind": 995,
      "ूची": 996,
      "ిన": 997,
      "overn": 998,
      "ies": 999,
      "हे": 1000,
      "ी_": 1001,
      "జా": 1002,
      "ian": 1003,
      "tim": 1004,
      "ance": 1005,
      "ence": 1006,
      "धान": 1007,
      "से": 1008,
      "2006": 1009,
      "ans": 1010,
      "▁be": 1011,
      "्षेत्र": 1012,
      "-10": 1013,
      "conom": 1014,
      "ंद": 1015,
      "▁&": 1016,
      "▁wh": 1017,
      "nic": 1018,
      "मन": 1019,
      "ेला": 1020,
      "ana": 1021,
      "ensus": 1022,
      "ummit": 1023,
      "0%": 1024,
      "9.": 1025,
      "ire": 1026,
      "ంచ": 1027,
      "](http://": 1028,
      "▁##": 1029,
      "](./భారతదేశం": 1030,
      "▁हैं": 1031,
      "िर": 1032,
      "temp": 1033,
      "_P": 1034,
      "కు": 1035,
      "▁भारतीय": 1036,
      "पर": 1037,
      "▁University": 1038,
      "▁\"A": 1039,
      "ను": 1040,
      "పూ": 1041,
      "▁no": 1042,
      "क्त": 1043,
      "नी": 1044,
      "all": 1045,
      "-6": 1046,
      "2018": 1047,
      "*](https://books.google.com/books?id=": 1048,
      "चे": 1049,
      "33": 1050,
      "▁प्रदेश": 1051,
      "rchiv": 1052,
      "▁[P": 1053,
      "▁\"T": 1054,
      "ोल": 1055,
      "భా": 1056,
      "स्तान": 1057,
      "47": 1058,
      "gh": 1059,
      "titu": 1060,
      "est": 1061,
      "](./क": 1062,
      "▁[अ": 1063,
      "▁\"क": 1064,
      "_S": 1065,
      "ंत्र": 1066,
      "2011": 1067,
      "rchived": 1068,
      "ph": 1069,
      "\"))": 1070,
      "esh": 1071,
      "▁पु": 1072,
      "ulation": 1073,
      "ass": 1074,
      "▁*[": 1075,
      "ीय_": 1076,
      "overnment": 1077,
      "istan": 1078,
      "ద్": 1079,
      "60": 1080,
      "inis": 1081,
      "als": 1082,
      "4.": 1083,
      "6.": 1084,
      "ध्य": 1085,
      "ेष": 1086,
      "▁with": 1087,
      "ింద": 1088,
      "](./T": 1089,
      "Indian": 1090,
      "/https://": 1091,
      "](./अ": 1092,
      "▁\"अ": 1093,
      "▁\"स": 1094,
      "aj": 1095,
      "22": 1096,
      "ct": 1097,
      "▁ఉ": 1098,
      "ाना": 1099,
      "Stein": 1100,
      "मी": 1101,
      "](./स": 1102,
      "▁[स": 1103,
      "▁अन": 1104,
      "oi": 1105,
      "धर्म": 1106,
      "▁च": 1107,
      "opulation": 1108,
      "▁language": 1109,
      "धार": 1110,
      "बा": 1111,
      "हिन्": 1112,
      "िण": 1113,
      "▁[भारत": 1114,
      "ंग्रे": 1115,
      "▁ex": 1116,
      "sher": 1117,
      "38": 1118,
      "▁ने": 1119,
      "outh": 1120,
      "Harv": 1121,
      "▁[क": 1122,
      "ical": 1123,
      "▁देश": 1124,
      "age": 1125,
      "cl": 1126,
      "ank": 1127,
      "▁अभ": 1128,
      "eral": 1129,
      "ప్ర": 1130,
      "ob": 1131,
      "▁pr": 1132,
      "ef": 1133,
      "▁was": 1134,
      "▁आहे": 1135,
      "ubl": 1136,
      "CS": 1137,
      "](./A": 1138,
      "त्": 1139,
      "▁ర": 1140,
      "ust": 1141,
      "्रेणी": 1142,
      "ex": 1143,
      "ard": 1144,
      "8.": 1145,
      "Hind": 1146,
      "ord": 1147,
      "35": 1148,
      "कि": 1149,
      "हार": 1150,
      "▁ఆ": 1151,
      "क्षिण": 1152,
      "द्ध": 1153,
      "ine": 1154,
      "emp": 1155,
      "ite": 1156,
      "श्रेणी": 1157,
      "మా": 1158,
      "▁సా": 1159,
      "▁error": 1160,
      "▁\"E": 1161,
      "▁हो": 1162,
      "భారతీయ": 1163,
      "▁एक": 1164,
      "1)": 1165,
      "s,": 1166,
      "▁an": 1167,
      "\").\r\n": 1168,
      "ाली": 1169,
      "](./E": 1170,
      "ke": 1171,
      "ll": 1172,
      "ati": 1173,
      "ingh": 1174,
      ":Harv": 1175,
      "हर": 1176,
      "ात": 1177,
      "ूल": 1178,
      "వా": 1179,
      "AJ": 1180,
      "▁\"D": 1181,
      "थि": 1182,
      "BAJ": 1183,
      "QBAJ": 1184,
      "రు": 1185,
      "](./D": 1186,
      "artic": 1187,
      "end": 1188,
      "fn": 1189,
      "2010": 1190,
      "pd": 1191,
      "पू": 1192,
      "▁it": 1193,
      "omp": 1194,
      "2.": 1195,
      "ష్ట": 1196,
      "పూ.": 1197,
      "ous": 1198,
      "द्य": 1199,
      "ोग": 1200,
      "▁ख": 1201,
      "▁are": 1202,
      "लेख": 1203,
      "67": 1204,
      "వి": 1205,
      "](./List": 1206,
      "▁\"List": 1207,
      "htm": 1208,
      "ార్": 1209,
      "/http://": 1210,
      "27": 1211,
      "hm": 1212,
      "anguages": 1213,
      "_Asia": 1214,
      "per": 1215,
      "दा": 1216,
      "ford": 1217,
      "](https://www.": 1218,
      "ीप": 1219,
      "▁क्षेत्र": 1220,
      "ome": 1221,
      "స్థ": 1222,
      "రిత్ర": 1223,
      "క్ష": 1224,
      "विशेष": 1225,
      "विशेष:": 1226,
      "54": 1227,
      "ich": 1228,
      "ib": 1229,
      "▁राज": 1230,
      "▁स्": 1231,
      "▁ति": 1232,
      "▁\"G": 1233,
      "978-0-19": 1234,
      "pdf": 1235,
      "यु": 1236,
      "िश": 1237,
      "राष्ट्रीय": 1238,
      "a\")": 1239,
      "▁[2": 1240,
      "E0%": 1241,
      "ountri": 1242,
      "AAQBAJ": 1243,
      "other": 1244,
      "xford": 1245,
      "मान": 1246,
      "ss": 1247,
      "▁V": 1248,
      "▁2011": 1249,
      "▁[D": 1250,
      "న్న": 1251,
      "▁[G": 1252,
      "ोक": 1253,
      "](./G": 1254,
      "्री": 1255,
      "udd": 1256,
      "4%": 1257,
      "िग": 1258,
      "▁\"भारतीय": 1259,
      "ines": 1260,
      "](./List_of_": 1261,
      "MetcalfMetcalf": 1262,
      "▁\"N": 1263,
      "जी": 1264,
      "शिया": 1265,
      "स्क": 1266,
      "ue": 1267,
      "tics": 1268,
      "▁(P": 1269,
      "tem": 1270,
      "53": 1271,
      "िव": 1272,
      "ुस": 1273,
      "श्रेणी:Harv": 1274,
      "iss": 1275,
      "rad": 1276,
      ").\r\n": 1277,
      "▁Ch": 1278,
      "onstitu": 1279,
      "िका": 1280,
      "43": 1281,
      "मु": 1282,
      "](./N": 1283,
      "▁जा": 1284,
      "-1)": 1285,
      "गु": 1286,
      "▁Hind": 1287,
      "जन": 1288,
      "थान": 1289,
      "](./భారతదేశం#cite_": 1290,
      "▁तिथि": 1291,
      ")\")": 1292,
      "oli": 1293,
      "ction": 1294,
      "्रो": 1295,
      "language": 1296,
      "धिक": 1297,
      "గా": 1298,
      "RI": 1299,
      "▁v": 1300,
      "▁[N": 1301,
      "62": 1302,
      "च्या": 1303,
      "बर": 1304,
      "▁7": 1305,
      "▁[1": 1306,
      "E0%A": 1307,
      "वं": 1308,
      "्क": 1309,
      "కి": 1310,
      "2009": 1311,
      "▁तिथि:": 1312,
      "_s": 1313,
      "48": 1314,
      "s.": 1315,
      "](./R": 1316,
      "▁\"R": 1317,
      "ountries": 1318,
      "bot": 1319,
      "rou": 1320,
      "ata": 1321,
      "pdf)": 1322,
      "ip": 1323,
      "रकार": 1324,
      "हास": 1325,
      "మ్రా": 1326,
      "ange": 1327,
      "india.gov": 1328,
      "ష్ట్ర": 1329,
      "▁we": 1330,
      "▁या": 1331,
      "57": 1332,
      "tin": 1333,
      "ंत": 1334,
      "ढ़": 1335,
      "ी_स": 1336,
      "ంట": 1337,
      "ంత": 1338,
      "▁जन": 1339,
      "▁अभिग": 1340,
      "▁अभिगमन": 1341,
      "..": 1342,
      "DF": 1343,
      "_E": 1344,
      "-s": 1345,
      "ty": 1346,
      "र्थ": 1347,
      "ited": 1348,
      "t:": 1349,
      "albot": 1350,
      "icial": 1351,
      "idge": 1352,
      "ties": 1353,
      "्रोत": 1354,
      "ition": 1355,
      "▁[T": 1356,
      "onom": 1357,
      "त्तर": 1358,
      "▁[R": 1359,
      "▁న": 1360,
      "▁तथा": 1361,
      "▁tr": 1362,
      "▁199": 1363,
      "59": 1364,
      "▁मु": 1365,
      "▁South": 1366,
      "46": 1367,
      "Asher": 1368,
      "gen": 1369,
      "new": 1370,
      "పు": 1371,
      "▁con": 1372,
      "▁वर्": 1373,
      "29": 1374,
      "▁which": 1375,
      "▁(PDF": 1376,
      "4)": 1377,
      "▁8": 1378,
      "स्तक": 1379,
      "%20": 1380,
      "▁–": 1381,
      "▁that": 1382,
      "మి": 1383,
      "ాన": 1384,
      "▁ఇ": 1385,
      "▁प्रा": 1386,
      "पुस्तक": 1387,
      "विशेष:पुस्तक": 1388,
      "्रोत/": 1389,
      "au": 1390,
      "रु": 1391,
      "▁[Archived": 1392,
      "3.": 1393,
      "_प्र": 1394,
      "పా": 1395,
      "▁త": 1396,
      "पुर": 1397,
      "భాష": 1398,
      "ric": 1399,
      "AAQBAJ&pg=PA": 1400,
      "ach": 1401,
      "िल्": 1402,
      "ज्": 1403,
      "रे": 1404,
      "िट": 1405,
      "▁దేశ": 1406,
      "▁बा": 1407,
      "eng": 1408,
      "▁has": 1409,
      "णा": 1410,
      "erv": 1411,
      "territ": 1412,
      "▁[E": 1413,
      "ost": 1414,
      "RICS": 1415,
      "न\")": 1416,
      "ही": 1417,
      "పాల": 1418,
      "▁घ": 1419,
      "▁इस": 1420,
      "▁हैं।": 1421,
      "किस्तान": 1422,
      "_3": 1423,
      "log": 1424,
      "tates": 1425,
      "_भारत": 1426,
      "णि": 1427,
      "द्व": 1428,
      "▁ना": 1429,
      "ublic": 1430,
      "out": 1431,
      "aste": 1432,
      "%E0%A": 1433,
      "▁२": 1434,
      "ark": 1435,
      "▁मेला": 1436,
      "స్తా": 1437,
      "riti": 1438,
      "▁पुरा": 1439,
      "वी": 1440,
      "▁[ब": 1441,
      "▁\"ब": 1442,
      "▁En": 1443,
      "fe": 1444,
      "ेर": 1445,
      "లీ": 1446,
      "ాయ": 1447,
      "United": 1448,
      "gl": 1449,
      "arge": 1450,
      "म्रा": 1451,
      "](./ब": 1452,
      "▁18": 1453,
      "orth": 1454,
      "_की_स": 1455,
      "elop": 1456,
      "evelop": 1457,
      "_में": 1458,
      "ुसार": 1459,
      "-d": 1460,
      "tral": 1461,
      "MetcalfMetcalf2006": 1462,
      "\"\r\n": 1463,
      "56": 1464,
      "pe": 1465,
      "तम": 1466,
      "▁[K": 1467,
      "▁हु": 1468,
      "mpire": 1469,
      "लेखित": 1470,
      "మ్రాజ్యం": 1471,
      "▁at": 1472,
      "▁2014": 1473,
      "हु": 1474,
      "ren": 1475,
      "ame": 1476,
      "10.": 1477,
      "akistan": 1478,
      "ritish": 1479,
      "ख्य": 1480,
      "पं": 1481,
      "शास": 1482,
      "ligion": 1483,
      "దేశ్": 1484,
      "bridge": 1485,
      "2007": 1486,
      "1998": 1487,
      "▁भाषा\")": 1488,
      "edia": 1489,
      "ign": 1490,
      "ం](./": 1491,
      "_का": 1492,
      "\"](https://web.archive.org/web/201": 1493,
      "49": 1494,
      "▁India's": 1495,
      "ambridge": 1496,
      "80": 1497,
      "ath": 1498,
      "row": 1499,
      "ल्": 1500,
      "▁ch": 1501,
      "lig": 1502,
      "](./India#cite_ref-FOOTNOTE": 1503,
      "▁भी": 1504,
      "times": 1505,
      ".nic": 1506,
      "_T": 1507,
      "ta": 1508,
      "2004": 1509,
      "ond": 1510,
      "ంబ": 1511,
      "టి": 1512,
      "▁सरकार": 1513,
      "nolog": 1514,
      "ove": 1515,
      "साँ": 1516,
      "les": 1517,
      "led": 1518,
      "ogra": 1519,
      "South_Asia": 1520,
      "](./भारतीय_": 1521,
      "html": 1522,
      "ya": 1523,
      "late_": 1524,
      "ult": 1525,
      "_B": 1526,
      "ैद": 1527,
      "▁un": 1528,
      "](./भारत_में": 1529,
      "▁10": 1530,
      "econom": 1531,
      "चीन": 1532,
      "हिन्दी": 1533,
      "స్తాన్": 1534,
      "2)": 1535,
      "DP": 1536,
      "oh": 1537,
      "ug": 1538,
      "ब्": 1539,
      "ोर": 1540,
      "isation": 1541,
      "-m": 1542,
      "anc": 1543,
      "yson": 1544,
      "5)": 1545,
      "world": 1546,
      "कर": 1547,
      "वे": 1548,
      "ूर": 1549,
      "డు": 1550,
      "నే": 1551,
      "▁\"K": 1552,
      "▁सूची": 1553,
      "▁History": 1554,
      "ames": 1555,
      "ember": 1556,
      "conomy": 1557,
      "-p": 1558,
      "श्च": 1559,
      "▁2007": 1560,
      "▁its": 1561,
      "ven": 1562,
      "ight": 1563,
      "▁###": 1564,
      "की": 1565,
      "गण": 1566,
      "दक्षिण": 1567,
      "फ़": 1568,
      "हि": 1569,
      "ంలో": 1570,
      "గు": 1571,
      "మూ": 1572,
      "▁[978-1": 1573,
      "ten": 1574,
      "్రీ": 1575,
      "जाब": 1576,
      "జాత": 1577,
      "म्राज": 1578,
      "श्चिम": 1579,
      "RC": 1580,
      "▁20": 1581,
      "epend": 1582,
      "_D": 1583,
      "y_": 1584,
      "ष्": 1585,
      "over": 1586,
      "ज्ञ": 1587,
      "%E0%A4%": 1588,
      "58": 1589,
      "_R": 1590,
      "_b": 1591,
      "▁\"Indian": 1592,
      "ood": 1593,
      "000": 1594,
      "-b": 1595,
      "Oxford": 1596,
      "sland": 1597,
      "లా": 1598,
      "▁జ": 1599,
      "▁सम": 1600,
      "urop": 1601,
      "ंग्रेज़": 1602,
      "पंजाब": 1603,
      "ah": 1604,
      "ani": 1605,
      "2008": 1606,
      "onstitution": 1607,
      "Dw": 1608,
      "_language": 1609,
      "▁(201": 1610,
      "ission": 1611,
      "qu": 1612,
      "arl": 1613,
      ".nic.in/": 1614,
      "ूच": 1615,
      "డ్": 1616,
      "ిల్": 1617,
      "ree": 1618,
      "ालय": 1619,
      "illi": 1620,
      "ంగా": 1621,
      "▁5": 1622,
      "▁9": 1623,
      "](./K": 1624,
      "odern": 1625,
      "emplate": 1626,
      "39": 1627,
      "World": 1628,
      "ख्या": 1629,
      "ision": 1630,
      "hel": 1631,
      "ulture": 1632,
      "mund": 1633,
      "▁6": 1634,
      "ashm": 1635,
      "othermund": 1636,
      "ashmir": 1637,
      "ro": 1638,
      "दे": 1639,
      "पी": 1640,
      "లి": 1641,
      "్చ": 1642,
      "▁पू": 1643,
      "521": 1644,
      "साँचा": 1645,
      "er,": 1646,
      "lection": 1647,
      "urope": 1648,
      ",_": 1649,
      "6)": 1650,
      "_d": 1651,
      "ंब": 1652,
      "जरा": 1653,
      "वन": 1654,
      "ulke": 1655,
      "ंदिर": 1656,
      "tinent": 1657,
      "▁li": 1658,
      "चल": 1659,
      "కా": 1660,
      "ణా": 1661,
      "ధిక": 1662,
      "▁धर्म": 1663,
      "▁[L": 1664,
      "स्थान": 1665,
      "▁వి": 1666,
      "978-0-521": 1667,
      "पाकिस्तान": 1668,
      "జాతీయ": 1669,
      "2003": 1670,
      "evelopment": 1671,
      "na": 1672,
      "सम": 1673,
      "▁U": 1674,
      "\")*": 1675,
      "](./Indian_": 1676,
      "▁sub": 1677,
      "usic": 1678,
      "olog": 1679,
      "स्था": 1680,
      "AARC": 1681,
      "▁१९": 1682,
      "म्राज्य": 1683,
      "Singh": 1684,
      "hr": 1685,
      "▁were": 1686,
      "वर्": 1687,
      "शी": 1688,
      "దక్ష": 1689,
      "వం": 1690,
      "ों_की_स": 1691,
      "▁तक": 1692,
      "▁సం": 1693,
      "▁చరిత్ర": 1694,
      "37": 1695,
      ".;": 1696,
      "IN": 1697,
      "doi": 1698,
      "के": 1699,
      "प्त": 1700,
      "ैन": 1701,
      "Stein2010": 1702,
      "help": 1703,
      "▁k": 1704,
      "any": 1705,
      "alth": 1706,
      "continent": 1707,
      "69": 1708,
      "ओं": 1709,
      "रब": 1710,
      "श्": 1711,
      "డి": 1712,
      "▁[the": 1713,
      "]](./भारत#cite_note-FOOTNOTE": 1714,
      "▁ప్రా": 1715,
      "Indo-": 1716,
      "िल्ली": 1717,
      "3)": 1718,
      "ni": 1719,
      "▁ad": 1720,
      "ansk": 1721,
      "-india": 1722,
      "51": 1723,
      "▁temp": 1724,
      "▁पा": 1725,
      "tical": 1726,
      "तिहास": 1727,
      "ountry": 1728,
      "_4": 1729,
      "िन": 1730,
      "ంధ": 1731,
      "▁భారతదేశం": 1732,
      "▁किया": 1733,
      "స్త": 1734,
      "▁नि": 1735,
      "▁विश": 1736,
      "_के_राज्य": 1737,
      "సియా": 1738,
      "▁రాజ్యం": 1739,
      "conomic": 1740,
      "Stein1998": 1741,
      "▁సామ్రాజ్యం": 1742,
      "Singh2009": 1743,
      "por": 1744,
      "▁te": 1745,
      "arch": 1746,
      "usines": 1747,
      "गा": 1748,
      "दू": 1749,
      "▁[उ": 1750,
      "▁17": 1751,
      "तील": 1752,
      "History": 1753,
      "ined": 1754,
      "roup": 1755,
      "anskrit": 1756,
      "port": 1757,
      "దీ": 1758,
      "▁బ": 1759,
      "▁\"L": 1760,
      "▁\"The": 1761,
      "▁**[": 1762,
      "ండి": 1763,
      "దక్షి": 1764,
      "Talbot": 1765,
      "ations": 1766,
      "▁26": 1767,
      "ated": 1768,
      "AsherTalbot": 1769,
      "ण्": 1770,
      "ूप": 1771,
      "amil": 1772,
      "irst": 1773,
      "_and_S": 1774,
      "age/": 1775,
      "हारा": 1776,
      "पूर्व": 1777,
      "\"](https://www.": 1778,
      "elhi": 1779,
      "▁languages": 1780,
      "_भाषा": 1781,
      "धी": 1782,
      "తర": 1783,
      "ది": 1784,
      "ower": 1785,
      "▁([help": 1786,
      "errors": 1787,
      "▁राज्यों": 1788,
      "▁errors\")": 1789,
      "▁खाना": 1790,
      "radesh": 1791,
      "ों_की_सूची": 1792,
      ".pdf)": 1793,
      "wik": 1794,
      "ice": 1795,
      "ystem": 1796,
      "36": 1797,
      "ms": 1798,
      "ां": 1799,
      "](./L": 1800,
      "▁Pr": 1801,
      "_प्रदेश": 1802,
      "▁An": 1803,
      "▁Comm": 1804,
      "ury": 1805,
      "emb": 1806,
      "ave": 1807,
      "ores": 1808,
      "टी": 1809,
      "ట్": 1810,
      "ిత": 1811,
      "](./उ": 1812,
      "▁[మ": 1813,
      "▁\"उ": 1814,
      "on-": 1815,
      "▁स्व": 1816,
      "Ed": 1817,
      "india.gov.in/": 1818,
      "C&pg=PA": 1819,
      "ंग्": 1820,
      "me": 1821,
      "77": 1822,
      "_చ": 1823,
      "fn_": 1824,
      "ंप": 1825,
      "ुल": 1826,
      "ం\")": 1827,
      "▁\"మ": 1828,
      "्रिट": 1829,
      "](./भारत#CITEREF": 1830,
      "▁Sfn": 1831,
      "▁2010": 1832,
      "ंगा": 1833,
      "माण": 1834,
      "▁गया": 1835,
      "▁[मूल": 1836,
      "▁Asian": 1837,
      "▁targe": 1838,
      "template_": 1839,
      "ింది.": 1840,
      "▁error:": 1841,
      "engal": 1842,
      "▁template": 1843,
      "_and_Sfn_": 1844,
      "▁([help](./": 1845,
      "▁errors\"))\r\n": 1846,
      "▁target:": 1847,
      "template_errors": 1848,
      "_and_Sfn_template_errors": 1849,
      "21": 1850,
      "ai": 1851,
      "man": 1852,
      "▁la": 1853,
      "ina": 1854,
      "2005": 1855,
      "une": 1856,
      "article": 1857,
      "-l": 1858,
      "पाल": 1859,
      "बंध": 1860,
      "\")**": 1861,
      "eneral": 1862,
      "ंगाल": 1863,
      "uary": 1864,
      "omb": 1865,
      "वरी": 1866,
      "ुर": 1867,
      "▁ఎ": 1868,
      "ess": 1869,
      "▁CITEREF": 1870,
      "ाला": 1871,
      "uly": 1872,
      "न्द्र": 1873,
      "Union": 1874,
      "▁(సా.శ.పూ.": 1875,
      "▁पुरालेखित": 1876,
      "▁पुरालेखित।": 1877,
      "lass": 1878,
      "rg": 1879,
      "ograph": 1880,
      "Page/": 1881,
      "ise": 1882,
      "itPage/": 1883,
      "ley": 1884,
      "िक्ष": 1885,
      "inistry": 1886,
      "▁सूची\")": 1887,
      "EditPage/": 1888,
      ".\"\r\n": 1889,
      "yn": 1890,
      "▁le": 1891,
      "▁16": 1892,
      "oll": 1893,
      "indus": 1894,
      "_G": 1895,
      "year": 1896,
      "बसे": 1897,
      "▁శ": 1898,
      "▁territ": 1899,
      "▁\"F": 1900,
      "tive": 1901,
      "alay": 1902,
      "▁सि": 1903,
      "▁per": 1904,
      "▁sfn": 1905,
      "ect": 1906,
      "ంద్ర": 1907,
      "▁शास": 1908,
      "▁region": 1909,
      "क्ति": 1910,
      "ंग्रेज़ी": 1911,
      "हाराष्ट्र": 1912,
      "cies": 1913,
      "ats": 1914,
      "च्च": 1915,
      "टक": 1916,
      "ाने": 1917,
      "▁आधार": 1918,
      "न्न": 1919,
      "earch": 1920,
      "ternational": 1921,
      "/https://www.": 1922,
      "▁[भारतीय": 1923,
      "▁आहे.": 1924,
      "▁Hindu": 1925,
      "ण्ड": 1926,
      "73": 1927,
      "ry": 1928,
      "igh": 1929,
      "matics": 1930,
      "68": 1931,
      "पश्चिम": 1932,
      "सी": 1933,
      "।[[": 1934,
      "ైన": 1935,
      "](./మ": 1936,
      "ill": 1937,
      "▁పే": 1938,
      "भाग": 1939,
      "pril": 1940,
      "स्कृत": 1941,
      "गुजरा": 1942,
      "द्वीप": 1943,
      "श्मी": 1944,
      "-in": 1945,
      "air": 1946,
      "tal": 1947,
      "▁st": 1948,
      "65": 1949,
      "_N": 1950,
      "uch": 1951,
      "तंत्र": 1952,
      "_सं": 1953,
      "▁उप": 1954,
      "DwAAQBAJ&pg=PA": 1955,
      "▁[F": 1956,
      "/c": 1957,
      "Rothermund": 1958,
      "ंद्र": 1959,
      "ధ్య": 1960,
      "▁గ": 1961,
      "ारी": 1962,
      "▁सबसे": 1963,
      "ase": 1964,
      "oss": 1965,
      "▁है।\r\n": 1966,
      "▁साथ": 1967,
      "ద్ధ": 1968,
      "](./भारत_में_": 1969,
      "ज्ञान": 1970,
      "1,": 1971,
      "ail": 1972,
      "mar": 1973,
      "ories": 1974,
      "▁Th": 1975,
      "100": 1976,
      "oduc": 1977,
      "▁Asia\")": 1978,
      "mer": 1979,
      "व्य": 1980,
      "ongress": 1981,
      "युक्त": 1982,
      "्रिटिश": 1983,
      "74": 1984,
      "Kulke": 1985,
      "▁ar": 1986,
      "-17": 1987,
      "▁New": 1988,
      "tar": 1989,
      "आई": 1990,
      "डी": 1991,
      "थी": 1992,
      "హింద": 1993,
      "ించ": 1994,
      "▁ఒ": 1995,
      "▁था": 1996,
      "▁భాష": 1997,
      "](./F": 1998,
      "▁[క": 1999,
      "▁\"श्रेणी:Harv": 2000,
      "iver": 2001,
      "▁13": 2002,
      "ాల్": 2003,
      "uring": 2004,
      "▁द्व": 2005,
      "▁संघ": 2006,
      "▁यु": 2007,
      "](./Special:BookSources/978-1": 2008,
      "▁\"Special:BookSources/978-1": 2009,
      "श्रेणी:Harv_and_Sfn_template_errors": 2010,
      "▁([help](./श्रेणी:Harv_and_Sfn_template_errors": 2011,
      "▁([help](./श्रेणी:Harv_and_Sfn_template_errors?action=edit&redlink=1": 2012,
      "hand": 2013,
      "▁ra": 2014,
      "off": 2015,
      "ed.": 2016,
      "ombined": 2017,
      "%2": 2018,
      "pu": 2019,
      "entral": 2020,
      "lim": 2021,
      "्वर": 2022,
      "▁Empire": 2023,
      "पुरा": 2024,
      "▁World": 2025,
      "illion": 2026,
      "emplate:": 2027,
      "▁विश्व": 2028,
      "-c": 2029,
      "-w": 2030,
      "fter": 2031,
      "ugh": 2032,
      "▁15": 2033,
      "▁cent": 2034,
      "▁bec": 2035,
      "]](./భారతదేశం#cite_": 2036,
      "_p": 2037,
      "జీ": 2038,
      "ట్ట": 2039,
      "ేంద్ర": 2040,
      "▁\"క": 2041,
      "ork": 2042,
      "▁हिन्": 2043,
      "▁25": 2044,
      "old": 2045,
      "ople": 2046,
      "uman": 2047,
      "ంగ్": 2048,
      "ियों": 2049,
      "▁language\")": 2050,
      "ledge": 2051,
      "71": 2052,
      "▁[W": 2053,
      "asp": 2054,
      "ide": 2055,
      "aman": 2056,
      "iron": 2057,
      "KulkeRothermund": 2058,
      "national": 2059,
      "▁राष्ट्रीय": 2060,
      "▁कार": 2061,
      "india/": 2062,
      "www.c": 2063,
      "](https://web.archive.org/web/202": 2064,
      "▁प्रदेश\")": 2065,
      "\"](https://": 2066,
      "lear": 2067,
      "▁April": 2068,
      "▁July": 2069,
      "uclear": 2070,
      "गढ़": 2071,
      "लोक": 2072,
      "ोन": 2073,
      "త్య": 2074,
      "బ్": 2075,
      "మీ": 2076,
      "▁[सं": 2077,
      "ority": 2078,
      "రాష్ట్ర": 2079,
      "▁लि": 2080,
      "news/": 2081,
      "Dyson": 2082,
      "_1": 2083,
      "aw": 2084,
      "dom": 2085,
      "ure": 2086,
      "tes": 2087,
      "eration": 2088,
      "2014": 2089,
      "ummit\")": 2090,
      "Hindi": 2091,
      "Combined": 2092,
      "ution": 2093,
      "▁\"इ": 2094,
      "िकी": 2095,
      "▁वा": 2096,
      "्याया": 2097,
      "▁पूर्व": 2098,
      "hind": 2099,
      "iod": 2100,
      "viron": 2101,
      "▁government": 2102,
      "vironment": 2103,
      "_न": 2104,
      "ting": 2105,
      "भू": 2106,
      "००": 2107,
      "ంక": 2108,
      "ప్": 2109,
      "యు": 2110,
      "▁[J": 2111,
      "ारा": 2112,
      "▁मान": 2113,
      "ics": 2114,
      "్యా": 2115,
      "▁जिस": 2116,
      "▁दक्षिण": 2117,
      "्यां": 2118,
      "ateg": 2119,
      "▁Island": 2120,
      "▁यह": 2121,
      "తంత్ర": 2122,
      "▁not": 2123,
      "](./భారతదేశం#cite_ref-": 2124,
      "]](./భారతదేశం#cite_note-": 2125,
      "glish": 2126,
      "PP": 2127,
      "_पर": 2128,
      "ee": 2129,
      "ities": 2130,
      "गो": 2131,
      "▁us": 2132,
      "](./इ": 2133,
      "▁[न": 2134,
      "्यट": 2135,
      "▁अधिक": 2136,
      "▁[↑](./भारत#cite_": 2137,
      "▁de": 2138,
      "क्षेत्र": 2139,
      "ime": 2140,
      "]](./भारत#cite_note": 2141,
      "fficial": 2142,
      "▁[↑](./भारत#cite_ref": 2143,
      "_F": 2144,
      "iff": 2145,
      "▁year": 2146,
      "](./J": 2147,
      "▁\"J": 2148,
      "▁\"South": 2149,
      "\").[[": 2150,
      "▁system": 2151,
      "lad": 2152,
      "act": 2153,
      "▁Ind": 2154,
      "imes": 2155,
      "_Press": 2156,
      "uropean": 2157,
      "_స": 2158,
      "_और": 2159,
      "एं": 2160,
      "टे": 2161,
      "చ్చ": 2162,
      "తము": 2163,
      "ాన్": 2164,
      "▁[इ": 2165,
      "\")*.": 2166,
      "▁दे": 2167,
      "స్క": 2168,
      "▁dis": 2169,
      "▁have": 2170,
      "क्षा": 2171,
      "ड़ा": 2172,
      "म्म": 2173,
      "▁भू": 2174,
      "-107": 2175,
      "तमिल": 2176,
      "ిల్లీ": 2177,
      "దక్షిణ": 2178,
      "4).": 2179,
      "▁14": 2180,
      "ild": 2181,
      "isher": 2182,
      "Hindu": 2183,
      "72": 2184,
      "त.": 2185,
      "त्य": 2186,
      "लु": 2187,
      "▁\"आ": 2188,
      "▁cons": 2189,
      "▁अस": 2190,
      "ack": 2191,
      "▁जु": 2192,
      "ेश्वर": 2193,
      "ritan": 2194,
      "▁साम्राज्य": 2195,
      "](http://www.": 2196,
      "_summit": 2197,
      "_by_": 2198,
      "Dyson2018": 2199,
      ",000": 2200,
      "are": 2201,
      "oy": 2202,
      "uis": 2203,
      "ince": 2204,
      "now": 2205,
      "brary": 2206,
      "1–": 2207,
      "98": 2208,
      "gis": 2209,
      "ंक": 2210,
      "वस्था": 2211,
      "ధాన": 2212,
      "బె": 2213,
      "వే": 2214,
      "](./विशेष:पुस्तक": 2215,
      "▁\"विशेष:पुस्तक": 2216,
      "▁स्रोत/": 2217,
      "▁off": 2218,
      "▁मंदिर": 2219,
      "](./भारत_के_": 2220,
      "ారు": 2221,
      "लाई": 2222,
      "▁बहु": 2223,
      "_स्रोत/": 2224,
      "विधान": 2225,
      "_के_आ": 2226,
      "▁రాజ": 2227,
      "द्योग": 2228,
      "▁(PDF)": 2229,
      "▁बाद": 2230,
      "शासित": 2231,
      "साँचा:": 2232,
      "ology": 2233,
      "ंग्ला": 2234,
      "](./विशेष:पुस्तक_स्रोत/": 2235,
      "32": 2236,
      "_M": 2237,
      "athe": 2238,
      "cient": 2239,
      "idd": 2240,
      "▁into": 2241,
      "▁Archived": 2242,
      "rab": 2243,
      "shit": 2244,
      "ayan": 2245,
      "ikshit": 2246,
      "▁Press\").": 2247,
      "outledge": 2248,
      "cto": 2249,
      "rd": 2250,
      "पे": 2251,
      "ागर": 2252,
      "ive": 2253,
      "▁countries": 2254,
      "▁विक": 2255,
      "aper": 2256,
      "▁north": 2257,
      "म्ब": 2258,
      "▁Octo": 2259,
      "gest": 2260,
      "ritannic": 2261,
      "▁October": 2262,
      "ey": 2263,
      "if": 2264,
      "दिल्ली": 2265,
      "मार": 2266,
      "्स": 2267,
      "జి": 2268,
      "మ్": 2269,
      "శ్": 2270,
      "ష్": 2271,
      "](./క": 2272,
      "్యవ": 2273,
      "न्द": 2274,
      "umb": 2275,
      "ocial": 2276,
      "▁मुख्य": 2277,
      "ूचना": 2278,
      "_చరిత్ర": 2279,
      "s-": 2280,
      "न](./": 2281,
      "ित्र": 2282,
      "India)": 2283,
      "ari": 2284,
      "ound": 2285,
      "▁comp": 2286,
      "▁Pradesh": 2287,
      "-80": 2288,
      "eptem": 2289,
      "inister": 2290,
      "udden": 2291,
      "eptember": 2292,
      "_University": 2293,
      "fl": 2294,
      "jab": 2295,
      "ant": 2296,
      "cience": 2297,
      "▁India,": 2298,
      "▁class": 2299,
      "berg": 2300,
      "industry": 2301,
      "/p": 2302,
      "_m": 2303,
      "_आ": 2304,
      "pt": 2305,
      "pib": 2306,
      "ल\")": 2307,
      "सद": 2308,
      "ఢిల్లీ": 2309,
      "దు": 2310,
      "పంచ": 2311,
      "▁econom": 2312,
      "▁कि": 2313,
      "▁मो": 2314,
      "▁India:": 2315,
      "ారి": 2316,
      "ural": 2317,
      "िया\")": 2318,
      "_की_": 2319,
      "▁కా": 2320,
      "नेमा": 2321,
      "_मेला": 2322,
      "ृत्य": 2323,
      "time": 2324,
      "धार_पर": 2325,
      "▁नाम": 2326,
      "మూస": 2327,
      "श्मीर": 2328,
      "_के_आधार_पर": 2329,
      "_के_आधार_पर_भारत": 2330,
      "anisation": 2331,
      "▁Aug": 2332,
      "racy": 2333,
      "▁September": 2334,
      "also": 2335,
      "▁(PDF).": 2336,
      "▁Commission": 2337,
      "▁August": 2338,
      "_अ": 2339,
      "_ब": 2340,
      "ho": 2341,
      "भी": 2342,
      "वर": 2343,
      "स्ट": 2344,
      "ीस": 2345,
      "▁गण": 2346,
      "▁उत्": 2347,
      "संख्या": 2348,
      "स्कृ": 2349,
      "▁trad": 2350,
      "▁[Archived](https://web.archive.org/web/201": 2351,
      "ategory": 2352,
      "82": 2353,
      "_c": 2354,
      "▁Act": 2355,
      "line": 2356,
      "/http://www.": 2357,
      "6_": 2358,
      "79": 2359,
      "tain": 2360,
      "ाम": 2361,
      "వు": 2362,
      "▁also": 2363,
      "▁\"భారతీయ": 2364,
      "edic": 2365,
      "chnolog": 2366,
      "ियाँ": 2367,
      "▁Metcalf": 2368,
      "▁है,": 2369,
      "ంది.": 2370,
      "ंडिया": 2371,
      "%E0%A4%B": 2372,
      "▁subcontinent": 2373,
      "▁पुरालेखित।.": 2374,
      "▁जुलाई": 2375,
      "_के_आधार_पर_भारत_के_राज्य": 2376,
      "uj": 2377,
      "wart": 2378,
      "zberg": 2379,
      "chwart": 2380,
      "▁first": 2381,
      "-40": 2382,
      "Indus": 2383,
      "ative": 2384,
      "978-0-19-8": 2385,
      "gency": 2386,
      "_University_Press": 2387,
      "chwartzberg": 2388,
      "88": 2389,
      "ote": 2390,
      "श्री": 2391,
      "ीत": 2392,
      "](./आ": 2393,
      "▁\"W": 2394,
      "ween": 2395,
      "etween": 2396,
      "▁2006": 2397,
      "ritannica": 2398,
      "0.": 2399,
      "eth": 2400,
      "fr": 2401,
      "uk": 2402,
      "▁all": 2403,
      "▁2019": 2404,
      "▁form": 2405,
      "International": 2406,
      "articl": 2407,
      "](./List_of_c": 2408,
      "AsherTalbot2008": 2409,
      "34": 2410,
      "5–": 2411,
      "hism": 2412,
      "mb": 2413,
      "एस": 2414,
      "ौद्ध": 2415,
      "జన": 2416,
      "టు": 2417,
      "టె": 2418,
      "▁फ": 2419,
      "▁[ज": 2420,
      "▁\"न": 2421,
      "iament": 2422,
      "estern": 2423,
      "2012": 2424,
      "ingdom": 2425,
      "▁केंद्र": 2426,
      "entre": 2427,
      "▁Dec": 2428,
      "unjab": 2429,
      "▁रूप": 2430,
      "▁చె": 2431,
      "నాయ": 2432,
      "–సా.శ.పూ.": 2433,
      "▁[↑](./भारत#cite_ref-FOOTNOTE": 2434,
      "▁been": 2435,
      "बांग्ला": 2436,
      "▁देशों": 2437,
      "▁ఆర్": 2438,
      "...": 2439,
      "పాలిత": 2440,
      "arliament": 2441,
      "▁ప్రాంత": 2442,
      "ేంద్రపాలిత": 2443,
      "-19": 2444,
      "](./H": 2445,
      "](./W": 2446,
      "▁[I": 2447,
      "▁\"H": 2448,
      "argest": 2449,
      "\".": 2450,
      "-re": 2451,
      "GDP": 2452,
      "ेट": 2453,
      "▁ड": 2454,
      "▁res": 2455,
      "erg": 2456,
      "▁their": 2457,
      "▁India\"),": 2458,
      "▁state": 2459,
      "lam": 2460,
      "▁Cambridge": 2461,
      "▁June": 2462,
      "904": 2463,
      ".html": 2464,
      "89": 2465,
      "8](./India#CITEREF": 2466,
      "▁ag": 2467,
      "▁pe": 2468,
      "▁part": 2469,
      "raven": 2470,
      "amb": 2471,
      "▁but": 2472,
      "978-8": 2473,
      "▁[*A": 2474,
      "▁[Archived](https://web.archive.org/web/202": 2475,
      "iddle": 2476,
      "978-81": 2477,
      "_ए": 2478,
      "खा": 2479,
      "ఖ్య": 2480,
      "బి": 2481,
      "హి": 2482,
      "▁झ": 2483,
      "](./न": 2484,
      "नाथ": 2485,
      "▁2016": 2486,
      "▁एवं": 2487,
      "ड़ी": 2488,
      "ffair": 2489,
      "बाद": 2490,
      "▁स्थ": 2491,
      "मुख": 2492,
      "స్కృ": 2493,
      "5-0)": 2494,
      "7)": 2495,
      "_19": 2496,
      "cc": 2497,
      "▁[[": 2498,
      "▁\"O": 2499,
      "▁Sh": 2500,
      "▁24": 2501,
      "▁2014.\r\n": 2502,
      "](./List_of_countries": 2503,
      "ual": 2504,
      "जय": 2505,
      "नगर": 2506,
      "▁[3": 2507,
      "▁[Indian": 2508,
      "▁मार": 2509,
      "▁पार": 2510,
      "▁Ar": 2511,
      "ेंद्र": 2512,
      "▁जो": 2513,
      "राजस्थान": 2514,
      "▁during": 2515,
      "▁2021": 2516,
      "harma": 2517,
      "Harle": 2518,
      "विश्व": 2519,
      "ategory:": 2520,
      "1-0)": 2521,
      "i-": 2522,
      "ne": 2523,
      "val": 2524,
      "▁[H": 2525,
      "▁Population": 2526,
      "ucation": 2527,
      "india.gov.in": 2528,
      "86": 2529,
      ":[": 2530,
      "_L": 2531,
      "_ప": 2532,
      "గో": 2533,
      "దా": 2534,
      "హా": 2535,
      "ి.\r\n": 2536,
      "▁ను": 2537,
      "▁జాతీయ": 2538,
      "▁[आ": 2539,
      "्तर": 2540,
      "▁Ass": 2541,
      ".org/10.": 2542,
      "_Indian_": 2543,
      "▁this": 2544,
      "राष्ट्रप": 2545,
      "▁अनुसार": 2546,
      "ublish": 2547,
      "_का_": 2548,
      "doi.org/10.": 2549,
      "%2F": 2550,
      "్యవస్థ": 2551,
      "-g": 2552,
      "National": 2553,
      "_re": 2554,
      "ok": 2555,
      "ton": 2556,
      "ule": 2557,
      "-14": 2558,
      "anges": 2559,
      "1994": 2560,
      "_in_": 2561,
      "irect": 2562,
      "ligi": 2563,
      "खंड": 2564,
      "पट": 2565,
      "ोर्": 2566,
      "▁[19": 2567,
      "▁मूल": 2568,
      "▁population": 2569,
      "▁between": 2570,
      "▁22": 2571,
      "-2)": 2572,
      "▁1950": 2573,
      "▁2009": 2574,
      "able": 2575,
      "ंत्री": 2576,
      "120": 2577,
      "ia\")": 2578,
      "chnology": 2579,
      "ibrary": 2580,
      "lang": 2581,
      "pp": 2582,
      "ठी": 2583,
      "लि": 2584,
      "हित": 2585,
      "ोड़": 2586,
      "డా": 2587,
      "తో": 2588,
      "మే": 2589,
      "రణ": 2590,
      "▁ऑ": 2591,
      "▁భారత": 2592,
      "▁స్": 2593,
      "](./सं": 2594,
      "▁[s": 2595,
      "▁\"सं": 2596,
      "▁अप": 2597,
      "▁more": 2598,
      "नाड": 2599,
      "ace": 2600,
      "▁न्याया": 2601,
      "▁सेना": 2602,
      "▁కూ": 2603,
      "ాలు,": 2604,
      "म्बर": 2605,
      "▁రాష్ట్ర": 2606,
      "CS1": 2607,
      "▁जाता": 2608,
      "కిస్తాన్": 2609,
      "▁वर्ष": 2610,
      "nologue": 2611,
      "▁చరిత్ర\")": 2612,
      "*,": 2613,
      "/A": 2614,
      "2-0)": 2615,
      "4-0)": 2616,
      "8)": 2617,
      "ater": 2618,
      "ash": 2619,
      "tra": 2620,
      "▁12": 2621,
      "state": 2622,
      "rent": 2623,
      "-f": 2624,
      "ठा": 2625,
      "पार": 2626,
      "▁संग": 2627,
      "▁most": 2628,
      "iles/": 2629,
      "माज": 2630,
      "▁30": 2631,
      "▁Jan": 2632,
      "▁इतिहास": 2633,
      "▁[Stein": 2634,
      "ortal": 2635,
      "र्थिक": 2636,
      "ck": 2637,
      "fric": 2638,
      "ument": 2639,
      "omen": 2640,
      "▁par": 2641,
      "term": 2642,
      "▁29": 2643,
      "cycl": 2644,
      "▁Press.": 2645,
      "embly": 2646,
      "KulkeRothermund2004": 2647,
      "▁years": 2648,
      "cyclop": 2649,
      "/0": 2650,
      "93": 2651,
      "CO": 2652,
      "_देश": 2653,
      "तर": 2654,
      "रो": 2655,
      "బడ": 2656,
      "వర్": 2657,
      "▁ध": 2658,
      "▁ఈ": 2659,
      "▁లో": 2660,
      "▁\"I": 2661,
      "2019": 2662,
      "2001": 2663,
      "▁हे": 2664,
      "▁व्य": 2665,
      "नाग": 2666,
      "▁world": 2667,
      "_क्षेत्र": 2668,
      "▁तट": 2669,
      "▁उत्तर": 2670,
      "త్రి": 2671,
      "▁(identifier)\"):[": 2672,
      "▁एशिया": 2673,
      "त्तरा": 2674,
      "ी_भाषा": 2675,
      "▁2011.\r\n": 2676,
      "ंतर": 2677,
      "▁निर्": 2678,
      "▁हिन्दी": 2679,
      "son": 2680,
      "▁im": 2681,
      "▁[t": 2682,
      "here": 2683,
      "ely": 2684,
      "auth": 2685,
      "ovement": 2686,
      "▁2020": 2687,
      "%7": 2688,
      ".asp": 2689,
      "2_": 2690,
      "CE": 2691,
      "नुसार": 2692,
      "िळ": 2693,
      "▁[Metcalf": 2694,
      "iation": 2695,
      "▁after": 2696,
      "2000": 2697,
      "▁ही": 2698,
      "life": 2699,
      "ular": 2700,
      "_सा": 2701,
      "▁अन्य": 2702,
      "clud": 2703,
      "olitical": 2704,
      "वंश": 2705,
      "ैदान": 2706,
      "्यटन": 2707,
      "/articl": 2708,
      "e](./": 2709,
      "gra": 2710,
      "ile": 2711,
      "oin": 2712,
      "▁al": 2713,
      "▁1.": 2714,
      "▁Congress": 2715,
      "▁East": 2716,
      "obb": 2717,
      "-to": 2718,
      "6-0)": 2719,
      "87": 2720,
      "ID": 2721,
      "_క": 2722,
      "cr": 2723,
      "लय": 2724,
      "ृष्": 2725,
      "తు": 2726,
      "పతి": 2727,
      "▁Y": 2728,
      "▁ని": 2729,
      "▁స్థ": 2730,
      "▁[v": 2731,
      "▁[అ": 2732,
      "▁[ప": 2733,
      "▁\"ज": 2734,
      "asia": 2735,
      "్రి": 2736,
      "िक्क": 2737,
      "▁अग": 2738,
      "న్ని": 2739,
      "ర్వ": 2740,
      "पुरी": 2741,
      "ాలు](./": 2742,
      "apit": 2743,
      "▁संस्कृ": 2744,
      ".gov.in/": 2745,
      "▁exp": 2746,
      "धिकार": 2747,
      "మిళ": 2748,
      "ंबई": 2749,
      "వంశ": 2750,
      "तंत्रता": 2751,
      "www.census": 2752,
      "म्मू": 2753,
      "6-2": 2754,
      "_I": 2755,
      "ces": 2756,
      "minis": 2757,
      "ran": 2758,
      "yan": 2759,
      "theast": 2760,
      "olic": 2761,
      "umber": 2762,
      "▁election": 2763,
      "ommon": 2764,
      "▁[2](./India#cite_ref-FOOTNOTE": 2765,
      "▁[1](./India#cite_ref-FOOTNOTE": 2766,
      "times.com/": 2767,
      "CN": 2768,
      "_12": 2769,
      "कल": 2770,
      "तु": 2771,
      "धु": 2772,
      "▁'": 2773,
      "▁states": 2774,
      "ovision": 2775,
      "▁May": 2776,
      "▁Talbot": 2777,
      "▁India\")\r\n": 2778,
      "avid": 2779,
      "पाद": 2780,
      "php": 2781,
      "▁English": 2782,
      "देव": 2783,
      "ffairs": 2784,
      "Fisher": 2785,
      "union": 2786,
      "ed.).": 2787,
      "Fisher2018": 2788,
      "-le": 2789,
      "IM": 2790,
      "_మ": 2791,
      "_భాష": 2792,
      "pic": 2793,
      "se": 2794,
      "ंस": 2795,
      "एँ": 2796,
      "टा": 2797,
      "में": 2798,
      "िज़": 2799,
      "िंध": 2800,
      "గం": 2801,
      "ఫ్": 2802,
      "▁[బ": 2803,
      "▁[స": 2804,
      "▁[South": 2805,
      "▁\"అ": 2806,
      "▁\"భారతదేశం": 2807,
      "ough": 2808,
      "▁Comp": 2809,
      "▁Constitution": 2810,
      "anglad": 2811,
      "▁23": 2812,
      "▁27": 2813,
      "▁2012": 2814,
      "న్నాయ": 2815,
      "त्रि": 2816,
      "विज्ञान": 2817,
      "▁కాల": 2818,
      "ాలు\")": 2819,
      "▁शिक्ष": 2820,
      "ड़े": 2821,
      "▁Oxford": 2822,
      "ులు](./": 2823,
      "▁tw": 2824,
      "ध्ये": 2825,
      "▁రై": 2826,
      "द्यान": 2827,
      "▁समय": 2828,
      "गुजरात": 2829,
      "व्यवस्था": 2830,
      "హిందూ": 2831,
      "▁2006](./India#CITEREF": 2832,
      "angladesh": 2833,
      "42": 2834,
      "▁es": 2835,
      "](./The": 2836,
      "ali": 2837,
      "ased": 2838,
      "▁1,": 2839,
      "▁Census": 2840,
      "Infor": 2841,
      "▁territories": 2842,
      ",[[": 2843,
      "9-0)": 2844,
      "En": 2845,
      "_territ": 2846,
      "mu": 2847,
      "oci": 2848,
      "गोल": 2849,
      "डिया": 2850,
      "दु": 2851,
      "ौर": 2852,
      "▁ई": 2853,
      "▁ab": 2854,
      "▁मा": 2855,
      "र्दू": 2856,
      "](https://doi.org/10.": 2857,
      "▁main": 2858,
      "▁भारता": 2859,
      "2023": 2860,
      "▁had": 2861,
      "india-": 2862,
      "ode": 2863,
      "118": 2864,
      "epublic": 2865,
      "▁संविधान": 2866,
      "▁2023": 2867,
      "हासागर": 2868,
      "]](./भारत#cite_note-1": 2869,
      "▁[↑](./भारत#cite_ref-1": 2870,
      "▁official": 2871,
      "▁विकास": 2872,
      "langoff": 2873,
      "▁January": 2874,
      ".india": 2875,
      "110": 2876,
      "1]](./India#cite_note-FOOTNOTE": 2877,
      "ira": 2878,
      "oor": 2879,
      "ones": 2880,
      "eser": 2881,
      "ool": 2882,
      "ustral": 2883,
      "▁Pe": 2884,
      "andhi": 2885,
      "emoc": 2886,
      "▁end": 2887,
      "eport": 2888,
      "peration": 2889,
      "▁[2](./India#cite_ref-": 2890,
      "▁[1](./India#cite_ref-": 2891,
      "▁2010](./India#CITEREF": 2892,
      "▁century": 2893,
      "▁tradition": 2894,
      "olicy": 2895,
      "3-0)": 2896,
      "6).": 2897,
      "cre": 2898,
      "cri": 2899,
      "ttar": 2900,
      "गंगा": 2901,
      "तिक": 2902,
      "मंत्री": 2903,
      "सभा": 2904,
      "ैक": 2905,
      "।\r\n": 2906,
      "య్య": 2907,
      "ర్య": 2908,
      "▁[978-0": 2909,
      "▁\"ह": 2910,
      "▁\"ప": 2911,
      "▁\"బ": 2912,
      "▁\"స": 2913,
      "\")[[": 2914,
      "ofindia": 2915,
      "▁pla": 2916,
      "amp": 2917,
      "▁[↑](./భారతదేశం#cite_ref-": 2918,
      "▁दिस": 2919,
      "ose": 2920,
      "दीव": 2921,
      "▁ప్రదేశ్": 2922,
      "త్త": 2923,
      "▁అధిక": 2924,
      "सेना": 2925,
      "▁चु": 2926,
      "ప్రదేశ్": 2927,
      "▁हुई": 2928,
      "usiness": 2929,
      "▁युद्ध": 2930,
      "▁నుండి": 2931,
      "i/": 2932,
      "▁ev": 2933,
      "ins": 2934,
      "eds.": 2935,
      "iction": 2936,
      "andard": 2937,
      "ade": 2938,
      "trib": 2939,
      ".gov/": 2940,
      "▁became": 2941,
      "▁December": 2942,
      "-78": 2943,
      "ban": 2944,
      "cul": 2945,
      "census": 2946,
      "y\")": 2947,
      "ंका": 2948,
      "म\")": 2949,
      "रवरी": 2950,
      "वार": 2951,
      "ोम": 2952,
      "▁he": 2953,
      "](./V": 2954,
      "](./ज": 2955,
      "](./ह": 2956,
      "▁\"V": 2957,
      "\");": 2958,
      "ese": 2959,
      "▁(19": 2960,
      "change": 2961,
      "र्ना": 2962,
      "](./भारतीय": 2963,
      "▁co": 2964,
      "नाव": 2965,
      "▁dance": 2966,
      "osp": 2967,
      "▁*The": 2968,
      "ports": 2969,
      "orest": 2970,
      "ildlife": 2971,
      "ligious": 2972,
      ".wik": 2973,
      "i.": 2974,
      "▁ind": 2975,
      "▁[O": 2976,
      "203": 2977,
      "ched": 2978,
      "istor": 2979,
      "▁March": 2980,
      "▁Development": 2981,
      "1997": 2982,
      "44": 2983,
      "55": 2984,
      ":CS1": 2985,
      "i,": 2986,
      "ned": 2987,
      "खाना": 2988,
      "मेर": 2989,
      "ణి": 2990,
      "తమిళ": 2991,
      "ద్ర": 2992,
      "భూ": 2993,
      "మె": 2994,
      "మైన": 2995,
      "హార": 2996,
      "ోర్": 2997,
      "▁Union": 2998,
      "](./O": 2999,
      "](./బ": 3000,
      "▁\"ఇ": 3001,
      "▁\"భారత": 3002,
      "one": 3003,
      "्रम": 3004,
      "ident": 3005,
      "▁दिया": 3006,
      "▁भारतात": 3007,
      "▁आणि": 3008,
      "▁बढ़": 3009,
      "akh": 3010,
      "स्ला": 3011,
      "▁మొ": 3012,
      "पात": 3013,
      "నాగ": 3014,
      "త్తర": 3015,
      "ులు\")": 3016,
      "▁हुआ": 3017,
      "गणना": 3018,
      "india.gov.in/2011": 3019,
      "▁लिए": 3020,
      "శ్మీ": 3021,
      "మూస:": 3022,
      "राष्ट्रपति": 3023,
      "र्नाटक": 3024,
      "az": 3025,
      "cent": 3026,
      "iew": 3027,
      "s.[[": 3028,
      "▁en": 3029,
      "▁over": 3030,
      "tis": 3031,
      "read": 3032,
      "arh": 3033,
      "▁includ": 3034,
      "▁sup": 3035,
      "▁summit\")": 3036,
      "▁caste": 3037,
      "wealth": 3038,
      "etail": 3039,
      "▁music": 3040,
      "▁war": 3041,
      "▁21": 3042,
      "▁BCE": 3043,
      "▁National": 3044,
      "▁group": 3045,
      "▁general": 3046,
      "▁For": 3047,
      "▁national": 3048,
      "148": 3049,
      "▁[*India": 3050,
      "▁\"Economy": 3051,
      "](./Economy": 3052,
      ".indiatimes.com/": 3053,
      ".php": 3054,
      "7-0)": 3055,
      "cat": 3056,
      "iz": 3057,
      "काल": 3058,
      "लंका": 3059,
      "वै": 3060,
      "▁[ह": 3061,
      "▁[doi": 3062,
      "ara": 3063,
      "encies": 3064,
      "ised": 3065,
      "र्जा": 3066,
      "inguis": 3067,
      "▁जून": 3068,
      "्टी": 3069,
      "▁[Ch": 3070,
      "िमालय": 3071,
      "905": 3072,
      "oi_(identifier)": 3073,
      "▁होता": 3074,
      "▁\"Doi": 3075,
      "](./Doi_(identifier)": 3076,
      "▁स्था": 3077,
      "ipedia": 3078,
      "▁(identifier)\"):[10.": 3079,
      "▁[doi](./Doi_(identifier)": 3080,
      ".b": 3081,
      "2/": 3082,
      "9)": 3083,
      "EO": 3084,
      "WEO": 3085,
      "▁$": 3086,
      "▁und": 3087,
      "▁[e](./": 3088,
      "ters": 3089,
      "▁2017": 3090,
      "▁Times": 3091,
      "tud": 3092,
      "sha": 3093,
      "ket": 3094,
      "ेस": 3095,
      "శా": 3096,
      "ైనా": 3097,
      "▁ల": 3098,
      "▁फ़": 3099,
      "▁थी": 3100,
      "](./ఇ": 3101,
      "](./స": 3102,
      "▁[ఇ": 3103,
      "▁[India": 3104,
      "▁\"జ": 3105,
      "teen": 3106,
      "▁सु": 3107,
      "्यता": 3108,
      "itary": 3109,
      "lec": 3110,
      "-111": 3111,
      "्त्र": 3112,
      "భారత_": 3113,
      "▁dec": 3114,
      "▁बन": 3115,
      "adh": 3116,
      "▁BRICS": 3117,
      "_(India)": 3118,
      "▁It": 3119,
      "ake": 3120,
      "లో](./": 3121,
      "ow/": 3122,
      "రిజ": 3123,
      "క్కు": 3124,
      "ండ్": 3125,
      "▁War": 3126,
      "जाति": 3127,
      "](./Special:BookSources/978-0": 3128,
      "▁\"Special:BookSources/978-0": 3129,
      "धानमंत्री": 3130,
      "eshow/": 3131,
      "ंग्रेस": 3132,
      "पूर्": 3133,
      "▁क्षेत्र\")": 3134,
      "्रीका": 3135,
      "South_Asian_": 3136,
      "▁खाना\")": 3137,
      "माणु": 3138,
      "rganisation": 3139,
      "ughal": 3140,
      "द्योगिकी": 3141,
      "స్కృతి": 3142,
      "IMF": 3143,
      "▁two": 3144,
      "▁दिसम्बर": 3145,
      "64": 3146,
      "Pr": 3147,
      "Uttar": 3148,
      "site": 3149,
      "▁time": 3150,
      "arb": 3151,
      "itz": 3152,
      "ives": 3153,
      "▁28": 3154,
      "olper": 3155,
      "▁Fe": 3156,
      "ock": 3157,
      "▁original](https://": 3158,
      "▁Commissioner": 3159,
      "olpert": 3160,
      "C).": 3161,
      "IA": 3162,
      "Pakistan": 3163,
      "data": 3164,
      "दार": 3165,
      "िं": 3166,
      "िहार": 3167,
      "ूह": 3168,
      "ोष": 3169,
      "▁ऊ": 3170,
      "▁लेख": 3171,
      "](./ओ": 3172,
      "▁[V": 3173,
      "▁\"ओ": 3174,
      "city": 3175,
      "edi": 3176,
      "▁पर्व": 3177,
      "▁अरब": 3178,
      "▁2.": 3179,
      "्यात": 3180,
      "हाय": 3181,
      "▁लोक": 3182,
      "▁प्राचीन": 3183,
      "▁शासन": 3184,
      "ublishing": 3185,
      ".aspx": 3186,
      "119": 3187,
      "63": 3188,
      "Craven": 3189,
      "cture": 3190,
      "mong": 3191,
      "right": 3192,
      "slam": 3193,
      "yayan": 3194,
      "▁[m": 3195,
      "ndaman": 3196,
      "alley": 3197,
      "omin": 3198,
      "ooperation": 3199,
      "▁spe": 3200,
      "ivil": 3201,
      "rahm": 3202,
      "▁modern": 3203,
      ".cms": 3204,
      "▁Budd": 3205,
      "▁\"Ch": 3206,
      "harat": 3207,
      "lations": 3208,
      "▁Press](./": 3209,
      "itecture": 3210,
      "978-0-19-9": 3211,
      "olitics": 3212,
      "978-0-521-80": 3213,
      "▁period": 3214,
      "atsyayan": 3215,
      "Hinduism": 3216,
      "ujar": 3217,
      "904-7": 3218,
      "Craven1997": 3219,
      "978-0-521-80904-7": 3220,
      "&s": 3221,
      "has": 3222,
      "know": 3223,
      "stitu": 3224,
      "छत्त": 3225,
      "योग": 3226,
      "हरी": 3227,
      "ीन": 3228,
      "ैंड": 3229,
      "ం:": 3230,
      "ఆసియా": 3231,
      "బా": 3232,
      "▁ओ": 3233,
      "▁राष्ट्र": 3234,
      "▁up": 3235,
      "▁[చ": 3236,
      "▁[జ": 3237,
      "▁\"చ": 3238,
      "▁(eds.": 3239,
      "र्स": 3240,
      "](./भारत_की_": 3241,
      "▁अर्थ": 3242,
      "▁दर": 3243,
      "▁పా": 3244,
      "▁प्रति": 3245,
      "▁प्रमुख": 3246,
      "స్త్ర": 3247,
      "▁2004": 3248,
      "▁వా": 3249,
      "▁grow": 3250,
      "ండు": 3251,
      "▁చూ": 3252,
      "త్వ": 3253,
      "▁स्थान": 3254,
      "▁తే": 3255,
      "हीं": 3256,
      "▁द्वारा": 3257,
      "▁मार्च": 3258,
      "వంశం": 3259,
      "inguistic": 3260,
      "▁फ़रवरी": 3261,
      "छत्तीस": 3262,
      "-of": 3263,
      "5_": 3264,
      "500": 3265,
      "de": 3266,
      "▁0.": 3267,
      "ird": 3268,
      "osed": 3269,
      "1990": 3270,
      "▁than": 3271,
      "▁[*The": 3272,
      "ministr": 3273,
      "_उ": 3274,
      "ehr": 3275,
      "m.nic.in/": 3276,
      "ncl": 3277,
      "owe": 3278,
      "rish": 3279,
      "va": 3280,
      "vatsyayan": 3281,
      "wal": 3282,
      "च्": 3283,
      "णे": 3284,
      "धि": 3285,
      "ल्या": 3286,
      "ाट": 3287,
      "ैल": 3288,
      "०१": 3289,
      "▁other": 3290,
      "▁[ओ": 3291,
      "▁[च": 3292,
      "an\")": 3293,
      "▁मैदान": 3294,
      "2017": 3295,
      "▁sh": 3296,
      "▁such": 3297,
      "ivision": 3298,
      "ussia": 3299,
      "ाले": 3300,
      "▁जल": 3301,
      "▁Main": 3302,
      "Spear": 3303,
      ".[[3": 3304,
      "वाद": 3305,
      "वादी": 3306,
      "](./Ch": 3307,
      "▁Language": 3308,
      "र्वो": 3309,
      "िये": 3310,
      "ंधी": 3311,
      "तेलु": 3312,
      "-108": 3313,
      "▁[2](./भारत#cite_ref-": 3314,
      "▁[1](./भारत#cite_ref-": 3315,
      "_BRICS": 3316,
      "▁later": 3317,
      "-lord": 3318,
      "श्रीलंका": 3319,
      "▁स्थाप": 3320,
      "nclm.nic.in/": 3321,
      "vatsyayan-lord": 3322,
      "76": 3323,
      "84": 3324,
      "_2": 3325,
      "ealth": 3326,
      "lor": 3327,
      "pa": 3328,
      "](./I": 3329,
      "reat": 3330,
      "ering": 3331,
      "▁(*": 3332,
      "▁Con": 3333,
      "▁Plate": 3334,
      "resent": 3335,
      "▁Min": 3336,
      "103": 3337,
      "obal": 3338,
      "tent": 3339,
      "](./List_of_countries_by_": 3340,
      "81": 3341,
      ":भारत": 3342,
      "LA": 3343,
      "_సా": 3344,
      "files/": 3345,
      "hy": 3346,
      "एशिया": 3347,
      "क्स": 3348,
      "खण्ड": 3349,
      "पान": 3350,
      "िला": 3351,
      "िस्तान": 3352,
      "ुंबई": 3353,
      "ॉल": 3354,
      "१९": 3355,
      "ంప": 3356,
      "కో": 3357,
      "గణ": 3358,
      "దిన": 3359,
      "నై": 3360,
      "రీ": 3361,
      "▁भा": 3362,
      "](./ल": 3363,
      "](./జ": 3364,
      "▁[భారతీయ": 3365,
      "▁\"ल": 3366,
      "\"):": 3367,
      "tel": 3368,
      "ould": 3369,
      "ical_": 3370,
      "2016": 3371,
      "ram": 3372,
      "▁Sanskrit": 3373,
      "ammu": 3374,
      "▁2013": 3375,
      "▁Modern": 3376,
      "▁बना": 3377,
      "adu": 3378,
      "▁British": 3379,
      "ताब्": 3380,
      "రాజ": 3381,
      "▁క్రీ": 3382,
      "క్‌": 3383,
      "నికి": 3384,
      "ంగీ": 3385,
      "▁సి": 3386,
      "▁2022": 3387,
      "నాభా": 3388,
      "bruary": 3389,
      "▁K.": 3390,
      "జాబి": 3391,
      "रेल": 3392,
      "ervation": 3393,
      "▁Environment": 3394,
      "पालिका": 3395,
      "▁శా": 3396,
      "▁सिनेमा": 3397,
      "-in-": 3398,
      "▁భాష\")": 3399,
      "బెంగ": 3400,
      "िक्किम": 3401,
      "▁February": 3402,
      "ताब्दी": 3403,
      "జాబితా": 3404,
      "BC": 3405,
      "_W": 3406,
      "ij": 3407,
      "▁ref": 3408,
      "▁art": 3409,
      "▁[978-0-": 3410,
      "ald": 3411,
      "▁(2018": 3412,
      "ict": 3413,
      "▁south": 3414,
      "trar": 3415,
      "trol": 3416,
      "rav": 3417,
      "▁Pakistan": 3418,
      "▁mathe": 3419,
      "▁2018](./India#CITEREF": 3420,
      "▁1947": 3421,
      "aka": 3422,
      "owland": 3423,
      "▁[\"C": 3424,
      "ocument": 3425,
      "ainting": 3426,
      "](./Special:BookSources/978-0-": 3427,
      "▁\"Special:BookSources/978-0-": 3428,
      "hai": 3429,
      "MetcalfMetcalf2006),": 3430,
      "ultan": 3431,
      "limate": 3432,
      "gistrar": 3433,
      "](./Economy_of_": 3434,
      "\"](https://books.google.com/books?id=": 3435,
      ".IN": 3436,
      "TR": 3437,
      "UN": 3438,
      "भो": 3439,
      "रक्ष": 3440,
      "ीमा": 3441,
      "▁भाग": 3442,
      "ini": 3443,
      "thnologue": 3444,
      "ale": 3445,
      "esearch": 3446,
      "▁पह": 3447,
      "ama": 3448,
      "नाम": 3449,
      "▁दो": 3450,
      "▁2015": 3451,
      "▁Bengal": 3452,
      "ताज": 3453,
      "▁2003": 3454,
      "▁[\"India": 3455,
      "▁2024": 3456,
      "▁Kashmir": 3457,
      "erala": 3458,
      "onstituent": 3459,
      "▁Hindi": 3460,
      "ances": 3461,
      "हिमा": 3462,
      "भीम": 3463,
      "▁गणराज्य": 3464,
      "▁2021.\r\n": 3465,
      "WEO.IN": 3466,
      "IMFWEO.IN": 3467,
      "च्छ": 3468,
      "Ludden": 3469,
      "Qu": 3470,
      "UCN": 3471,
      "go": 3472,
      "ocal": 3473,
      "religion": 3474,
      "errit": 3475,
      "chin": 3476,
      "ependent": 3477,
      "▁northern": 3478,
      "▁Act,": 3479,
      ".htm": 3480,
      "Dikshit": 3481,
      "European": 3482,
      "Schwartzberg": 3483,
      "_13": 3484,
      "hat": 3485,
      "history": 3486,
      "झार": 3487,
      "त्या": 3488,
      "स्व": 3489,
      "ौद्योगिकी": 3490,
      "చల్": 3491,
      "యన్": 3492,
      "షు": 3493,
      "ూర్": 3494,
      "▁j": 3495,
      "▁छ": 3496,
      "](./ప": 3497,
      "](./భారతీయ": 3498,
      "](./पंजाब": 3499,
      "▁[p": 3500,
      "▁[భారత": 3501,
      "▁[हिन्दी": 3502,
      "▁[पुरा": 3503,
      "▁\"पंजाब": 3504,
      "arg": 3505,
      "ann": 3506,
      "2015": 3507,
      "▁India.": 3508,
      "ారం": 3509,
      "ార్ట": 3510,
      "्ता": 3511,
      "atus": 3512,
      "ాలయ": 3513,
      "▁million": 3514,
      "ovember": 3515,
      "ेशिया": 3516,
      "न्स": 3517,
      "▁नदी": 3518,
      "विध": 3519,
      "▁ear": 3520,
      "క్క": 3521,
      "▁వ్యవస్థ": 3522,
      "ల్ల": 3523,
      "नेक": 3524,
      "▁संबंध": 3525,
      "प्रा": 3526,
      "ast_Asia": 3527,
      "ండో": 3528,
      "ముంబ": 3529,
      "▁ये": 3530,
      "upta": 3531,
      "సిన": 3532,
      "oreign": 3533,
      "▁भाषाओं": 3534,
      "al_P": 3535,
      "ूनिव": 3536,
      "ినల్": 3537,
      "▁हैं,": 3538,
      "ద్ద": 3539,
      "▁ఉన్న": 3540,
      "▁ఉన్నాయ": 3541,
      "िशा": 3542,
      "పాకిస్తాన్": 3543,
      "▁इसके": 3544,
      "वीं": 3545,
      "ूरो": 3546,
      "ంధీ": 3547,
      "पूर्वी": 3548,
      "inistry_of_": 3549,
      "_संघ": 3550,
      "▁ఒక": 3551,
      "▁ఒరిజ": 3552,
      "▁कार्य": 3553,
      "▁classical": 3554,
      "हित्य": 3555,
      "▁न्यायालय": 3556,
      "▁अगस्त": 3557,
      "धिकारिक": 3558,
      "▁(eds.).": 3559,
      "▁తేదీ": 3560,
      "र्वोच्च": 3561,
      "DikshitSchwartzberg": 3562,
      "▁[पुरालेखित": 3563,
      "ార్టీ": 3564,
      "▁ఒరిజినల్": 3565,
      "-a": 3566,
      "5%": 3567,
      "61": 3568,
      "Pe": 3569,
      "_O": 3570,
      "dr": 3571,
      "ks": 3572,
      "▁comm": 3573,
      "_Centre": 3574,
      "▁union": 3575,
      "85": 3576,
      "Template:": 3577,
      "nam": 3578,
      "o.": 3579,
      "press": 3580,
      "टि": 3581,
      "निक": 3582,
      "मर": 3583,
      "ळे": 3584,
      "िख": 3585,
      "▁40": 3586,
      "▁[ग": 3587,
      "▁[पंजाब": 3588,
      "▁\"19": 3589,
      "anip": 3590,
      "र्ष": 3591,
      "▁All": 3592,
      "uslim": 3593,
      "ety": 3594,
      ".org/wik": 3595,
      "▁Bank": 3596,
      ".com/news/": 3597,
      "▁history": 3598,
      "▁गा": 3599,
      "▁गु": 3600,
      "▁इंडिया": 3601,
      "▁2021.": 3602,
      "23)": 3603,
      "ourn": 3604,
      "ourt": 3605,
      "िरपे": 3606,
      "▁आहेत.": 3607,
      "Hindust": 3608,
      "/articleshow/": 3609,
      "www.censusindia.gov.in/2011": 3610,
      "▁under": 3611,
      "anipur": 3612,
      "िरपेक्ष": 3613,
      "3_": 3614,
      "6–": 3615,
      "6]](./India#cite_note-FOOTNOTE": 3616,
      "_K": 3617,
      "ahar": 3618,
      "c=": 3619,
      "can": 3620,
      "ft": 3621,
      "fic": 3622,
      "languages": 3623,
      "ures": 3624,
      "▁em": 3625,
      "](./Indo-": 3626,
      "▁\"Indo-": 3627,
      "eral_": 3628,
      "arn": 3629,
      "▁incre": 3630,
      "▁some": 3631,
      "econd": 3632,
      "atar": 3633,
      "▁me": 3634,
      "▁2019.": 3635,
      "ada": 3636,
      "▁long": 3637,
      "▁one": 3638,
      "▁who": 3639,
      "_Summit": 3640,
      "62-2": 3641,
      "ricket": 3642,
      "arket": 3643,
      "\"](https://web.archive.org/web/20160": 3644,
      "ependence": 3645,
      "ynast": 3646,
      "-107-111": 3647,
      "▁economic": 3648,
      "82905": 3649,
      "978-0-19-882905": 3650,
      "Harle1994": 3651,
      "_in_South_Asia": 3652,
      "frica": 3653,
      "-780": 3654,
      "ehru": 3655,
      "erritory": 3656,
      "ast_Asia_Summit": 3657,
      "-107-11162-2": 3658,
      "978-0-19-882905-8": 3659,
      ".fr": 3660,
      "75": 3661,
      "8-0)": 3662,
      "_धर्म": 3663,
      "sch": 3664,
      "डा": 3665,
      "थल": 3666,
      "शक": 3667,
      "ूस": 3668,
      "ेक": 3669,
      "ం?action=edit&redlink=1": 3670,
      "చే": 3671,
      "జ్": 3672,
      "వరి": 3673,
      "శ్చ": 3674,
      "ిన్న": 3675,
      "ెల": 3676,
      "▁ला": 3677,
      "▁[ल": 3678,
      "▁[United": 3679,
      "▁\"భారతదేశ": 3680,
      "orities": 3681,
      "▁कु": 3682,
      "▁सैन": 3683,
      "▁मध्य": 3684,
      "్రె": 3685,
      "-00": 3686,
      "truc": 3687,
      "▁केन्द्र": 3688,
      "▁अप्र": 3689,
      "▁अनेक": 3690,
      "ालदीव": 3691,
      "▁दि": 3692,
      "ियां": 3693,
      "2024": 3694,
      "▁से](http://": 3695,
      "నిస్తాన్": 3696,
      "वायु": 3697,
      "▁ము": 3698,
      "▁ప్రధాన": 3699,
      "▁[Asher": 3700,
      "▁लग": 3701,
      "िस्ट": 3702,
      "▁करने": 3703,
      "](./భారతదేశంలో": 3704,
      "पर्यटन": 3705,
      "▁*[The": 3706,
      "हिन्द": 3707,
      "ंग्रेजी": 3708,
      "ouse": 3709,
      "స్థాన్": 3710,
      "▁मेला\")": 3711,
      "करण": 3712,
      "ependencies": 3713,
      "▁धर्म\")": 3714,
      "▁పేజీ": 3715,
      "meric": 3716,
      "మ్మూ": 3717,
      "▁Assembly": 3718,
      "▁\"భారతదేశంలో": 3719,
      "▁చూసిన": 3720,
      "▁తేదీ:": 3721,
      "శ్చి": 3722,
      "▁పేజీని": 3723,
      "/D": 3724,
      "_for": 3725,
      "bc": 3726,
      "han": 3727,
      "ls": 3728,
      "men": 3729,
      "tition": 3730,
      "ofile": 3731,
      "omas": 3732,
      "▁since": 3733,
      "122": 3734,
      "▁Economic": 3735,
      "▁Fr": 3736,
      "abad": 3737,
      "ingham": 3738,
      "▁China": 3739,
      "▁territory": 3740,
      "ector": 3741,
      "oduction": 3742,
      "▁Indus": 3743,
      "ictionary": 3744,
      "/auth": 3745,
      "1-2": 3746,
      "6]](./India#cite_note-": 3747,
      "busines": 3748,
      "detail": 3749,
      "eg": 3750,
      "fgh": 3751,
      "iol": 3752,
      "k:": 3753,
      "ymb": 3754,
      "त्व": 3755,
      "थे": 3756,
      "दल": 3757,
      "दर्": 3758,
      "लंग": 3759,
      "ृष्ट": 3760,
      "ोब": 3761,
      "ोह": 3762,
      "–10": 3763,
      "▁article": 3764,
      "▁industry": 3765,
      "](./व": 3766,
      "▁\"व": 3767,
      "▁\"Oxford": 3768,
      "tice": 3769,
      "ther": 3770,
      "ार्": 3771,
      "ala": 3772,
      "ally": 3773,
      "rac": 3774,
      "▁वे": 3775,
      "urton": 3776,
      "▁many": 3777,
      "▁minister": 3778,
      "ility": 3779,
      "olution": 3780,
      "Special:EditPage/": 3781,
      "▁large": 3782,
      "-317": 3783,
      "▁religion": 3784,
      "26)": 3785,
      "ainism": 3786,
      "ंडोन": 3787,
      "▁रहा": 3788,
      "▁Official": 3789,
      "ंध्र": 3790,
      "ते.": 3791,
      "▁अनु": 3792,
      "](./Re": 3793,
      "▁\"Re": 3794,
      "▁प्राप्त": 3795,
      "ligence": 3796,
      "overe": 3797,
      "ैदिक": 3798,
      "ohn": 3799,
      "वेब": 3800,
      "▁tex": 3801,
      "गुजराती": 3802,
      "▁भूम": 3803,
      "▁people": 3804,
      "_Island": 3805,
      "ommonwealth": 3806,
      "त्रिपुरा": 3807,
      "teenth": 3808,
      "Spear1990": 3809,
      "telligence": 3810,
      "www.censusindia.gov.in/2011census": 3811,
      "fghan": 3812,
      "Special:EditPage/Template:": 3813,
      "-B": 3814,
      "-India": 3815,
      "94": 3816,
      "aus": 3817,
      "hang": 3818,
      "lia": 3819,
      "▁50": 3820,
      "▁land": 3821,
      "▁(1,": 3822,
      "2002": 3823,
      "▁Al": 3824,
      "▁Cons": 3825,
      "▁Raj": 3826,
      "umar": 3827,
      "▁[\"The": 3828,
      "28)": 3829,
      "rote": 3830,
      "▁used": 3831,
      "7).": 3832,
      "99": 3833,
      "_द": 3834,
      "ihar": 3835,
      "tb": 3836,
      "ंट": 3837,
      "खन": 3838,
      "गत": 3839,
      "तट": 3840,
      "फल": 3841,
      "मह": 3842,
      "ाप": 3843,
      "िज": 3844,
      "ील": 3845,
      "షన్": 3846,
      "హ్": 3847,
      "▁భారతదేశ": 3848,
      "▁ले": 3849,
      "▁term": 3850,
      "](./ग": 3851,
      "](./च": 3852,
      "](./प": 3853,
      "](./అ": 3854,
      "▁[Oxford": 3855,
      "▁\"ग": 3856,
      "▁\"च": 3857,
      "▁\"प": 3858,
      "tig": 3859,
      "ार्क": 3860,
      "▁सर्": 3861,
      "▁India*](https://books.google.com/books?id=": 3862,
      "▁हा": 3863,
      "▁वार": 3864,
      "etary": 3865,
      "▁जी": 3866,
      "ेशन": 3867,
      "▁दिल्ली": 3868,
      "resident": 3869,
      "▁పరి": 3870,
      "▁प्रकार": 3871,
      "▁आक": 3872,
      "▁def": 3873,
      "▁नृत्य": 3874,
      "▁नहीं": 3875,
      "ాలు\r\n": 3876,
      "రియా": 3877,
      "▁शताब्दी": 3878,
      "▁उद्यान": 3879,
      "▁number": 3880,
      "▁మార్": 3881,
      "▁है।[[": 3882,
      "ीपी": 3883,
      "विशेष:EditPage/": 3884,
      "▁हुए": 3885,
      "▁సంస్కృతి": 3886,
      "దీవ": 3887,
      "▁स्रोत/978-1": 3888,
      "](./विशेष:पुस्तक_स्रोत/978-1": 3889,
      "▁उत्पाद": 3890,
      "_साम्राज्य": 3891,
      "union_territ": 3892,
      "▁चुनाव": 3893,
      "रेलू": 3894,
      "▁[पुरालेखित](https://web.archive.org/web/201": 3895,
      "विशेष:EditPage/साँचा:": 3896,
      "3]](./India#cite_note-FOOTNOTE": 3897,
      "Asia": 3898,
      "aur": 3899,
      "cog": 3900,
      "ea": 3901,
      "election": 3902,
      "jan": 3903,
      "ns": 3904,
      "ria": 3905,
      "rup": 3906,
      "ver": 3907,
      "y,": 3908,
      "▁ci": 3909,
      "▁oc": 3910,
      "▁6.": 3911,
      "▁emp": 3912,
      "▁...": 3913,
      "](./History": 3914,
      "▁\"History": 3915,
      "arna": 3916,
      "▁there": 3917,
      "astern": 3918,
      "lated": 3919,
      "▁Arab": 3920,
      "▁SAARC": 3921,
      "▁both": 3922,
      "cean": 3923,
      "ulti": 3924,
      "▁General": 3925,
      "▁rep": 3926,
      "160": 3927,
      "Indones": 3928,
      "▁beg": 3929,
      "978-0-19-5": 3930,
      "▁trans": 3931,
      "▁Islands": 3932,
      "rdu": 3933,
      "hola": 3934,
      "arliamentary": 3935,
      "ergy": 3936,
      "▁2006](./India#CITEREFMetcalfMetcalf2006),": 3937,
      "▁article:": 3938,
      "fghanistan": 3939,
      "▁occ": 3940,
      "3TR": 3941,
      "7,": 3942,
      "Ar": 3943,
      "_Infor": 3944,
      "back": 3945,
      "t,": 3946,
      "गू": 3947,
      "तन": 3948,
      "बी": 3949,
      "लया": 3950,
      "्यान": 3951,
      "▁व्या": 3952,
      "ISO": 3953,
      "_of_the": 3954,
      "▁बंगाल": 3955,
      "▁ते": 3956,
      "00)": 3957,
      "imf": 3958,
      "▁संसद": 3959,
      "_मंदिर": 3960,
      "harm": 3961,
      "▁area": 3962,
      "रुणा": 3963,
      "ुरू": 3964,
      "actbook": 3965,
      "▁लेख:": 3966,
      "3TRt": 3967,
      "_Informatics": 3968,
      "9).": 3969,
      "_11": 3970,
      "bank": 3971,
      "ix": 3972,
      "mation": 3973,
      "uth": 3974,
      "cha": 3975,
      "inger": 3976,
      "▁Science": 3977,
      "▁CE": 3978,
      "▁R.": 3979,
      "▁India\").": 3980,
      "imalay": 3981,
      "odi": 3982,
      "▁GDP": 3983,
      "ubcontinent": 3984,
      "MetcalfMetcalf2012": 3985,
      "▁status": 3986,
      "ociety": 3987,
      ".aspx?": 3988,
      "*)": 3989,
      "-विज्ञान": 3990,
      "/article": 3991,
      "5]](./India#cite_note-FOOTNOTE": 3992,
      "Ary": 3993,
      "Robb": 3994,
      "Sharma": 3995,
      "britannica": 3996,
      "ili": 3997,
      "mme": 3998,
      "oon": 3999,
      "war": 4000,
      "ँच": 4001,
      "ईरा": 4002,
      "फ्रीका": 4003,
      "वली": 4004,
      "षय": 4005,
      "ाक": 4006,
      "ीच": 4007,
      "ेघ": 4008,
      "ం\"),": 4009,
      "ంత్రి": 4010,
      "ఆఫ్": 4011,
      "కత": 4012,
      "కై": 4013,
      "క్య": 4014,
      "దాయ": 4015,
      "రే": 4016,
      "లంక": 4017,
      "వీ": 4018,
      "శ్రీ": 4019,
      "షి": 4020,
      "సు": 4021,
      "ెలు": 4022,
      "▁५": 4023,
      "▁ఏ": 4024,
      "](./చ": 4025,
      "](./South": 4026,
      "](./United": 4027,
      "](./हिन्दी": 4028,
      "](./पाकिस्तान": 4029,
      "▁[व": 4030,
      "▁[सा": 4031,
      "▁[సి": 4032,
      "▁[पाकिस्तान": 4033,
      "▁\"India": 4034,
      "▁\"ప్ర": 4035,
      "▁\"United": 4036,
      "▁\"हिन्दी": 4037,
      "▁\"पाकिस्तान": 4038,
      "inance": 4039,
      "▁कई": 4040,
      "▁क्र": 4041,
      "▁among": 4042,
      "▁सद": 4043,
      "▁(India": 4044,
      "▁महासागर": 4045,
      "ick": 4046,
      "राठी": 4047,
      "chool": 4048,
      "▁power": 4049,
      "▁sp": 4050,
      "▁social": 4051,
      "-16": 4052,
      "iving": 4053,
      "▁Summit\")": 4054,
      "▁mil": 4055,
      "▁maj": 4056,
      "▁పార్టీ": 4057,
      "▁आधिकारिक": 4058,
      "స్సా": 4059,
      "न्दा": 4060,
      "న్‌": 4061,
      "▁Delhi": 4062,
      "124": 4063,
      "▁కు": 4064,
      "▁Gandhi": 4065,
      "owing": 4066,
      "▁వచ్చ": 4067,
      "▁From": 4068,
      "▁మధ్య": 4069,
      "हाद्वीप": 4070,
      "तेलंग": 4071,
      "▁करोड़": 4072,
      "Ins": 4073,
      "▁[अंग्रेज़ी": 4074,
      "▁\"अंग्रेज़ी": 4075,
      "हिन्दू": 4076,
      "हरिया": 4077,
      "▁राजनी": 4078,
      "uddhism": 4079,
      "▁\"National": 4080,
      "िवस": 4081,
      "rade": 4082,
      "मुद्र": 4083,
      "](./National": 4084,
      "గాంధీ": 4085,
      "▁जनगणना": 4086,
      "_Empire": 4087,
      "▁हैं।\r\n": 4088,
      "ogramme": 4089,
      "ultural": 4090,
      "ैदरा": 4091,
      "ब्ब": 4092,
      "నేపాల": 4093,
      "ष्ण": 4094,
      "Oxford_University_Press": 4095,
      "aniz": 4096,
      "Stein2010),": 4097,
      "गातील": 4098,
      "orests": 4099,
      "rganiz": 4100,
      "▁పేరు": 4101,
      "74-108": 4102,
      "▁द्वीप": 4103,
      "▁Empire\")": 4104,
      "▁कारण": 4105,
      "गोआ": 4106,
      "न्दिर": 4107,
      "ित्रपट": 4108,
      "_मेला?action=edit&redlink=1": 4109,
      "▁చెయ్య": 4110,
      "▁स्थित": 4111,
      "ोर्ड": 4112,
      "नाडु": 4113,
      "▁కూడా": 4114,
      "▁संस्कृति": 4115,
      "yanmar": 4116,
      "▁2010](./India#CITEREFStein2010),": 4117,
      "▁Press](./Oxford_University_Press": 4118,
      "ujarat": 4119,
      "र्सिट": 4120,
      "ministrative": 4121,
      "ంగీతం": 4122,
      "ultanate": 4123,
      "हिमाचल": 4124,
      "झारखंड": 4125,
      "ముంబై": 4126,
      "ूनिवर्सिट": 4127,
      "-78074-108": 4128,
      "శ్చిమ": 4129,
      "वेबैक": 4130,
      "Spear199024": 4131,
      "britannica.com/": 4132,
      "▁[अंग्रेज़ी](./अ": 4133,
      "▁చెయ్యబడ": 4134,
      "-78074-108-6": 4135,
      "-pr": 4136,
      "8/": 4137,
      "Wolpert": 4138,
      "_n": 4139,
      "tandard": 4140,
      "2020": 4141,
      "1947": 4142,
      "ams": 4143,
      "▁Mon": 4144,
      "▁2005": 4145,
      "own": 4146,
      "▁3,": 4147,
      "epart": 4148,
      "inese": 4149,
      ".org/wiki/": 4150,
      "epartment": 4151,
      "-r": 4152,
      ".world": 4153,
      "7_": 4154,
      "CL": 4155,
      "Report": 4156,
      "_घ": 4157,
      "_राज": 4158,
      "day": 4159,
      "भर": 4160,
      "मे": 4161,
      "मध्ये": 4162,
      "ोस": 4163,
      "्ले": 4164,
      "▁/": 4165,
      "▁ed.).": 4166,
      "](./दक्षिण": 4167,
      "▁[प": 4168,
      "▁[दक्षिण": 4169,
      "▁\"दक्षिण": 4170,
      "ery": 4171,
      "isc": 4172,
      "omes": 4173,
      "▁they": 4174,
      "ecur": 4175,
      "▁C.": 4176,
      "▁made": 4177,
      "▁2011.": 4178,
      "▁आर्थिक": 4179,
      "index": 4180,
      "2022": 4181,
      "eval": 4182,
      "क्षर": 4183,
      "षाण": 4184,
      "abl": 4185,
      "ंडी": 4186,
      "230": 4187,
      "25)": 4188,
      "▁देश\")": 4189,
      "▁होती": 4190,
      "▁२०१": 4191,
      "पीठ": 4192,
      "ुरक्षा": 4193,
      "▁साम्राज्य\")": 4194,
      "▁maint:": 4195,
      "edieval": 4196,
      "ournal": 4197,
      "रुणाचल": 4198,
      "_Informatics_Centre": 4199,
      "-C": 4200,
      "_g": 4201,
      "eal": 4202,
      "eograph": 4203,
      "nf": 4204,
      "ning": 4205,
      "rin": 4206,
      "y-": 4207,
      "cip": 4208,
      "eda": 4209,
      "▁(199": 4210,
      "▁(2006": 4211,
      "icha": 4212,
      "asing": 4213,
      "1970": 4214,
      "ament": 4215,
      "▁found": 4216,
      "olk": 4217,
      ".[[4": 4218,
      "epal": 4219,
      "▁non-": 4220,
      "](https://web.archive.org/web/200": 4221,
      "▁\"Category:": 4222,
      "](./Category:": 4223,
      "otals": 4224,
      "undament": 4225,
      "▁prime": 4226,
      "_East_Asia_Summit": 4227,
      "qual": 4228,
      "AARC_summit": 4229,
      "▁rate": 4230,
      "▁York": 4231,
      "emocracy": 4232,
      "aldives": 4233,
      "ymbol": 4234,
      "Aryan": 4235,
      "▁(India)\")": 4236,
      "rganization": 4237,
      "ichael": 4238,
      "83": 4239,
      "RL": 4240,
      "_వ": 4241,
      "iti": 4242,
      "भु": 4243,
      "भ्यता": 4244,
      "शन": 4245,
      "हरा": 4246,
      "्ह": 4247,
      "१८": 4248,
      "గర": 4249,
      "టక": 4250,
      "టా": 4251,
      "దార": 4252,
      "నీ": 4253,
      "రో": 4254,
      "సభ": 4255,
      "ెద్ద": 4256,
      "](./భారత_": 4257,
      "▁\"సి": 4258,
      "ors": 4259,
      "▁कुल": 4260,
      "भारत)": 4261,
      "▁सूचना": 4262,
      "ominal": 4263,
      "▁पश्चिम": 4264,
      "as,": 4265,
      "1950": 4266,
      "ानव": 4267,
      "र्ज": 4268,
      "trag": 4269,
      "](./भारत_का_": 4270,
      "▁States": 4271,
      "▁अव": 4272,
      "▁दशक": 4273,
      "▁పు": 4274,
      "▁diff": 4275,
      "▁बीच": 4276,
      "▁नद": 4277,
      "तात.": 4278,
      "▁से](http://www.": 4279,
      "▁D.": 4280,
      "రాజ్య": 4281,
      "▁కొ": 4282,
      "▁కేంద్రపాలిత": 4283,
      "▁शक्ति": 4284,
      "▁इन": 4285,
      "▁మా": 4286,
      "▁చే": 4287,
      "ము\")": 4288,
      "▁लोग": 4289,
      "త్స": 4290,
      "▁రాజ్య": 4291,
      "వాతంత్ర": 4292,
      "▁क्षेत्रीय": 4293,
      "▁जाती": 4294,
      "जनसंख्या": 4295,
      "▁जनसंख्या": 4296,
      "▁वर्ग": 4297,
      "▁దేశాల": 4298,
      "द्वार": 4299,
      "गणराज्य": 4300,
      "లాదేశ్": 4301,
      "]](./भारत#cite_note-FOOTNOTEStein1998": 4302,
      "]](./भारत#cite_note-FOOTNOTESingh2009": 4303,
      "స్తు": 4304,
      "▁సామ్రాజ్యం](./": 4305,
      "హిందీ": 4306,
      "▁భాషలు": 4307,
      "ంగ్లాదేశ్": 4308,
      "ారు.": 4309,
      ".html)": 4310,
      "_ప్రా": 4311,
      "त्तराखण्ड": 4312,
      "్రిటి": 4313,
      "▁शिक्षा": 4314,
      "▁estim": 4315,
      "▁भारताच्या": 4316,
      "▁అధికార": 4317,
      "▁अर्थव्यवस्था": 4318,
      "ताजमह": 4319,
      "ూర్పు": 4320,
      "▁[हिन्दी](./हिन्दी": 4321,
      "▁अप्रैल": 4322,
      "▁మార్గ": 4323,
      "3TRtDwAAQBAJ&pg=PA": 4324,
      "కైవు": 4325,
      "ंडीगढ़": 4326,
      "traglia": 4327,
      "\"[[": 4328,
      "-h": 4329,
      "91": 4330,
      "gu": 4331,
      "ii": 4332,
      "ves": 4333,
      "▁[4": 4334,
      "▁[c": 4335,
      "reed": 4336,
      "en.wik": 4337,
      "▁country": 4338,
      "▁Publishing": 4339,
      "_of_C": 4340,
      "▁Ex": 4341,
      "ung": 4342,
      "▁new": 4343,
      "130": 4344,
      "ounci": 4345,
      "▁right": 4346,
      "▁original](https://www.": 4347,
      "▁Press,": 4348,
      "▁add": 4349,
      "iodiversity": 4350,
      "▁2019.\r\n": 4351,
      "cyclopedia": 4352,
      "apita": 4353,
      "-S": 4354,
      "/link": 4355,
      "2]](./India#cite_note-FOOTNOTE": 4356,
      "7]](./India#cite_note-FOOTNOTE": 4357,
      "8–": 4358,
      "Con": 4359,
      "Census": 4360,
      "IJ": 4361,
      "NGDP": 4362,
      "Re": 4363,
      "Rowland": 4364,
      "_the": 4365,
      "_38": 4366,
      "s_of_India": 4367,
      "tre": 4368,
      "ंची": 4369,
      "बेट": 4370,
      "र\")": 4371,
      "लग": 4372,
      "ेड": 4373,
      "–24": 4374,
      "▁\"[": 4375,
      "thnic": 4376,
      "ortheast": 4377,
      "▁काल": 4378,
      "them": 4379,
      "lack": 4380,
      "-135": 4381,
      "▁हि": 4382,
      "geograph": 4383,
      "▁Pers": 4384,
      "urban": 4385,
      "▁mar": 4386,
      "978-9": 4387,
      "red/link": 4388,
      "operation": 4389,
      "्वे": 4390,
      "ments": 4391,
      "emic": 4392,
      "▁काळ": 4393,
      "क्षद्वीप": 4394,
      "imag": 4395,
      "aksh": 4396,
      "aylor": 4397,
      "▁शहर": 4398,
      "काता": 4399,
      "abha": 4400,
      "▁विस्त": 4401,
      "▁विविध": 4402,
      "asting": 4403,
      "▁2026": 4404,
      "▁रो": 4405,
      "_and_D": 4406,
      "ffice": 4407,
      "▁rule": 4408,
      "ternal": 4409,
      "ance/": 4410,
      "चेन्न": 4411,
      "ोलकाता": 4412,
      "glance/": 4413,
      "तमिळ": 4414,
      "overty": 4415,
      "%E0%A4%A": 4416,
      "road": 4417,
      "शासित_प्रदेश": 4418,
      "-lead": 4419,
      "▁Company": 4420,
      "india-glance/": 4421,
      "shared/link": 4422,
      "▁पर्वत": 4423,
      "nclm.nic.in/shared/link": 4424,
      "भीमबेट": 4425,
      "DikshitSchwartzberg2023": 4426,
      "arnat": 4427,
      "▁सैन्य": 4428,
      "▁began": 4429,
      "Rowland1970": 4430,
      "images/": 4431,
      "चेन्नई": 4432,
      "nclm.nic.in/shared/linkimages/": 4433,
      "भीमबेटका": 4434,
      "5).": 4435,
      "QAAQBAJ&pg=PA": 4436,
      "country": 4437,
      "ling": 4438,
      "oa": 4439,
      "vel": 4440,
      "▁ed": 4441,
      "▁Republic": 4442,
      "▁David": 4443,
      "▁human": 4444,
      "129": 4445,
      "▁Nations": 4446,
      "▁Linguistic": 4447,
      "hief": 4448,
      "ssam": 4449,
      "▁Valley": 4450,
      "▁control": 4451,
      "-largest": 4452,
      ".php?": 4453,
      ".ni": 4454,
      "/d": 4455,
      "II": 4456,
      "_इ": 4457,
      "come": 4458,
      "pla": 4459,
      "ross": 4460,
      "अभ": 4461,
      "तृत": 4462,
      "नु": 4463,
      "पि": 4464,
      "महाद्वीप": 4465,
      "रण": 4466,
      "लिस": 4467,
      "िनेमा": 4468,
      "ुक": 4469,
      "ంజా": 4470,
      "గి": 4471,
      "చు": 4472,
      "టీ": 4473,
      "టాన్": 4474,
      "మంత్రి": 4475,
      "లను": 4476,
      "వె": 4477,
      "వరణ": 4478,
      "హదార": 4479,
      "ూచ": 4480,
      "▁३": 4481,
      "▁హ": 4482,
      "▁रा": 4483,
      "ndra": 4484,
      "▁\"सा": 4485,
      "▁कॉ": 4486,
      "▁कश्मीर": 4487,
      "▁सक": 4488,
      "्यों": 4489,
      "▁India](./G": 4490,
      "్రమ": 4491,
      "-01": 4492,
      "law": 4493,
      "ेंज": 4494,
      "▁11": 4495,
      "▁P.": 4496,
      "▁Public": 4497,
      "uran": 4498,
      "urve": 4499,
      "▁दोन": 4500,
      "▁भारत\")": 4501,
      "▁प्रेस": 4502,
      "▁प्रधानमंत्री": 4503,
      "▁प्रौद्योगिकी": 4504,
      "्वतंत्रता": 4505,
      "▁ब्रिटिश": 4506,
      "even": 4507,
      "భారతదేశ_": 4508,
      "-3)": 4509,
      "▁Government": 4510,
      "▁వ్యా": 4511,
      "▁उन": 4512,
      "▁[मध्य": 4513,
      "▁J.": 4514,
      "407": 4515,
      "▁మత": 4516,
      "▁మతము": 4517,
      "▁ప్రపంచ": 4518,
      "తావరణ": 4519,
      "నాడు": 4520,
      "ముద్ర": 4521,
      "▁\"मध्य": 4522,
      "](./मध्य": 4523,
      "▁राज्य\")": 4524,
      "परमाणु": 4525,
      "ोलन": 4526,
      "▁ఉంది.": 4527,
      "▁राजधान": 4528,
      "▁राजवंश": 4529,
      "गुप्त": 4530,
      "▁ఇతర": 4531,
      "▁[En": 4532,
      "ాయి": 4533,
      "economic": 4534,
      "ణాసియా": 4535,
      "▁భారతదేశంలో": 4536,
      "▁था।": 4537,
      "-with": 4538,
      "national-": 4539,
      "టెడ్": 4540,
      "▁ఆర్కైవు": 4541,
      "▁पार्टी": 4542,
      "▁ऑफ": 4543,
      "▁निर्माण": 4544,
      "▁[t](./": 4545,
      "▁[v](./": 4546,
      "िंधु": 4547,
      "▁రైలు": 4548,
      "ustralia": 4549,
      "భూటాన్": 4550,
      "छत्तीसगढ़": 4551,
      "तेलुगू": 4552,
      "_సామ్రాజ్యం": 4553,
      "▁पहले": 4554,
      "▁सर्वा": 4555,
      "▁चुनावों": 4556,
      "▁[पाकिस्तान](./पाकिस्तान": 4557,
      "▁\"पाकिस्तान\")": 4558,
      "Wolpert2003": 4559,
      "వాతంత్ర్య": 4560,
      "-20": 4561,
      "2-2": 4562,
      "66": 4563,
      ";\r\n": 4564,
      "Gua": 4565,
      "JIJ": 4566,
      "Zva": 4567,
      "ced": 4568,
      "ducation": 4569,
      "ham": 4570,
      "lof": 4571,
      "loy": 4572,
      "lurton": 4573,
      "ots": 4574,
      "ron": 4575,
      "ura": 4576,
      "](./South_Asian_": 4577,
      "▁[Indo-": 4578,
      "iam": 4579,
      "than": 4580,
      "aries": 4581,
      "oral": 4582,
      "▁acc": 4583,
      "▁them": 4584,
      "▁pre": 4585,
      "▁infl": 4586,
      "▁summit": 4587,
      "▁Affairs": 4588,
      "▁State": 4589,
      "](https://en.wik": 4590,
      "▁fl": 4591,
      "ature": 4592,
      "urrent": 4593,
      "▁28.": 4594,
      "olon": 4595,
      "ates": 4596,
      "▁Data": 4597,
      "▁high": 4598,
      "123": 4599,
      "▁Europe": 4600,
      "▁largest": 4601,
      "▁November": 4602,
      "▁rem": 4603,
      "apan": 4604,
      "▁[\"A": 4605,
      "ountain": 4606,
      "▁Lank": 4607,
      "▁[↑](./India#cite_ref-FOOTNOTEMetcalfMetcalf2006": 4608,
      "agar": 4609,
      "matic": 4610,
      "▁Kingdom": 4611,
      "▁produc": 4612,
      "rough": 4613,
      "▁1994": 4614,
      "general_": 4615,
      "riculture": 4616,
      "reek": 4617,
      "\")*,": 4618,
      "▁lead": 4619,
      "▁dispu": 4620,
      "_Indian_general_": 4621,
      "states": 4622,
      "%7C": 4623,
      "%7c": 4624,
      "ravid": 4625,
      "_Islands": 4626,
      "quality": 4627,
      "GuaJIJ": 4628,
      "ZvaGuaJIJ": 4629,
      "_Indian_general_election": 4630,
      "ZvaGuaJIJgo": 4631,
      "-D": 4632,
      "-50": 4633,
      "/S": 4634,
      "/ark": 4635,
      "31": 4636,
      "8](./भारत#CITEREF": 4637,
      "Vu": 4638,
      "ZVu": 4639,
      "_श": 4640,
      "io": 4641,
      "kZVu": 4642,
      "ple": 4643,
      "ues": 4644,
      "गान": 4645,
      "णाली": 4646,
      "निरपेक्ष": 4647,
      "्म": 4648,
      "५०": 4649,
      "](./सा": 4650,
      "▁[वि": 4651,
      "▁\"य": 4652,
      "▁साल": 4653,
      "▁सभा": 4654,
      "▁मिल": 4655,
      ":/12": 4656,
      "urn": 4657,
      "▁movement": 4658,
      "▁प्रस": 4659,
      "ews": 4660,
      "ियन": 4661,
      "▁\"महाराष्ट्र": 4662,
      "](./महाराष्ट्र": 4663,
      "▁चित्रपट": 4664,
      "▁नेतृत": 4665,
      "ालीन": 4666,
      "atis": 4667,
      "ांची": 4668,
      "/cb": 4669,
      "pura": 4670,
      "धुनिक": 4671,
      "148/cb": 4672,
      ".bnf": 4673,
      "पूर्ण": 4674,
      "hasha": 4675,
      "▁Minorities": 4676,
      ".fr/ark": 4677,
      ":/12148/cb": 4678,
      ".bnf.fr/ark": 4679,
      ".bnf.fr/ark:/12148/cb": 4680,
      "-on-": 4681,
      "/P": 4682,
      "3-8": 4683,
      "NA": 4684,
      "_H": 4685,
      "bbc": 4686,
      "cise": 4687,
      "dia": 4688,
      "most": 4689,
      "▁out": 4690,
      "tions": 4691,
      "▁pop": 4692,
      "rature": 4693,
      "get": 4694,
      "▁14.": 4695,
      "▁culture": 4696,
      "▁2,": 4697,
      "▁des": 4698,
      "_and_d": 4699,
      "overnment_of_India": 4700,
      "ording": 4701,
      "llchin": 4702,
      "▁[National": 4703,
      ".html).": 4704,
      "National_Informatics_Centre": 4705,
      "](https://doi.org/10.10": 4706,
      "omestic": 4707,
      "National_Informatics_Centre2005": 4708,
      "9]](./India#cite_note-": 4709,
      "Kashmir": 4710,
      "SAARC_summit": 4711,
      "_V": 4712,
      "_प": 4713,
      "_17": 4714,
      "ao": 4715,
      "cb": 4716,
      "ez": 4717,
      "kar": 4718,
      "par": 4719,
      "rop": 4720,
      "एन": 4721,
      "जं": 4722,
      "टान": 4723,
      "ध्या": 4724,
      "न्तर": 4725,
      "फोर्ड": 4726,
      "मिल": 4727,
      "यत": 4728,
      "यर": 4729,
      "ळी": 4730,
      "वेश": 4731,
      "शोक": 4732,
      "ाय": 4733,
      "िर्": 4734,
      "िज्ञ": 4735,
      "ी.": 4736,
      "ैंक": 4737,
      "ोली": 4738,
      "ौसेना": 4739,
      "२००": 4740,
      "ంశ": 4741,
      "ఆర్": 4742,
      "ఉత్తర": 4743,
      "ఒడి": 4744,
      "కీయ": 4745,
      "గలు": 4746,
      "జరా": 4747,
      "తూర్పు": 4748,
      "భు": 4749,
      "మన్": 4750,
      "యి": 4751,
      "లస": 4752,
      "ేక": 4753,
      "▁,": 4754,
      "▁·": 4755,
      "▁డ": 4756,
      "▁జాబితా": 4757,
      "](./ड": 4758,
      "](./पश्चिम": 4759,
      "▁[d": 4760,
      "▁[ड": 4761,
      "▁[य": 4762,
      "▁[భారతదేశ": 4763,
      "▁\"ड": 4764,
      "▁\"पश्चिम": 4765,
      "▁\"तमिल": 4766,
      "eries": 4767,
      "20)": 4768,
      "▁किन": 4769,
      "ison": 4770,
      "▁सह": 4771,
      "▁मशी": 4772,
      "राम": 4773,
      "ootb": 4774,
      "▁str": 4775,
      "▁serv": 4776,
      "](./भारत_के": 4777,
      "▁Africa": 4778,
      "▁See": 4779,
      "\"),[[": 4780,
      "urk": 4781,
      "hell": 4782,
      "▁women": 4783,
      "▁M.": 4784,
      "▁**జాతీయ": 4785,
      "▁River": 4786,
      "uled": 4787,
      "▁तर": 4788,
      "ers,": 4789,
      "ర్\")": 4790,
      "▁By": 4791,
      "ema": 4792,
      "emograph": 4793,
      "▁काम": 4794,
      "ित्त": 4795,
      "▁1965": 4796,
      "▁his": 4797,
      ".[[40": 4798,
      "tures": 4799,
      "ship": 4800,
      "▁Nadu": 4801,
      "▁Nehru": 4802,
      "నిక": 4803,
      "▁[महाराष्ट्र": 4804,
      "ంగ్రె": 4805,
      "▁సభ": 4806,
      "▁विदेश": 4807,
      "▁ప్రభు": 4808,
      "▁2025": 4809,
      "తాబ్": 4810,
      "arty": 4811,
      "▁राज्यक्षेत्र": 4812,
      "▁अन्त": 4813,
      "ically": 4814,
      "order": 4815,
      "▁ఆసియా": 4816,
      "ibet": 4817,
      "▁[Government": 4818,
      "](./List_of_SAARC_summit": 4819,
      "మ్రాజ్య": 4820,
      "▁जनवरी": 4821,
      "पुरम": 4822,
      "णिपुरी": 4823,
      "▁मेला](./": 4824,
      "▁मेला\"),": 4825,
      "ेरल": 4826,
      "athak": 4827,
      "timesofindia": 4828,
      "ancis": 4829,
      "గుజరా": 4830,
      "▁జనాభా": 4831,
      "ंग्रेज़ी_भाषा": 4832,
      "समिया": 4833,
      "hrist": 4834,
      "वर्ग": 4835,
      "▁సామ్రాజ్యం\")": 4836,
      "▁technology": 4837,
      "architecture": 4838,
      "▁स्वतंत्रता": 4839,
      "बंधन": 4840,
      "▁पुरालेखित।,": 4841,
      "▁Hinduism": 4842,
      "illen": 4843,
      "▁This": 4844,
      "▁युग": 4845,
      "త్యేక": 4846,
      "రాష్ట్రపతి": 4847,
      "ప్ప": 4848,
      "_और_संघ": 4849,
      "ధానమంత్రి": 4850,
      "▁बहुत": 4851,
      "▁రాజవంశం": 4852,
      "umbai": 4853,
      "▁కాశ్మీ": 4854,
      "_के_आधार_पर_भारत_के_राज्यों_की_सूची": 4855,
      "-4020": 4856,
      "▁చెంద": 4857,
      "बांग्लादेश": 4858,
      "▁ఆర్ధిక": 4859,
      "नागाल": 4860,
      "▁స్థాన": 4861,
      "▁ईसा": 4862,
      "తమిళనాడు": 4863,
      "▁groups": 4864,
      "Provision": 4865,
      "_BRICS_summit": 4866,
      "क्सफोर्ड": 4867,
      "గణతంత్ర": 4868,
      "▁క్రీడ": 4869,
      "▁ఉన్నాయి.": 4870,
      "▁कुछ": 4871,
      "overeign": 4872,
      "ापक": 4873,
      "Indonesia": 4874,
      "ेघालय": 4875,
      "ఆఫ్ఘ": 4876,
      "శ్రీలంక": 4877,
      "షియా": 4878,
      "న్‌ఫ": 4879,
      "तेलंगाना": 4880,
      "हरियाणा": 4881,
      "ैदराबाद": 4882,
      "నేపాల్": 4883,
      "▁[अंग्रेज़ी](./अंग्रेज़ी_भाषा": 4884,
      "ymbols": 4885,
      "अभिज्ञ": 4886,
      "▁summits\")": 4887,
      "ZvaGuaJIJgoC&pg=PA": 4888,
      "ootball": 4889,
      "తాబ్ద": 4890,
      "](./List_of_SAARC_summits": 4891,
      "timesofindia.indiatimes.com/": 4892,
      "अभिज्ञापक": 4893,
      "Ethnologue": 4894,
      "a)": 4895,
      "a.": 4896,
      "com": 4897,
      "erent": 4898,
      "iet": 4899,
      "lobal": 4900,
      "nominal": 4901,
      "population": 4902,
      "▁7.": 4903,
      "inanc": 4904,
      "208": 4905,
      "arath": 4906,
      "▁pa": 4907,
      "▁Acc": 4908,
      "▁S.": 4909,
      "ecre": 4910,
      "▁mi": 4911,
      "▁western": 4912,
      "▁Territory": 4913,
      "▁Research": 4914,
      "-30": 4915,
      "▁H.": 4916,
      "archive.org/detail": 4917,
      "260": 4918,
      "▁2024.": 4919,
      "ankar": 4920,
      "ext": 4921,
      "oint": 4922,
      "langoff-1": 4923,
      "archive.org/details/": 4924,
      "-and": 4925,
      "6)\r\n": 4926,
      "AS": 4927,
      "Library": 4928,
      "_व": 4929,
      "_राज्य": 4930,
      "_languages": 4931,
      "ek": 4932,
      "ees": 4933,
      "oad": 4934,
      "कालीन": 4935,
      "ण\")": 4936,
      "मरी": 4937,
      "शत": 4938,
      "्न": 4939,
      "४७": 4940,
      "▁°": 4941,
      "▁Qu": 4942,
      "](./द": 4943,
      "▁[श": 4944,
      "▁[प्र": 4945,
      "▁[पश्चिम": 4946,
      "▁\"द": 4947,
      "ancy": 4948,
      "alog": 4949,
      "▁समाज": 4950,
      "्तु": 4951,
      "rain": 4952,
      "▁Centre": 4953,
      "▁Rothermund": 4954,
      "▁total": 4955,
      "-230": 4956,
      "▁सेवा": 4957,
      "ासी": 4958,
      "128": 4959,
      ".[[23": 4960,
      "aryana": 4961,
      "▁साहित्य": 4962,
      ".gov.in": 4963,
      "24)": 4964,
      "▁[Ministry": 4965,
      "▁\"British": 4966,
      "](./British": 4967,
      "चेरी": 4968,
      "मुळे": 4969,
      "ज्ज": 4970,
      "_भारतीय_": 4971,
      "feb": 4972,
      "▁life": 4973,
      "▁१९९": 4974,
      "▁देख": 4975,
      "irector": 4976,
      "स्लाम": 4977,
      "टिबंध": 4978,
      "urvey": 4979,
      "▁[महाराष्ट्र](./महाराष्ट्र": 4980,
      ",4": 4981,
      "/).": 4982,
      "1-4": 4983,
      "4]](./India#cite_note-": 4984,
      "412": 4985,
      "4]](./India#cite_note-FOOTNOTE": 4986,
      "7-1": 4987,
      "MC": 4988,
      "MID": 4989,
      "ate_": 4990,
      "code": 4991,
      "casting": 4992,
      "dish": 4993,
      "ele": 4994,
      "eology": 4995,
      "gy": 4996,
      "ght": 4997,
      "hist": 4998,
      "i_language": 4999,
      "iosp": 5000,
      "pture": 5001,
      "ris": 5002,
      "s_in_India": 5003,
      "ula": 5004,
      "west": 5005,
      "yy": 5006,
      "▁5.": 5007,
      "▁urban": 5008,
      "▁[U": 5009,
      "eri": 5010,
      "th_BRICS_summit": 5011,
      "aran": 5012,
      "artition": 5013,
      "ants": 5014,
      "entr": 5015,
      "icob": 5016,
      "▁painting": 5017,
      "▁set": 5018,
      "▁Schwartzberg": 5019,
      "▁caus": 5020,
      "urch": 5021,
      "▁2014.": 5022,
      "]](./India#cite_note-Combined": 5023,
      "olle": 5024,
      "_of_2011": 5025,
      "oples": 5026,
      "igra": 5027,
      "▁Rev": 5028,
      "▁1960": 5029,
      "-34": 5030,
      "](./India#CITEREFB": 5031,
      "](./India#CITEREFM": 5032,
      "▁report": 5033,
      "▁only": 5034,
      "▁gre": 5035,
      "rief": 5036,
      "ikhism": 5037,
      "▁[↑](./India#cite_ref-FOOTNOTEB": 5038,
      "▁4.": 5039,
      "o-operation": 5040,
      "▁Press](./C": 5041,
      "_Paper": 5042,
      "opulation_T": 5043,
      "▁language\"),": 5044,
      "▁\"En": 5045,
      "](./En": 5046,
      "674": 5047,
      "ibcode": 5048,
      "▁[Dyson": 5049,
      "issing": 5050,
      "432": 5051,
      "rown": 5052,
      "arlo": 5053,
      "nium": 5054,
      "▁languages\")": 5055,
      "ighth": 5056,
      "_1_of_2011": 5057,
      "▁Islands\")": 5058,
      "uisine": 5059,
      "▁world's": 5060,
      "al_Population_T": 5061,
      "ynasty": 5062,
      "iolence": 5063,
      "](./History_of_": 5064,
      "otals_Paper": 5065,
      "▁influ": 5066,
      "emographics": 5067,
      "illennium": 5068,
      "Provisional_Population_T": 5069,
      "icobar": 5070,
      "_1_of_2011_India": 5071,
      "otals_Paper_1_of_2011_India": 5072,
      "Provisional_Population_Totals_Paper_1_of_2011_India": 5073,
      "\"](http://": 5074,
      "/s": 5075,
      "2).": 5076,
      "6-1": 5077,
      "7.\r\n": 5078,
      "AG": 5079,
      "C-01": 5080,
      "\\*": 5081,
      "_24": 5082,
      "_ప్రదేశ్": 5083,
      "ंति": 5084,
      "ंती": 5085,
      "अनुसार": 5086,
      "डिशा": 5087,
      "दरा": 5088,
      "पाली": 5089,
      "भग": 5090,
      "लों": 5091,
      "हान": 5092,
      "ैली": 5093,
      "ोला": 5094,
      "ఉప": 5095,
      "కేంద్రపాలిత": 5096,
      "జె": 5097,
      "ఢ్": 5098,
      "ది.": 5099,
      "నాల": 5100,
      "లే": 5101,
      "ళు": 5102,
      "ౌద్ధ": 5103,
      "▁9.": 5104,
      "▁భా": 5105,
      "](./य": 5106,
      "](./ने": 5107,
      "](./तमिल": 5108,
      "▁[द": 5109,
      "▁[ने": 5110,
      "▁[వి": 5111,
      "▁[लोक": 5112,
      "▁[तमिल": 5113,
      "▁\"ने": 5114,
      "tex": 5115,
      "tered": 5116,
      "an-": 5117,
      "▁सित": 5118,
      "▁मई": 5119,
      "▁ins": 5120,
      "](./भारत_के_राज्य": 5121,
      "raj": 5122,
      "िकोब": 5123,
      "ాలీ": 5124,
      "url": 5125,
      "▁में,": 5126,
      "▁जय": 5127,
      "▁2012.": 5128,
      "▁प्रार": 5129,
      "ंग्र": 5130,
      "ర్చ": 5131,
      "irth": 5132,
      "_(भारत)": 5133,
      "_से": 5134,
      "_सिनेमा": 5135,
      "akhand": 5136,
      "स्त्र": 5137,
      "तिब्ब": 5138,
      "▁36": 5139,
      "▁religious": 5140,
      "content": 5141,
      "▁Fund": 5142,
      "269": 5143,
      "]](./भारत#cite_note-pib": 5144,
      "संधान": 5145,
      "ड़िया": 5146,
      "_Act": 5147,
      "_Affairs": 5148,
      "म्भ": 5149,
      "ियार": 5150,
      "_के_अनुसार": 5151,
      "▁यूनिवर्सिट": 5152,
      "▁लिये": 5153,
      "s/d": 5154,
      "–సా.శ.18": 5155,
      "▁అత్య": 5156,
      "o-d": 5157,
      "▁आहेत": 5158,
      "▁రె": 5159,
      "మాఖ్య": 5160,
      "వాణా": 5161,
      "द्यालय": 5162,
      "549": 5163,
      "ంటి": 5164,
      "▁जनजाति": 5165,
      "▁वर्षा": 5166,
      "▁దేశం": 5167,
      "▁దేశంలో": 5168,
      "शास्त्र": 5169,
      "▁भाषा\")[[": 5170,
      "ondon": 5171,
      "html).": 5172,
      "ब्ल": 5173,
      "वेली": 5174,
      "దక్షిణాసియా": 5175,
      "](./उत्तर": 5176,
      "▁\"उत्तर": 5177,
      "ंपनी": 5178,
      "_नदी": 5179,
      "యునై": 5180,
      "ష్ణ": 5181,
      "_చరిత్ర?action=edit&redlink=1": 5182,
      "▁economy": 5183,
      "%E0%A4%BE": 5184,
      "ोर्ट": 5185,
      "नाडू": 5186,
      "▁రాష్ట్రాలు,": 5187,
      "माजिक": 5188,
      "_देशों_की_सूची": 5189,
      "వర్గం": 5190,
      "_మతము": 5191,
      "▁మొద": 5192,
      "▁ओर": 5193,
      "_उत्": 5194,
      "▁(2018),": 5195,
      "fication": 5196,
      "ंडोनेशिया": 5197,
      "▁చెయ్యబడింది.": 5198,
      "क्षरता": 5199,
      "▁कॉंग्रेस": 5200,
      "kZVuDwAAQBAJ&pg=PA": 5201,
      "▁\"महाराष्ट्र\")": 5202,
      "nominal)": 5203,
      "िकोबार": 5204,
      "▁यूनिवर्सिटी": 5205,
      "యునైటెడ్": 5206,
      "/m": 5207,
      "/hind": 5208,
      "250": 5209,
      "S.": 5210,
      "garh": 5211,
      "hut": 5212,
      "tle": 5213,
      "way": 5214,
      "▁[World": 5215,
      "es,": 5216,
      "its": 5217,
      "ourc": 5218,
      "▁billion": 5219,
      "liest": 5220,
      "0000": 5221,
      "-29": 5222,
      "▁Ear": 5223,
      "▁2001": 5224,
      "▁Himalay": 5225,
      "▁[Ar": 5226,
      "▁[Singh": 5227,
      "▁[British": 5228,
      "▁prov": 5229,
      "27)": 5230,
      "▁\"Government": 5231,
      "achal": 5232,
      "▁[Kulke": 5233,
      "▁use": 5234,
      "▁composed": 5235,
      "catalog": 5236,
      "Hindustan": 5237,
      "ecurity": 5238,
      "reedom": 5239,
      "1-1": 5240,
      "3),": 5241,
      "5]](./India#cite_note-": 5242,
      "7%": 5243,
      "7]](./India#cite_note-": 5244,
      "F)": 5245,
      "IF": 5246,
      "IUCN": 5247,
      "_f": 5248,
      "ax": 5249,
      "bour": 5250,
      "loth": 5251,
      "lood": 5252,
      "oard": 5253,
      "pecial": 5254,
      "rans": 5255,
      "rust": 5256,
      "yam": 5257,
      "zed": 5258,
      "ंच": 5259,
      "गध": 5260,
      "जपुरी": 5261,
      "ठार": 5262,
      "तो": 5263,
      "तुल": 5264,
      "पास": 5265,
      "पत्त": 5266,
      "यो": 5267,
      "लम": 5268,
      "हम": 5269,
      "ूळ": 5270,
      "ृष": 5271,
      "ैथि": 5272,
      "ॉग": 5273,
      "ोड": 5274,
      "▁:": 5275,
      "▁४": 5276,
      "▁United": 5277,
      "▁[f": 5278,
      "▁\"का": 5279,
      "ian_": 5280,
      "ारो": 5281,
      "anag": 5282,
      "orn": 5283,
      "alam": 5284,
      "▁समा": 5285,
      "▁सीमा": 5286,
      "ed,": 5287,
      "ediff": 5288,
      "▁(202": 5289,
      "▁महा": 5290,
      "▁India](./C": 5291,
      "▁India*.": 5292,
      "र्क": 5293,
      "▁sign": 5294,
      "](./भारत_स": 5295,
      "▁हिमालय": 5296,
      "ived": 5297,
      "▁far": 5298,
      "▁fam": 5299,
      "▁Cooperation": 5300,
      "▁अमेर": 5301,
      "ists": 5302,
      "▁दी": 5303,
      "▁प्रत्य": 5304,
      "▁आज": 5305,
      "ign_": 5306,
      "▁बौद्ध": 5307,
      "▁नव": 5308,
      "▁B.;": 5309,
      "▁काही": 5310,
      "▁[↑](./India#cite_ref-3": 5311,
      "▁hum": 5312,
      "क्षण": 5313,
      "aking": 5314,
      "ayback": 5315,
      "▁Gu": 5316,
      "▁Games": 5317,
      "▁3.": 5318,
      "▁gen": 5319,
      "▁संस्थान": 5320,
      "onsoon": 5321,
      "force": 5322,
      "▁through": 5323,
      "ociation": 5324,
      "AAJ": 5325,
      "▁\"Mughal": 5326,
      "](./Mugh": 5327,
      "▁ass": 5328,
      "▁\"Template:": 5329,
      "](./Template:": 5330,
      "efore": 5331,
      "ineering": 5332,
      "key": 5333,
      "दाख": 5334,
      "▁[Dikshit": 5335,
      "53)": 5336,
      "▁1998](./भारत#CITEREF": 5337,
      "achine": 5338,
      "समूह": 5339,
      "▁[उत्तर": 5340,
      "धील": 5341,
      "india.gov.in/india-glance/": 5342,
      "ंग्ल": 5343,
      "▁News": 5344,
      "Dyson2018),": 5345,
      "ote:": 5346,
      "ually": 5347,
      "जयनगर": 5348,
      "▁संगीत": 5349,
      "ortal:": 5350,
      "esert": 5351,
      "culpture": 5352,
      "▁growth": 5353,
      "▁2018](./India#CITEREFDyson2018),": 5354,
      "भोजपुरी": 5355,
      "hattis": 5356,
      "प्राचीन": 5357,
      "▁[पंजाब](./पंजाब": 5358,
      "▁increased": 5359,
      "▁भूमिका": 5360,
      "uthority": 5361,
      "▁Persian": 5362,
      "▁रोजी": 5363,
      "तमिळनाडू": 5364,
      "roadcasting": 5365,
      "lofk": 5366,
      "▁remain": 5367,
      "▁नेतृत्व": 5368,
      "▁Quote:": 5369,
      "ैथिली": 5370,
      "](./Mughal_": 5371,
      "219": 5372,
      "PO": 5373,
      "lm": 5374,
      "ncb": 5375,
      "nlm": 5376,
      "tary": 5377,
      "ze": 5378,
      "▁—": 5379,
      "▁8.": 5380,
      "▁[978-0-521": 5381,
      "ars": 5382,
      "▁(b": 5383,
      "▁(c": 5384,
      "▁2018": 5385,
      "10)": 5386,
      "109": 5387,
      "▁2008": 5388,
      "50th": 5389,
      "ritsch": 5390,
      "▁43": 5391,
      "▁Infor": 5392,
      "709": 5393,
      "iance": 5394,
      "emplate_": 5395,
      "itional": 5396,
      "▁left": 5397,
      "i.nlm": 5398,
      "▁(identifier)\"):[10.10": 5399,
      "Uttarakhand": 5400,
      ".nih": 5401,
      "ncbi.nlm": 5402,
      "ncbi.nlm.nih": 5403,
      ",NGDP": 5404,
      "/files/": 5405,
      "210": 5406,
      "21)": 5407,
      "300": 5408,
      "97": 5409,
      ":EditPage/": 5410,
      ";[[": 5411,
      "_న": 5412,
      "aith": 5413,
      "her": 5414,
      "hra": 5415,
      "ंह": 5416,
      "ंचा": 5417,
      "ईल": 5418,
      "ईसा": 5419,
      "उप": 5420,
      "को": 5421,
      "क्": 5422,
      "गढ": 5423,
      "चेंज": 5424,
      "जें": 5425,
      "थियार": 5426,
      "फा": 5427,
      "मत": 5428,
      "यपुर": 5429,
      "ल](./": 5430,
      "सून": 5431,
      "हू": 5432,
      "ातील": 5433,
      "िवा": 5434,
      "ेन्द्र": 5435,
      "ॉक": 5436,
      "२६": 5437,
      "५७": 5438,
      "ం,": 5439,
      "కొ": 5440,
      "ఖండ": 5441,
      "టిక": 5442,
      "డీ": 5443,
      "డే": 5444,
      "ద్య": 5445,
      "ద్రా": 5446,
      "మార్": 5447,
      "మాలయ": 5448,
      "లలో": 5449,
      "లకు": 5450,
      "ళ్": 5451,
      "ానికి": 5452,
      "ాళు": 5453,
      "ీన": 5454,
      "ీర్": 5455,
      "–18": 5456,
      "▁ट": 5457,
      "▁భ": 5458,
      "▁యు": 5459,
      "▁थे": 5460,
      "](./पूर्व": 5461,
      "](./दिल्ली": 5462,
      "▁[राज्य": 5463,
      "ndhra": 5464,
      "▁\"వి": 5465,
      "▁\"दिल्ली": 5466,
      "an,": 5467,
      "en,": 5468,
      "▁कम": 5469,
      "▁स्तर": 5470,
      "▁सभ्यता": 5471,
      "thehind": 5472,
      "▁मौ": 5473,
      "रात": 5474,
      "ानक": 5475,
      "▁sector": 5476,
      "troduction": 5477,
      "](./भारत_का": 5478,
      "▁हवा": 5479,
      "▁Society": 5480,
      "ece": 5481,
      "▁असे": 5482,
      "ator": 5483,
      "ాలో": 5484,
      "ets": 5485,
      "▁जब": 5486,
      "▁21.": 5487,
      "▁పాల": 5488,
      "▁పట్ట": 5489,
      "▁Mar": 5490,
      "ंगीत": 5491,
      "స్లా": 5492,
      "_केंद्र": 5493,
      "▁बड़े": 5494,
      "भाजन": 5495,
      "ull": 5496,
      "ults": 5497,
      "▁त्या": 5498,
      "▁नी": 5499,
      "▁नगर": 5500,
      "న్\")": 5501,
      "▁से](https://": 5502,
      "ell": 5503,
      "वियत": 5504,
      "▁కార": 5505,
      "▁కలి": 5506,
      "ాలు?action=edit&redlink=1": 5507,
      "రిహ": 5508,
      "రికత": 5509,
      "క్నాల": 5510,
      "ంది.\r\n": 5511,
      "నిమా": 5512,
      "▁गई": 5513,
      "▁name": 5514,
      "▁సంగీతం": 5515,
      "▁विभाग": 5516,
      "▁परंप": 5517,
      "]](./भारत#cite_note-langoff-1": 5518,
      "संबर": 5519,
      "संख्य": 5520,
      "त्तरी": 5521,
      "▁रक्षा": 5522,
      "द्रा": 5523,
      "▁చి": 5524,
      "जापान": 5525,
      "ikh": 5526,
      "-7mar": 5527,
      ")[[3": 5528,
      "254": 5529,
      "ులు\"),": 5530,
      "–సా.శ.13": 5531,
      "▁అయ": 5532,
      "्रांस": 5533,
      "▁करता": 5534,
      "ద్వీ": 5535,
      "▁ఉప": 5536,
      "ప్రపంచ": 5537,
      "ప్రదాయ": 5538,
      "న్నడ": 5539,
      "▁Chand": 5540,
      "48)": 5541,
      "Asher2006": 5542,
      "AsherAsher2006": 5543,
      "▁ఇది": 5544,
      "▁घोष": 5545,
      "▁घाट": 5546,
      "people": 5547,
      "ल्प": 5548,
      "html)": 5549,
      "కాశ్మీ": 5550,
      "ంధు": 5551,
      "▁निभा": 5552,
      "Stein1998),": 5553,
      "Singh2009),": 5554,
      "धीश": 5555,
      "धीरे": 5556,
      "ों_की_सूची?action=edit&redlink=1": 5557,
      "ांति": 5558,
      "](./भारत#CITEREFSingh2009),": 5559,
      "▁CITEREFStein1998": 5560,
      "▁CITEREFSingh2009": 5561,
      "▁शासित": 5562,
      "▁उपमहाद्वीप": 5563,
      "ద్ధం": 5564,
      "ద్ధి": 5565,
      "ాల్దీవ": 5566,
      "ureau": 5567,
      "▁जिसमें": 5568,
      "చ్చే": 5569,
      "దక్షిణ_": 5570,
      "Dyson2018-2": 5571,
      "▁मंदिर\")": 5572,
      "▁मोदी": 5573,
      "▁కాంగ్రె": 5574,
      "టెక్నాల": 5575,
      "▁ప్రాంతాలు": 5576,
      "GDP_(": 5577,
      "▁डॉल": 5578,
      "_एशिया": 5579,
      "హిమాలయ": 5580,
      "▁2009](./भारत#CITEREFSingh2009),": 5581,
      "120]](./भारत#cite_note-langoff-1": 5582,
      "▁वर्षों": 5583,
      "रोहर": 5584,
      "▁व्यवस्था": 5585,
      "cross": 5586,
      "▁संस्कृती": 5587,
      "ौर्य": 5588,
      "langoff_12": 5589,
      "cript": 5590,
      "త్తరా": 5591,
      "istorical": 5592,
      "నాగరికత": 5593,
      "క్కువ": 5594,
      "stitution": 5595,
      "▁Plateau": 5596,
      "](./List_of_countries_by_GDP_(": 5597,
      "క్‌సభ": 5598,
      "▁శాస్త్ర": 5599,
      "▁सिनेमा\"),": 5600,
      "्ता:": 5601,
      "▁गांधी": 5602,
      "▁दिसंबर": 5603,
      "▁लगभग": 5604,
      "bank.org/": 5605,
      "ెలుగు": 5606,
      "▁వచ్చింది.": 5607,
      "्लेट": 5608,
      "_ప్రాంత": 5609,
      "ouncil": 5610,
      "త్యేక:EditPage/": 5611,
      "टिबंधीय": 5612,
      "▁प्रारम्भ": 5613,
      "ర్చ:": 5614,
      "వర్గం:Harv": 5615,
      "पत्ति": 5616,
      "▁1998](./भारत#CITEREFStein1998),": 5617,
      "ాళుక్య": 5618,
      "▁परंपरा": 5619,
      "-7mar2011": 5620,
      "టెక్నాలజీ": 5621,
      "120]](./भारत#cite_note-langoff-128)": 5622,
      "త్యేక:EditPage/మూస:": 5623,
      "*](https://": 5624,
      "*](http://": 5625,
      "-the": 5626,
      "-Hindi": 5627,
      "2%": 5628,
      "2]](./India#cite_note-": 5629,
      "Allchin": 5630,
      "_Union": 5631,
      "_industry": 5632,
      "bak": 5633,
      "ere": 5634,
      "fore": 5635,
      "iley": 5636,
      "jec": 5637,
      "ject": 5638,
      "khand": 5639,
      "my": 5640,
      "nar": 5641,
      "rs": 5642,
      "ras": 5643,
      "subcontinent": 5644,
      "utra": 5645,
      "vil": 5646,
      "ver,": 5647,
      "wana": 5648,
      "ward": 5649,
      "ym": 5650,
      "](./World": 5651,
      "▁[978-81": 5652,
      "▁\"World": 5653,
      "▁\"Indus": 5654,
      "ont": 5655,
      "aro": 5656,
      "anch": 5657,
      "ester": 5658,
      "▁(ed.).": 5659,
      "ichell": 5660,
      "▁political": 5661,
      "▁se": 5662,
      "▁After": 5663,
      "▁Civil": 5664,
      "ation,": 5665,
      "lite": 5666,
      "▁Punjab": 5667,
      "978-3": 5668,
      "olnar": 5669,
      "▁Michael": 5670,
      "ions": 5671,
      "003": 5672,
      "emale": 5673,
      "eld": 5674,
      "▁[↑](./India#cite_ref-4": 5675,
      "india.com/": 5676,
      "-415": 5677,
      "-459": 5678,
      "▁eastern": 5679,
      "-85": 5680,
      "bert": 5681,
      "▁relations": 5682,
      "ability": 5683,
      "▁these": 5684,
      "aves": 5685,
      "aint": 5686,
      "astal": 5687,
      "▁\"Cambridge": 5688,
      "▁Languages": 5689,
      "▁Registrar": 5690,
      "udi": 5691,
      "▁[Cambridge": 5692,
      "harkhand": 5693,
      "▁[↑](./India#cite_ref-FOOTNOTEStein2010": 5694,
      "](./Special:BookSources/978-81": 5695,
      "▁\"Special:BookSources/978-81": 5696,
      "ourts": 5697,
      "ommission": 5698,
      "▁before": 5699,
      "▁when": 5700,
      "class": 5701,
      "emple": 5702,
      "677": 5703,
      "▁[Re": 5704,
      "▁contrib": 5705,
      "ambridge_University_Press": 5706,
      "times.indiatimes.com/": 5707,
      "vention": 5708,
      "▁lite": 5709,
      "ollingham": 5710,
      "%2C": 5711,
      "awahar": 5712,
      "ific": 5713,
      "umbers": 5714,
      "▁ago": 5715,
      "aceu": 5716,
      "eserve": 5717,
      "▁People": 5718,
      "cheduled": 5719,
      "▁including": 5720,
      "tudies": 5721,
      "Pakistani": 5722,
      "ominion": 5723,
      "rahmap": 5724,
      "owever,": 5725,
      "rishn": 5726,
      "vatsyayan-lord_": 5727,
      "vatsyayan-lord-4": 5728,
      "Petraglia": 5729,
      "6]](./India#cite_note-vatsyayan-lord-4": 5730,
      "cogni": 5731,
      "harmaceu": 5732,
      "undamental": 5733,
      "arnataka": 5734,
      "olonial": 5735,
      "▁Press](./Cambridge_University_Press": 5736,
      "awaharl": 5737,
      "PetragliaAllchin": 5738,
      "-n": 5739,
      "-world": 5740,
      ".n": 5741,
      "/India": 5742,
      "212": 5743,
      "217": 5744,
      "HA": 5745,
      "M50th": 5746,
      "NCL": 5747,
      "_यु": 5748,
      "aut": 5749,
      "bhasha": 5750,
      "equality": 5751,
      "kb": 5752,
      "m2": 5753,
      "mil": 5754,
      "ंदी": 5755,
      "ग्वे": 5756,
      "थम": 5757,
      "दि": 5758,
      "धन": 5759,
      "नत": 5760,
      "ल्त": 5761,
      "वान": 5762,
      "ष्क": 5763,
      "ुरा": 5764,
      "▁६": 5765,
      "▁टक": 5766,
      "](./19": 5767,
      "](./का": 5768,
      "](./राजस्थान": 5769,
      "▁[का": 5770,
      "▁\"राजस्थान": 5771,
      "enn": 5772,
      "▁सुरक्षा": 5773,
      "▁मन": 5774,
      "▁पद": 5775,
      "▁second": 5776,
      "entury": 5777,
      "▁12.": 5778,
      "▁आप": 5779,
      "▁Mana": 5780,
      "▁Muslim": 5781,
      "igin": 5782,
      "iger": 5783,
      "▁बार": 5784,
      "▁निव": 5785,
      "▁Dictionary": 5786,
      "▁Health": 5787,
      "115": 5788,
      "▁शु": 5789,
      "▁संख्या": 5790,
      "▁[\"G": 5791,
      "132": 5792,
      "266": 5793,
      "▁परि": 5794,
      "त्म": 5795,
      "पूर": 5796,
      "राष्ट्रीय_स": 5797,
      "%20A": 5798,
      "णिपुर": 5799,
      "%E0%A5%": 5800,
      "ल्स": 5801,
      "▁(2014).": 5802,
      "evelopment_": 5803,
      "स्थाप": 5804,
      "वर्ष": 5805,
      "▁पाकिस्तान": 5806,
      "गांधी": 5807,
      "▁[*An": 5808,
      "राजस्थान](./राजस्थान": 5809,
      "लिंग": 5810,
      "ृष्ठ": 5811,
      "adhya": 5812,
      ".htm)": 5813,
      "▁नदी\")": 5814,
      "rotection": 5815,
      "Report.pdf)": 5816,
      "nclm.nic.in/shared/linkimages/NCL": 5817,
      "M50thReport.pdf)": 5818,
      "ल्तनत": 5819,
      "▁\"राजस्थान\")": 5820,
      "nclm.nic.in/shared/linkimages/NCLM50thReport.pdf)": 5821,
      "-for": 5822,
      "1).": 5823,
      "1-3": 5824,
      "6%": 5825,
      "7/": 5826,
      "Ag": 5827,
      "ption": 5828,
      "▁z": 5829,
      "▁old": 5830,
      "▁\"U": 5831,
      "▁prom": 5832,
      "▁sim": 5833,
      "▁Ad": 5834,
      "▁Central": 5835,
      "atab": 5836,
      "▁wid": 5837,
      "olas": 5838,
      "▁Minister": 5839,
      "opland": 5840,
      "▁1962": 5841,
      "▁2007.": 5842,
      "▁nation": 5843,
      ".gov.": 5844,
      "ource": 5845,
      "_En": 5846,
      "▁contin": 5847,
      "_Data": 5848,
      "▁Programme": 5849,
      "embers": 5850,
      "ectancy": 5851,
      "▁Thomas": 5852,
      "arendra": 5853,
      "gisla": 5854,
      "▁along": 5855,
      "IMFWEO.IN-2": 5856,
      "▁different": 5857,
      "▁estimate": 5858,
      "_of_Congress": 5859,
      "▁India](./Government_of_India": 5860,
      ".పూ.": 5861,
      "1_": 5862,
      "2,": 5863,
      "Collingham": 5864,
      "Ex": 5865,
      "S$": 5866,
      "Tarlo": 5867,
      "_वार": 5868,
      "aos": 5869,
      "lan": 5870,
      "loc": 5871,
      "mit": 5872,
      "mill": 5873,
      "ncient": 5874,
      "ole": 5875,
      "rune": 5876,
      "ringer": 5877,
      "via": 5878,
      "view": 5879,
      "yer": 5880,
      "इन": 5881,
      "ईद": 5882,
      "ऊर्जा": 5883,
      "ऍथ": 5884,
      "ऑक्सफोर्ड": 5885,
      "कु": 5886,
      "कणी": 5887,
      "केंद्र": 5888,
      "ख़": 5889,
      "गलु": 5890,
      "जपा": 5891,
      "जिस्ट": 5892,
      "टिका": 5893,
      "ताल": 5894,
      "दान": 5895,
      "नोल": 5896,
      "पीय": 5897,
      "फ्रांस": 5898,
      "बू": 5899,
      "रस": 5900,
      "रूस": 5901,
      "लोर": 5902,
      "वल": 5903,
      "शा": 5904,
      "हें": 5905,
      "ाटी": 5906,
      "िरा": 5907,
      "ुम्ब": 5908,
      "ूबर": 5909,
      "ॉकी": 5910,
      "ఆగ": 5911,
      "కళ": 5912,
      "ఖండ్": 5913,
      "గ్": 5914,
      "గిన": 5915,
      "గఢ్": 5916,
      "జో": 5917,
      "ట్ర": 5918,
      "తెలుగు": 5919,
      "పద": 5920,
      "భి": 5921,
      "యో": 5922,
      "లక్ష": 5923,
      "వర": 5924,
      "శో": 5925,
      "షా": 5926,
      "హు": 5927,
      "హార్": 5928,
      "హాయ": 5929,
      "ాష్ట్ర": 5930,
      "ీక": 5931,
      "ీహార్": 5932,
      "ుల": 5933,
      "ుల్": 5934,
      "ేర": 5935,
      "ోల్": 5936,
      "ోత్స": 5937,
      "ౌర్య": 5938,
      "–19": 5939,
      "▁औ": 5940,
      "](./प्र": 5941,
      "](./సి": 5942,
      "](./Indus": 5943,
      "▁[Y": 5944,
      "▁[హ": 5945,
      "▁[राजस्थान](./राजस्थान": 5946,
      "▁\"श": 5947,
      "▁\"హ": 5948,
      "▁\"पु": 5949,
      "▁\"प्र": 5950,
      "▁\"साँचा": 5951,
      "▁\"साँचा:": 5952,
      "▁\"ఢిల్లీ": 5953,
      "iated": 5954,
      "in,": 5955,
      "ino-": 5956,
      "inema": 5957,
      "tile": 5958,
      "oro": 5959,
      "en:": 5960,
      "्रार": 5961,
      "cid": 5962,
      "▁app": 5963,
      "▁सूच": 5964,
      "्यूरो": 5965,
      "ederal": 5966,
      "▁(S": 5967,
      "omo": 5968,
      "▁मन्दिर": 5969,
      "▁म्ह": 5970,
      "icts": 5971,
      "▁पड़": 5972,
      "▁पहा": 5973,
      "▁प्लेट": 5974,
      "astr": 5975,
      "राक": 5976,
      "▁India.[[": 5977,
      "id.": 5978,
      "్రూ": 5979,
      "leav": 5980,
      "-06": 5981,
      "-0\").\r\n": 5982,
      "▁sty": 5983,
      "trial": 5984,
      "lat": 5985,
      "▁हथियार": 5986,
      "ingap": 5987,
      "▁As": 5988,
      "▁Asher": 5989,
      "ेंगलु": 5990,
      "raw": 5991,
      "ratic": 5992,
      "▁Sabha": 5993,
      "eccan": 5994,
      "▁cook": 5995,
      "▁fe": 5996,
      "▁four": 5997,
      "▁foll": 5998,
      "▁अलग": 5999,
      "well": 6000,
      "▁वै": 6001,
      "ాలా": 6002,
      "ాలలో": 6003,
      "్యం": 6004,
      "acmill": 6005,
      "illa": 6006,
      "▁would": 6007,
      "▁ज़": 6008,
      "▁जिन": 6009,
      "ेशिया\")": 6010,
      "▁दृष्ट": 6011,
      "▁25.": 6012,
      "ोंकणी": 6013,
      "▁प्रभा": 6014,
      "Southeast": 6015,
      "▁आग": 6016,
      "▁आशिया": 6017,
      "▁आन्द": 6018,
      "ंगला": 6019,
      "స్వ": 6020,
      "▁develop": 6021,
      "▁direct": 6022,
      "anda": 6023,
      "▁Routledge": 6024,
      "▁बने": 6025,
      "▁बड़ा": 6026,
      "▁तो": 6027,
      "▁नौसेना": 6028,
      "त्री": 6029,
      "ర్ణా": 6030,
      "ర్మే": 6031,
      "्टॉक": 6032,
      "▁Before": 6033,
      "indhi": 6034,
      "Springer": 6035,
      "ास्त": 6036,
      "osa": 6037,
      "▁*India": 6038,
      "▁her": 6039,
      ".[[2": 6040,
      "विद्यालय": 6041,
      "▁led": 6042,
      "akrishn": 6043,
      "లోక్‌సభ": 6044,
      "ogam": 6045,
      "ogri": 6046,
      "▁N.": 6047,
      "▁35": 6048,
      "ले.": 6049,
      "▁వే": 6050,
      "▁వంశ": 6051,
      "▁गठ": 6052,
      "▁शुरू": 6053,
      "थाईल": 6054,
      "iverse": 6055,
      "▁कोर": 6056,
      "▁संस्कृत": 6057,
      "कांक": 6058,
      "▁विज्ञान": 6059,
      "▁2025.": 6060,
      "ंडमान": 6061,
      "ండర్": 6062,
      "uduch": 6063,
      "▁On": 6064,
      "▁Organization": 6065,
      "▁सागर": 6066,
      "राष्ट्रीय_": 6067,
      "erry": 6068,
      "▁[Central": 6069,
      "](https://books.google.com/books?id=3TRtDwAAQBAJ&pg=PA": 6070,
      "ियान": 6071,
      "हाँ": 6072,
      "हाब": 6073,
      "ikk": 6074,
      "▁लिया": 6075,
      "త్మా": 6076,
      "orea": 6077,
      "▁[↑](./India#cite_ref-FOOTNOTEM": 6078,
      "▁राज्ये": 6079,
      "▁అతి": 6080,
      "ికి": 6081,
      "्रांति": 6082,
      "▁१२": 6083,
      "▁करना": 6084,
      "Intelligence": 6085,
      "_Commission": 6086,
      "_Pradesh": 6087,
      "परेशन": 6088,
      "▁now": 6089,
      "](./कु": 6090,
      "▁\"कु": 6091,
      "ద్దు": 6092,
      "▁ఉంట": 6093,
      "मीरात": 6094,
      "▁[कु": 6095,
      "▁రహదార": 6096,
      "हारजिस्ट": 6097,
      "▁ఆధ": 6098,
      "మాచల్": 6099,
      "▁సామ్రాజ్య": 6100,
      "రువా": 6101,
      "రుణా": 6102,
      "▁areas": 6103,
      "दादरा": 6104,
      "▁क्षेत्रों": 6105,
      "ountries/": 6106,
      "मान्य": 6107,
      "న్నో": 6108,
      "▁जाते": 6109,
      "olitic": 6110,
      "्के": 6111,
      "489": 6112,
      "angered": 6113,
      "మిజో": 6114,
      "▁తరువా": 6115,
      "erves": 6116,
      "▁घरेलू": 6117,
      "▁घाटी": 6118,
      "](./बंगाल": 6119,
      "ather": 6120,
      "▁change": 6121,
      "▁2007\r\n": 6122,
      "ष्ठ": 6123,
      "_River": 6124,
      "▁జరి": 6125,
      "DwAAQBAJ": 6126,
      "साँचा_वार": 6127,
      "▁విస్త": 6128,
      "ological": 6129,
      "▁know": 6130,
      "▁kingdom": 6131,
      "-india-": 6132,
      "AsherTalbot2022": 6133,
      "ynth": 6134,
      "▁శతాబ్ద": 6135,
      "alaysia": 6136,
      "▁सिंह": 6137,
      "न्नड़": 6138,
      "श्मीरी": 6139,
      "▁గల": 6140,
      "आईएस": 6141,
      "▁था,": 6142,
      "ట్టు": 6143,
      "ంగ్లీ": 6144,
      "రాష్ట్రాలు": 6145,
      "▁पूर्वी": 6146,
      "_न्याया": 6147,
      "भूटान": 6148,
      "▁मानसून": 6149,
      "PPP": 6150,
      "వేద": 6151,
      "▁రాజకీయ": 6152,
      "athematics": 6153,
      "▁Pradesh\")": 6154,
      "pib.nic.in/": 6155,
      "▁subcontinent\")": 6156,
      "ambod": 6157,
      "హిమాచల్": 6158,
      "హాత్మా": 6159,
      "▁अपने": 6160,
      "ृष्ण": 6161,
      "िज़ोर": 6162,
      "▁especial": 6163,
      "emocratic": 6164,
      "▁ప్రదేశ్\")": 6165,
      "chedule": 6166,
      "హారాష్ట్ర": 6167,
      "पातकाल": 6168,
      "▁Force": 6169,
      "శాస్త్ర": 6170,
      "▁[India](./India": 6171,
      "▁species": 6172,
      "▁2004](./भारत#CITEREF": 6173,
      "▁వాతావరణ": 6174,
      "धिराज्य": 6175,
      "▁जलवायु": 6176,
      "▁[2](./भारत#cite_ref-FOOTNOTE": 6177,
      "▁[1](./भारत#cite_ref-FOOTNOTE": 6178,
      "దినోత్స": 6179,
      "రాజస్థాన్": 6180,
      "బెంగాలీ": 6181,
      "hailand": 6182,
      "యన్మార్": 6183,
      "▁emerg": 6184,
      "▁ముఖ్య": 6185,
      "business/": 6186,
      "खनऊ": 6187,
      "ार्कटिका": 6188,
      "▁occup": 6189,
      "लयालम": 6190,
      "Sharma2007": 6191,
      "▁सदस": 6192,
      "Insur": 6193,
      "▁राजनीतिक": 6194,
      "_राजवंश": 6195,
      "भरत": 6196,
      "ంజాబ్": 6197,
      "▁दोनों": 6198,
      "▁వ్యాస": 6199,
      "▁राजधानी": 6200,
      "lurton199": 6201,
      "ravidian": 6202,
      "గుజరాత్": 6203,
      "नागालैंड": 6204,
      "ఆఫ్ఘనిస్తాన్": 6205,
      "న్‌ఫర్మే": 6206,
      "gypt": 6207,
      "iosphere": 6208,
      "aranth": 6209,
      "igration": 6210,
      "IFT": 6211,
      "तुल्य": 6212,
      "ृषि": 6213,
      "lofker": 6214,
      "फाएं": 6215,
      "రిహద్దు": 6216,
      "▁निभाई": 6217,
      "చ్చేరి": 6218,
      "▁डॉलर": 6219,
      "langoff_128": 6220,
      "baki": 6221,
      "vatsyayan-lord_432": 6222,
      "cognized": 6223,
      "Tarlo199": 6224,
      "runei": 6225,
      "ऍथनोल": 6226,
      "ुम्बई": 6227,
      "▁म्हण": 6228,
      "ingapore": 6229,
      "▁Asher,": 6230,
      "ेंगलुरु": 6231,
      "acmillan": 6232,
      "ర్ణాటక": 6233,
      "uducherry": 6234,
      "हारजिस्ट्रार": 6235,
      "రుణాచల్": 6236,
      "▁especially": 6237,
      "న్‌ఫర్మేషన్": 6238,
      "ऍथनोलॉग": 6239,
      "528": 6240,
      "TO": 6241,
      "_h": 6242,
      "_14": 6243,
      "_pr": 6244,
      "hl": 6245,
      "que": 6246,
      "tou": 6247,
      "tation": 6248,
      "–2": 6249,
      "rel": 6250,
      "arv": 6251,
      "orm": 6252,
      "edu": 6253,
      "▁(a)": 6254,
      "ica": 6255,
      "▁sq": 6256,
      "ref-1": 6257,
      "▁11.": 6258,
      "▁16.": 6259,
      "▁Policy": 6260,
      "▁Day": 6261,
      "akes": 6262,
      "1999": 6263,
      "_Ass": 6264,
      "▁Ocean": 6265,
      "▁Asia:": 6266,
      "ikipedia": 6267,
      "others": 6268,
      "utt": 6269,
      "1):": 6270,
      "round": 6271,
      "angetic": 6272,
      "57)": 6273,
      "▁km2": 6274,
      "isease": 6275,
      "_main": 6276,
      "...]": 6277,
      "▁Short": 6278,
      "▁2020.": 6279,
      "itzel": 6280,
      "▁Conservation": 6281,
      "▁Minorities,": 6282,
      "▁(b)": 6283,
      ")](./": 6284,
      ")\"),": 6285,
      "/g": 6286,
      "/we": 6287,
      "EN": 6288,
      "_en": 6289,
      "_to": 6290,
      "_15": 6291,
      "atp": 6292,
      "bu": 6293,
      "}}": 6294,
      "घर": 6295,
      "डे": 6296,
      "प्": 6297,
      "पया": 6298,
      "र्य": 6299,
      "ृद्ध": 6300,
      "ैस": 6301,
      "▁९": 6302,
      "▁web": 6303,
      "▁टा": 6304,
      "](./लोक": 6305,
      "▁[n": 6306,
      "▁[पु": 6307,
      "▁[धर्म": 6308,
      "▁\"राष्ट्रीय": 6309,
      "▁\"लोक": 6310,
      "▁मिळ": 6311,
      "2013": 6312,
      "1967": 6313,
      "र्त": 6314,
      "-138": 6315,
      "-1\").\r\n": 6316,
      "rak": 6317,
      "ustr": 6318,
      "▁can": 6319,
      "▁fig": 6320,
      "▁अति": 6321,
      "▁वन": 6322,
      "acts": 6323,
      "▁जै": 6324,
      "▁जात": 6325,
      "्षिक": 6326,
      "▁आधुनिक": 6327,
      "▁dependencies": 6328,
      "्याय": 6329,
      "104": 6330,
      "108": 6331,
      "▁B.": 6332,
      "ता\")": 6333,
      "▁Economy": 6334,
      "स्थ": 6335,
      "▁गे": 6336,
      "▁उद्योग": 6337,
      "नेट": 6338,
      "oung": 6339,
      "▁पर्यटन": 6340,
      "_महासागर": 6341,
      "▁[SAARC": 6342,
      "▁Region": 6343,
      "-98": 6344,
      "_and_union_territ": 6345,
      "_Pr": 6346,
      "ध्यम": 6347,
      "▁चार": 6348,
      "iteracy": 6349,
      "▁Hindus": 6350,
      "वंट": 6351,
      "▁\"ब्रिटिश": 6352,
      "](./ब्रिटिश": 6353,
      "गणतंत्र": 6354,
      "▁१९७": 6355,
      "olden": 6356,
      "▁[संयुक्त": 6357,
      "_Fund": 6358,
      "_आणि": 6359,
      "ethnologue": 6360,
      "▁झाले": 6361,
      "](./List_of_countries_and_d": 6362,
      "](./संस्कृत": 6363,
      "▁\"संस्कृत": 6364,
      "स्लामी": 6365,
      "िंह": 6366,
      "▁Environmental": 6367,
      "ependencies_by_": 6368,
      ".worldbank.org/": 6369,
      "_उत्पाद": 6370,
      "▁प्रत्येक": 6371,
      "hattisgarh": 6372,
      "▁प्रभाव": 6373,
      "_and_union_territories": 6374,
      "ethnologue.com/": 6375,
      "](./List_of_countries_and_dependencies_by_": 6376,
      "/india": 6377,
      "1]](./India#cite_note-": 6378,
      "2nd": 6379,
      "2)[[": 6380,
      "45": 6381,
      "5-3": 6382,
      "5-4": 6383,
      "8]](./India#cite_note-": 6384,
      "9]](./India#cite_note-FOOTNOTE": 6385,
      "ES": 6386,
      "SE": 6387,
      "Wright": 6388,
      "_J": 6389,
      "_10": 6390,
      "_un": 6391,
      "_18": 6392,
      "_26": 6393,
      "_28": 6394,
      "_30": 6395,
      "af": 6396,
      "bra": 6397,
      "cted": 6398,
      "eorg": 6399,
      "nim": 6400,
      "och": 6401,
      "ppr": 6402,
      "pics": 6403,
      "ridge": 6404,
      "rime": 6405,
      "wat": 6406,
      "yle": 6407,
      "▁78": 6408,
      "▁op": 6409,
      "▁[b": 6410,
      "▁[History": 6411,
      "▁\"Special:EditPage/Template:": 6412,
      "inc": 6413,
      "reen": 6414,
      "reme": 6415,
      "recognized": 6416,
      "era": 6417,
      "orship": 6418,
      "alk:": 6419,
      "enj": 6420,
      "enous": 6421,
      "itation": 6422,
      "▁(2007": 6423,
      "▁(India)": 6424,
      "chitecture": 6425,
      "▁prac": 6426,
      "leg": 6427,
      "-05": 6428,
      "-026": 6429,
      "▁inv": 6430,
      "▁sur": 6431,
      "▁sev": 6432,
      "lain": 6433,
      "▁At": 6434,
      "▁Agency": 6435,
      "raz": 6436,
      "eck": 6437,
      "▁cre": 6438,
      "▁constitution": 6439,
      "▁forest": 6440,
      "▁bu": 6441,
      "ating": 6442,
      "lima": 6443,
      "uries": 6444,
      "tock": 6445,
      "▁millennium": 6446,
      "▁[↑](./India#cite_": 6447,
      "ilg": 6448,
      "fir": 6449,
      "]](./India#cite_note": 6450,
      "](./India#cite_ref-vatsyayan-lord_432": 6451,
      "▁Tim": 6452,
      "▁Trade": 6453,
      "▁development": 6454,
      "▁division": 6455,
      "andoor": 6456,
      "igarh": 6457,
      "igenous": 6458,
      "ately": 6459,
      "umeration": 6460,
      "▁Dyson": 6461,
      "evanag": 6462,
      "▁Emer": 6463,
      "▁last": 6464,
      "una": 6465,
      "-349": 6466,
      "▁east": 6467,
      "▁Greek": 6468,
      "▁Nicobar": 6469,
      "▁38": 6470,
      "▁39": 6471,
      "beral": 6472,
      "▁rec": 6473,
      "▁though": 6474,
      "ished": 6475,
      "aving": 6476,
      "▁\"Central": 6477,
      "▁\"Climate": 6478,
      "-9\").\r\n": 6479,
      "287,": 6480,
      "▁\"Ministry": 6481,
      "upee": 6482,
      "](./Ministry_of_": 6483,
      "▁International": 6484,
      "](./Special:BookSources/978-0-521": 6485,
      "▁range": 6486,
      "▁\"Special:BookSources/978-0-521": 6487,
      "▁talk:": 6488,
      "▁\"Template": 6489,
      "](./Template_": 6490,
      "ajya": 6491,
      "▁ancient": 6492,
      "▁\"Delhi": 6493,
      "](./Delhi": 6494,
      "ompan": 6495,
      "▁V.": 6496,
      "▁Vedic": 6497,
      "▁2011](./India#CITEREF": 6498,
      "](./Routledge": 6499,
      "▁\"Routledge": 6500,
      "▁[Tamil": 6501,
      "▁[Routledge": 6502,
      "29)": 6503,
      "▁2014](./India#CITEREF": 6504,
      "49-0": 6505,
      "rowth": 6506,
      "amese": 6507,
      "▁2007](./India#CITEREF": 6508,
      "▁(2017).": 6509,
      "▁US$": 6510,
      "alayalam": 6511,
      "▁regions": 6512,
      "talk:": 6513,
      "▁[Fisher": 6514,
      "handigarh": 6515,
      "official": 6516,
      "▁centuries": 6517,
      "▁become": 6518,
      "▁Indo-": 6519,
      "-107-026": 6520,
      "▁[t](./Template_": 6521,
      "▁[v](./Template:": 6522,
      "▁Talbot,": 6523,
      "Fisher2018),": 6524,
      "Information": 6525,
      "ports/": 6526,
      "▁independence": 6527,
      "▁[e](./Special:EditPage/Template:": 6528,
      "▁Buddha": 6529,
      "known": 6530,
      "_War": 6531,
      "▁mathematic": 6532,
      "▁2018](./India#CITEREFFisher2018),": 6533,
      "merican": 6534,
      "▁Francis": 6535,
      "hanghai": 6536,
      "▁(1,269": 6537,
      "▁employ": 6538,
      "arnatic": 6539,
      "▁republic": 6540,
      "▁military": 6541,
      "▁3,287,": 6542,
      "▁(2006).": 6543,
      "place": 6544,
      "▁1994](./India#CITEREF": 6545,
      "▁2025.\r\n": 6546,
      "▁mi)": 6547,
      "-230-34": 6548,
      "disha": 6549,
      "entral_": 6550,
      "▁influen": 6551,
      "549-2": 6552,
      "lothing": 6553,
      "▁Games\")": 6554,
      "forcement": 6555,
      "rahmaputra": 6556,
      "▁known": 6557,
      "touch": 6558,
      "Wright2010": 6559,
      "▁(2007).": 6560,
      "limate_": 6561,
      "▁Dyson,": 6562,
      "evanagari": 6563,
      "▁\"Routledge\").": 6564,
      "▁[Routledge](./Routledge": 6565,
      "-107-02649-0": 6566,
      "▁[t](./Template_talk:": 6567,
      "▁(1,269,": 6568,
      "-230-34549-2": 6569,
      "%3": 6570,
      "*](https://web.archive.org/web/201": 6571,
      "-पा": 6572,
      "-गंगा": 6573,
      ".j": 6574,
      "/)": 6575,
      "/w": 6576,
      "1200": 6577,
      "1st": 6578,
      "Alig": 6579,
      "B0%": 6580,
      "OLA": 6581,
      "ault": 6582,
      "ds": 6583,
      "hdr": 6584,
      "t\")": 6585,
      "work": 6586,
      "ँकि": 6587,
      "ंबर": 6588,
      "इल": 6589,
      "ऋतु": 6590,
      "चार": 6591,
      "जल": 6592,
      "ण्यात": 6593,
      "तमान": 6594,
      "थाली": 6595,
      "मृत": 6596,
      "ऱ्या": 6597,
      "लाल": 6598,
      "वत": 6599,
      "शि": 6600,
      "सर": 6601,
      "हन": 6602,
      "ाच्या": 6603,
      "ంతి": 6604,
      "కాల": 6605,
      "కారం": 6606,
      "ఖ్": 6607,
      "గంగా": 6608,
      "టో": 6609,
      "డిన": 6610,
      "తీ": 6611,
      "ధి": 6612,
      "ధించ": 6613,
      "నల్": 6614,
      "బడ్": 6615,
      "మన": 6616,
      "మర": 6617,
      "ర్యా": 6618,
      "లం": 6619,
      "లమె": 6620,
      "ీస్": 6621,
      "ూప": 6622,
      "ూరు": 6623,
      "ెనీ": 6624,
      "ౌక": 6625,
      "▁`": 6626,
      "▁ऐ": 6627,
      "▁७": 6628,
      "▁ద": 6629,
      "▁ఫ": 6630,
      "▁దక్షిణ": 6631,
      "▁హిందూ": 6632,
      "▁గాంధీ": 6633,
      "](./श": 6634,
      "](./पु": 6635,
      "](./चीन": 6636,
      "](./गुजरात": 6637,
      "▁[ना": 6638,
      "▁[భారతదేశం": 6639,
      "▁[राष्ट्रीय": 6640,
      "▁[ఢిల్లీ": 6641,
      "▁[गुजरात": 6642,
      "▁\"ची": 6643,
      "▁\"गुजरात": 6644,
      "▁\"विशेष:EditPage/साँचा:": 6645,
      "report": 6646,
      "▁कर्ज": 6647,
      "्रह": 6648,
      "ispu": 6649,
      "भारत)\")": 6650,
      "▁सर्वोच्च": 6651,
      "▁सल्तनत": 6652,
      "▁(भारत)\")": 6653,
      "▁मील": 6654,
      "▁पास": 6655,
      "▁पहु": 6656,
      "▁पठार": 6657,
      "asu": 6658,
      "ानुसार": 6659,
      "lect": 6660,
      "lease": 6661,
      "र्ण": 6662,
      "](./भारत)": 6663,
      "ారస": 6664,
      "▁हाला": 6665,
      "▁हवेली": 6666,
      "्त्री": 6667,
      "यास": 6668,
      "▁17.": 6669,
      "▁St": 6670,
      "▁capita": 6671,
      "](https://id.": 6672,
      "ాలను": 6673,
      "ालया": 6674,
      "नाइ": 6675,
      "▁दिवस": 6676,
      "ोंड": 6677,
      "▁పెద్ద": 6678,
      "▁प्रजा": 6679,
      "▁प्रणाली": 6680,
      "राजनी": 6681,
      "స్](./": 6682,
      "लावा": 6683,
      "▁बनी": 6684,
      "▁बड़ी": 6685,
      "▁तीस": 6686,
      "▁निय": 6687,
      "ర్లు": 6688,
      "00–సా.శ.పూ.": 6689,
      "ume": 6690,
      "ित्व": 6691,
      "లు\")": 6692,
      "स्ता": 6693,
      "पुत्र": 6694,
      "माय": 6695,
      "ంది": 6696,
      "▁शा": 6697,
      "सां": 6698,
      "▁विवाद": 6699,
      "▁परमाणु": 6700,
      "](./भारत#cite_ref-langoff_128": 6701,
      "▁ప్రజ": 6702,
      "िन्न": 6703,
      "िन्धु": 6704,
      "त्ता": 6705,
      "▁London": 6706,
      "▁Religion": 6707,
      "▁रहे": 6708,
      "म्प्र": 6709,
      "▁सामाजिक": 6710,
      "238": 6711,
      "_के_देश": 6712,
      "త్తం": 6713,
      "30)": 6714,
      "ज़ा": 6715,
      "▁\"Sanskrit": 6716,
      "▁भाषाएँ": 6717,
      "▁(సా.శ.13": 6718,
      "▁(సా.శ.15": 6719,
      "](./Sanskrit": 6720,
      "िसी": 6721,
      "▁అనే": 6722,
      "्राम": 6723,
      "▁१०": 6724,
      "▁१५": 6725,
      "▁१८": 6726,
      "తం\")": 6727,
      "5.pdf)": 6728,
      "ंदर": 6729,
      "0%E0%A": 6730,
      "ంచి": 6731,
      "2011),": 6732,
      "▁[भारत](./भारत)": 6733,
      "ప్రధానమంత్రి": 6734,
      "▁ఆఫ్": 6735,
      "▁సాం": 6736,
      "ातंत्र": 6737,
      "▁खास": 6738,
      "ార్లమె": 6739,
      "▁Vol": 6740,
      "▁Chinese": 6741,
      "కిస్థాన్": 6742,
      "▁यादी": 6743,
      "▁जनता": 6744,
      "-symbols": 6745,
      "▁నే": 6746,
      "▁నగర": 6747,
      "▁1997": 6748,
      "general": 6749,
      "newsite": 6750,
      "▁वर्तमान": 6751,
      "▁इसी": 6752,
      "द्वित": 6753,
      "▁२००": 6754,
      "ాయి.": 6755,
      "టిబె": 6756,
      "్రీ.పూ.": 6757,
      "▁समूह": 6758,
      "पीए": 6759,
      "शील": 6760,
      "ैनिक": 6761,
      "anskrit](./Sanskrit": 6762,
      "ండియా": 6763,
      "on-Alig": 6764,
      "▁ఎక్కువ": 6765,
      "▁ఎన్నో": 6766,
      "िक्षा": 6767,
      "asp?": 6768,
      "national-symbols": 6769,
      "▁वायु": 6770,
      "▁जिसके": 6771,
      "्यटन\")": 6772,
      "▁अधिकार": 6773,
      "]](./भारत#cite_note-10": 6774,
      "▁[↑](./भारत#cite_ref-10": 6775,
      "_సం": 6776,
      "▁भूगोल": 6777,
      "ారు.\r\n": 6778,
      "दिल्ली](./दिल्ली": 6779,
      "श्रीनगर": 6780,
      "టుంబ": 6781,
      "_एवं": 6782,
      "जयपुर": 6783,
      "_का_खाना": 6784,
      "▁భారత్": 6785,
      "▁अपनी": 6786,
      "2001),": 6787,
      "▁तटीय": 6788,
      "▁एशिया\")": 6789,
      "ovisions": 6790,
      "▁మొత్తం": 6791,
      "▁हुआ।": 6792,
      "▁[e](./विशेष:EditPage/साँचा:": 6793,
      "▁లే": 6794,
      "▁सुधार": 6795,
      "▁ऊर्जा": 6796,
      "బాద్": 6797,
      "▁प्रतिशत": 6798,
      "ంపెనీ": 6799,
      "्ता:भारत": 6800,
      "ूरोपीय": 6801,
      "हिन्द_महासागर": 6802,
      "ोहन": 6803,
      "హ్మ": 6804,
      "▁उद्यान\")": 6805,
      "▁व्यापार": 6806,
      ".aspx?rel": 6807,
      "▁ఏర్": 6808,
      "▁\"हिन्दी\")": 6809,
      "१८५७": 6810,
      "▁शक्तिपीठ": 6811,
      "్రిటిషు": 6812,
      "](./मध्य_प्रदेश": 6813,
      "▁राजवंश\")": 6814,
      "▁[t](./साँचा_वार": 6815,
      "▁[v](./साँचा:": 6816,
      "▁किन्तु": 6817,
      "▁सहयोग": 6818,
      "▁विदेशी": 6819,
      "_और_संघ_क्षेत्र": 6820,
      "ecretary": 6821,
      "_राज्यक्षेत्र": 6822,
      "AGE": 6823,
      "▁सितंबर": 6824,
      "तिब्बत": 6825,
      "_के_अनुसार_देशों_की_सूची": 6826,
      "▁అత్యధిక": 6827,
      "ईसाई": 6828,
      "ీర్ణ": 6829,
      "దక్షిణ_ఆసియా": 6830,
      "▁गठबंधन": 6831,
      "pib.nic.in/newsite": 6832,
      "ikipedia:": 6833,
      "र्तग": 6834,
      "▁[गुजरात](./गुजरात": 6835,
      "▁\"गुजरात\")": 6836,
      "lease.aspx?rel": 6837,
      "▁हालाँकि": 6838,
      "▁प्रजाती": 6839,
      "िन्धु-गंगा": 6840,
      "ార్లమెంట": 6841,
      "on-Aligned": 6842,
      "-asia": 6843,
      "01": 6844,
      "05": 6845,
      "2–": 6846,
      "4-3": 6847,
      "IB": 6848,
      "_ex": 6849,
      "cess": 6850,
      "ead": 6851,
      "f/": 6852,
      "hā": 6853,
      "n-": 6854,
      "{{": 6855,
      "▁Z": 6856,
      "▁Un": 6857,
      "▁ob": 6858,
      "](./International": 6859,
      "▁\"International": 6860,
      "tegra": 6861,
      "alys": 6862,
      "ices": 6863,
      "icator": 6864,
      "▁India\r\n": 6865,
      "▁India](./P": 6866,
      "19)": 6867,
      "▁poll": 6868,
      "-100": 6869,
      "▁Ag": 6870,
      "▁15.": 6871,
      "▁13.": 6872,
      "▁Singh": 6873,
      "▁census": 6874,
      "▁based": 6875,
      "ily": 6876,
      "▁Tamil": 6877,
      "opal": 6878,
      "▁Book": 6879,
      "indicator": 6880,
      "▁1971": 6881,
      "osition": 6882,
      "▁2000": 6883,
      "ody": 6884,
      "▁near": 6885,
      "18)": 6886,
      "▁John": 6887,
      "-90": 6888,
      "251": 6889,
      "-519": 6890,
      "▁original](http://": 6891,
      "▁pro": 6892,
      "articles": 6893,
      "hmed": 6894,
      "_Times": 6895,
      "▁10.": 6896,
      "▁\"Kashmir": 6897,
      "▁[Ludden": 6898,
      "▁adop": 6899,
      "KulkeRothermund2004),": 6900,
      "/articles/": 6901,
      ".cms).": 6902,
      "▁2022.\r\n": 6903,
      "▁(2018).": 6904,
      "ksai": 6905,
      "economictimes.indiatimes.com/": 6906,
      "▁According": 6907,
      "Library_of_Congress": 6908,
      "ources": 6909,
      "▁widely": 6910,
      "\"](http://www.": 6911,
      "&ss": 6912,
      "*[": 6913,
      ",8": 6914,
      ",9": 6915,
      "-O": 6916,
      "-R": 6917,
      "-res": 6918,
      "3).": 6919,
      "8+": 6920,
      "9-6": 6921,
      ":**": 6922,
      "=0": 6923,
      "=`": 6924,
      "DD": 6925,
      "David": 6926,
      "Empire": 6927,
      "Home": 6928,
      "Language": 6929,
      "MAAJ": 6930,
      "New": 6931,
      "Official": 6932,
      "SN": 6933,
      "_ह": 6934,
      "bel": 6935,
      "caste": 6936,
      "ier": 6937,
      "iote": 6938,
      "oz": 6939,
      "oti": 6940,
      "pen": 6941,
      "tances": 6942,
      "y=": 6943,
      "ंश": 6944,
      "ंनी": 6945,
      "ंच्या": 6946,
      "ओस": 6947,
      "ग्": 6948,
      "घा": 6949,
      "डु": 6950,
      "दारी": 6951,
      "पदी": 6952,
      "मो": 6953,
      "मधील": 6954,
      "लिम": 6955,
      "वरा": 6956,
      "सित": 6957,
      "ाची": 6958,
      "ोण": 6959,
      "ोत्तर": 6960,
      "ौपदी": 6961,
      "६६": 6962,
      "–4": 6963,
      "▁est": 6964,
      "▁[ए": 6965,
      "▁[Indus": 6966,
      "▁\"In": 6967,
      "▁\"विश्व": 6968,
      "\")\"": 6969,
      "ina\")": 6970,
      "onome": 6971,
      "till": 6972,
      "erb": 6973,
      "erm": 6974,
      "ar,": 6975,
      "aria": 6976,
      "arrow": 6977,
      "anada": 6978,
      "ora": 6979,
      "oram": 6980,
      "orce": 6981,
      "alla": 6982,
      "alore": 6983,
      "▁appr": 6984,
      "▁समुद्र": 6985,
      "itch": 6986,
      "▁often": 6987,
      "▁पै": 6988,
      "▁पक्ष": 6989,
      "ashi": 6990,
      "रामाय": 6991,
      "▁India\"](https://web.archive.org/web/201": 6992,
      "190": 6993,
      "lex": 6994,
      "र्ट": 6995,
      "र्न": 6996,
      "▁school": 6997,
      "uss": 6998,
      "ects": 6999,
      "▁cur": 7000,
      "▁cul": 7001,
      "▁central": 7002,
      "▁colle": 7003,
      "▁Cather": 7004,
      "weep": 7005,
      "lief": 7006,
      "▁middle": 7007,
      "▁market": 7008,
      "hek": 7009,
      "▁work": 7010,
      "▁where": 7011,
      "angana": 7012,
      "angalore": 7013,
      "fied": 7014,
      "▁Temple": 7015,
      "_of_South_Asia": 7016,
      "ंगोल": 7017,
      "igonome": 7018,
      "लाओस": 7019,
      "adakh": 7020,
      "adweep": 7021,
      "▁तसे": 7022,
      "▁तुल": 7023,
      "▁निकोबार": 7024,
      "emon": 7025,
      "emen": 7026,
      "तात": 7027,
      "▁Dance": 7028,
      "elangana": 7029,
      "osis": 7030,
      "▁*B": 7031,
      "▁house": 7032,
      "unleav": 7033,
      "imin": 7034,
      "स्लिम": 7035,
      "ly,": 7036,
      "▁2002": 7037,
      "▁2008](./India#CITEREF": 7038,
      "ayashi": 7039,
      "508": 7040,
      "-8\").\r\n": 7041,
      "▁Nuclear": 7042,
      "▁31": 7043,
      "▁37": 7044,
      "री\")": 7045,
      "1992": 7046,
      "bercul": 7047,
      "▁reg": 7048,
      "वाहर": 7049,
      "rib": 7050,
      "]](./India#cite_note-FOOTNOTEStein2010": 7051,
      "प्रदेश": 7052,
      "ली.": 7053,
      "1857": 7054,
      "▁विषय": 7055,
      "form": 7056,
      "▁third": 7057,
      "stan": 7058,
      "ishes": 7059,
      "aval": 7060,
      "AAMAAJ": 7061,
      "_मु": 7062,
      "15)": 7063,
      "16]](./India#cite_note-": 7064,
      "_Agency": 7065,
      "▁Law": 7066,
      "▁रे": 7067,
      "▁Indians": 7068,
      "द्रौपदी": 7069,
      "hib": 7070,
      "▁[Craven": 7071,
      "हात्": 7072,
      "▁Wiley": 7073,
      "र्मू": 7074,
      "ummer": 7075,
      "253": 7076,
      "▁rural": 7077,
      "▁rock": 7078,
      "▁rupee": 7079,
      "द्दाख": 7080,
      "ians": 7081,
      "▁\"Ar": 7082,
      "▁प्रदेश](./मध्य_प्रदेश": 7083,
      "▁[Pakistan": 7084,
      "▁\"Tamil": 7085,
      "2011religion": 7086,
      "▁within": 7087,
      "](./Tamil": 7088,
      "aju": 7089,
      "▁नेहर": 7090,
      "त्न": 7091,
      "ompany": 7092,
      "दाबाद": 7093,
      "▁[Delhi": 7094,
      "जनप": 7095,
      "▁[New": 7096,
      "_Economic": 7097,
      "neworld": 7098,
      "▁\"बंगाल": 7099,
      "global": 7100,
      "म्राट": 7101,
      "ameez": 7102,
      "ohan": 7103,
      "ohenj": 7104,
      "uggle": 7105,
      "▁20.": 7106,
      "_dynasty": 7107,
      "▁Urdu": 7108,
      "▁१९८": 7109,
      "वर्ती": 7110,
      "▁[उर्दू": 7111,
      "amily": 7112,
      "](./उर्दू": 7113,
      "▁\"उर्दू": 7114,
      "ina](./Ch": 7115,
      "न्नड": 7116,
      "स्कृत](./संस्कृत": 7117,
      "▁These": 7118,
      "KulkeRothermund2016": 7119,
      "2014-p": 7120,
      "▁बहुमत": 7121,
      "▁trade": 7122,
      "ublishers": 7123,
      "son2014-p": 7124,
      "▁शिक्षण": 7125,
      "Environment": 7126,
      "▁century,": 7127,
      "▁even": 7128,
      "▁include": 7129,
      "▁[China](./Ch": 7130,
      "lectri": 7131,
      "हाय्य": 7132,
      "▁Buddhist": 7133,
      "rishna": 7134,
      "Ludden2014": 7135,
      "▁early": 7136,
      "▁longer": 7137,
      "truction": 7138,
      "business-": 7139,
      "union_territory": 7140,
      "riage": 7141,
      "rupee": 7142,
      "▁cities": 7143,
      "▁major": 7144,
      "▁majority": 7145,
      "▁द्वीपसमूह": 7146,
      "eography": 7147,
      "Census2011religion": 7148,
      "akshadweep": 7149,
      "▁education": 7150,
      "▁served": 7151,
      "inancial": 7152,
      "▁caused": 7153,
      "rajbhasha": 7154,
      "o-daro": 7155,
      "](./उत्तर_प्रदेश": 7156,
      "हमदाबाद": 7157,
      "](./Mughal_Empire": 7158,
      "harmaceutical": 7159,
      "awaharlal": 7160,
      "▁[India](./India)": 7161,
      "Tarlo1996-2": 7162,
      "beralisation": 7163,
      "Davidson2014-p": 7164,
      "Home_Affairs": 7165,
      "▁establ": 7166,
      "▁Catherine": 7167,
      "▁तसेच": 7168,
      "berculosis": 7169,
      "वाहरलाल": 7170,
      "हात्मा": 7171,
      "ohenjo-daro": 7172,
      "▁[उर्दू](./उर्दू": 7173,
      "▁[China](./China": 7174,
      "350": 7175,
      "430": 7176,
      "51)": 7177,
      "C)": 7178,
      "_per": 7179,
      "_history": 7180,
      "egh": 7181,
      "iu": 7182,
      "k-": 7183,
      "onk": 7184,
      "oriti": 7185,
      "ene": 7186,
      "▁(1):": 7187,
      "htra": 7188,
      "ashtra": 7189,
      "lag": 7190,
      "▁Century": 7191,
      "atan": 7192,
      "atures": 7193,
      "library": 7194,
      "etwork": 7195,
      "▁man": 7196,
      "▁27.": 7197,
      "▁Movement": 7198,
      "▁Tw": 7199,
      "▁domestic": 7200,
      "▁Report": 7201,
      "▁1980": 7202,
      "▁*A": 7203,
      "13)": 7204,
      "](https://web.archive.org/web/20": 7205,
      "17.": 7206,
      "▁([link": 7207,
      "23.": 7208,
      "▁[*M": 7209,
      "efence": 7210,
      "▁77.": 7211,
      "▁disc": 7212,
      "AsherTalbot2008),": 7213,
      "-level": 7214,
      ".cms)": 7215,
      "ocuments/": 7216,
      "▁commun": 7217,
      "▁Monetary": 7218,
      "](https://en.wikipedia": 7219,
      "_maint:": 7220,
      "eghalay": 7221,
      "orities/": 7222,
      "-j": 7223,
      "-च": 7224,
      "-ex": 7225,
      "1]](./भारत#cite_note-": 7226,
      "223": 7227,
      "318": 7228,
      "520": 7229,
      "6.\r\n": 7230,
      ":IN": 7231,
      "_9": 7232,
      "_v": 7233,
      "_त": 7234,
      "_या": 7235,
      "_జాబితా": 7236,
      "jo": 7237,
      "music": 7238,
      "uin": 7239,
      "ंजन": 7240,
      "अरब": 7241,
      "क\")": 7242,
      "कटिबंधीय": 7243,
      "ख्": 7244,
      "चित्र": 7245,
      "टना": 7246,
      "ण्या": 7247,
      "तान": 7248,
      "भिन्न": 7249,
      "मूल": 7250,
      "ये": 7251,
      "यार": 7252,
      "लेशिया": 7253,
      "व\")": 7254,
      "वास": 7255,
      "श्य": 7256,
      "शाली": 7257,
      "शक्ति": 7258,
      "हते": 7259,
      "िली": 7260,
      "ुव": 7261,
      "ूटी": 7262,
      "ूनाइ": 7263,
      "ोसी": 7264,
      "ంతం": 7265,
      "ఆంధ": 7266,
      "కీ": 7267,
      "కాలు": 7268,
      "క్రమ": 7269,
      "గర్": 7270,
      "డో": 7271,
      "థి": 7272,
      "నె": 7273,
      "నాలు": 7274,
      "పించ": 7275,
      "భర": 7276,
      "మహ": 7277,
      "మై": 7278,
      "యన": 7279,
      "రంగ": 7280,
      "లయా": 7281,
      "లతో": 7282,
      "వార": 7283,
      "శీ": 7284,
      "షనల్": 7285,
      "స్య": 7286,
      "ృద్ధి": 7287,
      "ెంగ": 7288,
      "–17": 7289,
      "–120": 7290,
      "▁భారతీయ": 7291,
      "▁54": 7292,
      "▁धीरे": 7293,
      "▁నాగరికత": 7294,
      "▁టెక్నాలజీ": 7295,
      "](./बा": 7296,
      "](./ఢిల్లీ": 7297,
      "▁[ख": 7298,
      "▁[In": 7299,
      "▁[चीन": 7300,
      "▁[International": 7301,
      "▁[दिल्ली](./दिल्ली": 7302,
      "▁\"बा": 7303,
      "on,": 7304,
      "tives": 7305,
      "ारे": 7306,
      "▁कला": 7307,
      "्रय": 7308,
      "isi": 7309,
      "▁air": 7310,
      "▁across": 7311,
      "▁सश": 7312,
      "▁सी": 7313,
      "▁सो": 7314,
      "▁पृष्ठ": 7315,
      "ided": 7316,
      "్రై": 7317,
      "్రప్రదేశ్": 7318,
      "▁policy": 7319,
      "ानून": 7320,
      "र्भ": 7321,
      "र्मा": 7322,
      "-15": 7323,
      "geoh": 7324,
      "▁18.": 7325,
      "▁Summit": 7326,
      "िकास": 7327,
      "िकेट": 7328,
      "](https://catalog": 7329,
      "▁bel": 7330,
      "▁वी": 7331,
      "atch": 7332,
      "atter": 7333,
      "ालर": 7334,
      "▁men": 7335,
      "▁जिन्": 7336,
      "దేశం": 7337,
      "దేశాల": 7338,
      "▁प्रशास": 7339,
      "▁प्रमाण": 7340,
      "olia": 7341,
      "▁आम": 7342,
      "▁आय": 7343,
      "▁आंद": 7344,
      "▁Modi": 7345,
      "▁Machine": 7346,
      "▁Te": 7347,
      "ंगड": 7348,
      "స్\")": 7349,
      "▁बल": 7350,
      "▁बदल": 7351,
      "▁बैंक": 7352,
      "भाष": 7353,
      "▁ती": 7354,
      "ర్‌": 7355,
      "_सागर": 7356,
      "లు?action=edit&redlink=1": 7357,
      "os/": 7358,
      "121–": 7359,
      "రాఠ": 7360,
      "विजयनगर": 7361,
      "▁local": 7362,
      "imachal": 7363,
      "स्चेंज": 7364,
      "▁కి": 7365,
      "▁కో": 7366,
      "▁Home": 7367,
      "క్టో": 7368,
      "रीक्षण": 7369,
      "▁వర్": 7370,
      "▁వారస": 7371,
      "నియా": 7372,
      "▁गए": 7373,
      "▁गति": 7374,
      "▁शांति": 7375,
      "▁उस": 7376,
      "्रेल": 7377,
      "्रेस": 7378,
      "वाँ": 7379,
      "ల్వే": 7380,
      "प्रस": 7381,
      "साय": 7382,
      "साठी": 7383,
      "▁సరిహద్దు": 7384,
      "abin": 7385,
      "40)": 7386,
      "▁మన": 7387,
      "▁మూ": 7388,
      "]](./भारत#cite_note-Combined": 7389,
      "▁ప్రము": 7390,
      "▁ప్రతి": 7391,
      "▁ప్రస్తు": 7392,
      "▁ప్రకారం": 7393,
      "_मो": 7394,
      "पांड": 7395,
      "15/": 7396,
      "ड़िशा": 7397,
      "ండమా": 7398,
      "uccess": 7399,
      "▁చిన్న": 7400,
      "తాన": 7401,
      "280": 7402,
      "289": 7403,
      "ियर": 7404,
      "▁\"मुंबई": 7405,
      "](./मुंबई": 7406,
      "త్వం": 7407,
      ")[[13": 7408,
      "▁भाषाएं": 7409,
      "▁(సా.శ.17": 7410,
      "▁(సా.శ.14": 7411,
      "ులు,": 7412,
      "–సా.శ.15": 7413,
      "–సా.శ.17": 7414,
      "▁[↑](./भारत#cite_ref-Combined": 7415,
      "కుంట": 7416,
      "కుడు": 7417,
      "నుమ": 7418,
      "▁\"Th": 7419,
      "](./कर्नाटक": 7420,
      "▁\"कर्नाटक": 7421,
      "ंत्रिक": 7422,
      "ंत्रिम": 7423,
      "▁पुलिस": 7424,
      "ింది.\r\n": 7425,
      "▁चल": 7426,
      "▁[कर्नाटक": 7427,
      "▁अभी": 7428,
      "▁अभियान": 7429,
      "▁రో": 7430,
      "▁రవాణా": 7431,
      "▁సాధించ": 7432,
      "▁होते": 7433,
      "▁any": 7434,
      "ష్టు": 7435,
      "E0%B0%": 7436,
      "▁[GDP": 7437,
      "▁79.": 7438,
      "ంతో": 7439,
      "news": 7440,
      "▁वर्ण": 7441,
      "మించ": 7442,
      "रेन्द्र": 7443,
      "పాలన": 7444,
      "▁नागर": 7445,
      "ेरळ": 7446,
      "ం](./భారతీయ": 7447,
      "ल्ड": 7448,
      "ूर्य": 7449,
      "నేషనల్": 7450,
      "onstitution_of_India": 7451,
      ",_కేంద్రపాలిత": 7452,
      "▁విభ": 7453,
      "वर्ल्ड": 7454,
      "వందే": 7455,
      "▁ప్రాచ": 7456,
      "तिहासिक": 7457,
      "▁किया।": 7458,
      "▁రాజ్యం](./": 7459,
      "▁బా": 7460,
      "▁బహు": 7461,
      "▁బెంగ": 7462,
      "▁गया।[[": 7463,
      "▁CITEREFKulkeRothermund2004": 7464,
      "684": 7465,
      "_संविधान": 7466,
      "▁around": 7467,
      "आई.": 7468,
      "ాల్లో": 7469,
      "www.cia": 7470,
      "▁मानव": 7471,
      "▁notation": 7472,
      "▁deb": 7473,
      "टेड": 7474,
      "oyal": 7475,
      "_Mon": 7476,
      "శ్వా": 7477,
      "ूचना-विज्ञान": 7478,
      "ారిటీ": 7479,
      "स्ट्रेल": 7480,
      "AsherTalbot200853": 7481,
      "एस.": 7482,
      "▁[↑](./भारत#cite_ref-FOOTNOTEStein1998": 7483,
      "▁2016.\r\n": 7484,
      "ड़ीसा": 7485,
      "_1960": 7486,
      "▁\"Official": 7487,
      "▁पार्ट": 7488,
      "▁Art": 7489,
      "▁స్వాతంత్ర్య": 7490,
      "▁अपना": 7491,
      "▁इतिहास\")": 7492,
      "▁धरोहर": 7493,
      "त्तराखंड": 7494,
      "తున్న": 7495,
      "▁\"जम्मू": 7496,
      "న్నిక": 7497,
      "कल_घ": 7498,
      "▁కాలంలో": 7499,
      "दुस्तान": 7500,
      "▁माध्यम": 7501,
      "▁संविधान\")": 7502,
      "](./जम्मू": 7503,
      "మెరి": 7504,
      "राष्ट्रपति\")": 7505,
      "cat.org/": 7506,
      "tudy": 7507,
      "▁थी।": 7508,
      "data.worldbank.org/": 7509,
      "▁ऊँ": 7510,
      "हायक": 7511,
      "छत्तीसगढ": 7512,
      "▁स्थापना": 7513,
      "ంపి": 7514,
      "బెంగాల్": 7515,
      "-a-b": 7516,
      "ెలవు": 7517,
      "▁लाख": 7518,
      "](./భారతదేశంలో_": 7519,
      "▁अनुसंधान": 7520,
      "-India.pdf)": 7521,
      "▁लेकर": 7522,
      "ीपी)": 7523,
      "रेलू_उत्पाद": 7524,
      "MetcalfMetcalf2012-2": 7525,
      "ष्णकटिबंधीय": 7526,
      "britannica.com/place": 7527,
      "▁सूचना-विज्ञान": 7528,
      "▁అధికారిక": 7529,
      "▁विस्तृत": 7530,
      "ఆర్ధిక": 7531,
      "वर्ग:CS1": 7532,
      "▁కాశ్మీరు": 7533,
      "irectorate": 7534,
      "_सेना": 7535,
      "▁రెండు": 7536,
      "ब्लिक": 7537,
      "▁अमेरिका": 7538,
      "thehindu": 7539,
      "▁हवामान": 7540,
      "▁जबकि": 7541,
      "▁పట్టణ": 7542,
      "▁नीति": 7543,
      "संख्ये": 7544,
      "▁అయిన": 7545,
      "ాల్దీవులు": 7546,
      "▁टक्के": 7547,
      "ట్రో": 7548,
      "ుల్తాన": 7549,
      "ంగ్లీషు": 7550,
      "రాష్ట్రాలు,_కేంద్రపాలిత": 7551,
      "▁2004](./भारत#CITEREFKulkeRothermund2004),": 7552,
      "దినోత్సవం": 7553,
      "▁వ్యాసం:": 7554,
      "्यायपालिका": 7555,
      "_and_union_territories_of_India": 7556,
      "0%E0%A4%": 7557,
      "▁ఏర్ప": 7558,
      "hāra": 7559,
      "▁obs": 7560,
      "tegration": 7561,
      "▁तुलना": 7562,
      "_यादी": 7563,
      "मूल्य": 7564,
      "ूनाइटेड": 7565,
      "ఆంధ్రప్రదేశ్": 7566,
      "లయాళ": 7567,
      "geohack": 7568,
      "▁ప్రముఖ": 7569,
      "कल_घरेलू_उत्पाद": 7570,
      "data.worldbank.org/indicator": 7571,
      "రాష్ట్రాలు,_కేంద్రపాలిత_ప్రాంత": 7572,
      "*](https://web.archive.org/web/200": 7573,
      "-ch": 7574,
      "-ra": 7575,
      "/news/": 7576,
      "4_": 7577,
      "4-0": 7578,
      "96": 7579,
      "BI": 7580,
      "Constituent": 7581,
      "Gangetic": 7582,
      "Human": 7583,
      "JP": 7584,
      "K:": 7585,
      "OV": 7586,
      "PT": 7587,
      "_&": 7588,
      "_w": 7589,
      "_at": 7590,
      "_2008": 7591,
      "_World": 7592,
      "aury": 7593,
      "audi": 7594,
      "cur": 7595,
      "dministrative": 7596,
      "government": 7597,
      "good": 7598,
      "hag": 7599,
      "i](./M": 7600,
      "jha": 7601,
      "lé": 7602,
      "min": 7603,
      "mon": 7604,
      "mal": 7605,
      "mas": 7606,
      "mall": 7607,
      "mira": 7608,
      "oe": 7609,
      "oal": 7610,
      "oes": 7611,
      "ped": 7612,
      "pub": 7613,
      "s:": 7614,
      "tool": 7615,
      "uff": 7616,
      "uters": 7617,
      "veda": 7618,
      "yth": 7619,
      "ying": 7620,
      "ypr": 7621,
      "–11": 7622,
      "–Pakistan": 7623,
      "▁X": 7624,
      "▁times": 7625,
      "](./U": 7626,
      "](./South_Asia": 7627,
      "▁[Harle": 7628,
      "▁[978-0-19-9": 7629,
      "▁[978-0-521-80904-7": 7630,
      "inces": 7631,
      "in-O": 7632,
      "til": 7633,
      "erce": 7634,
      "though": 7635,
      "antal": 7636,
      "orary": 7637,
      "orpor": 7638,
      "orne": 7639,
      "alit": 7640,
      "alakrishn": 7641,
      "en/": 7642,
      "ena": 7643,
      "esti": 7644,
      "istic": 7645,
      "itar": 7646,
      "itor": 7647,
      "▁(in": 7648,
      "▁(2003": 7649,
      "▁(union": 7650,
      "ought": 7651,
      "asi": 7652,
      "▁pur": 7653,
      "▁inter": 7654,
      "▁sha": 7655,
      "▁sultanate": 7656,
      "tric": 7657,
      "laci": 7658,
      "-13": 7659,
      "ing,": 7660,
      "▁Age": 7661,
      "ustice": 7662,
      "▁118": 7663,
      "▁Schedule": 7664,
      "ecu": 7665,
      "▁cond": 7666,
      "▁common": 7667,
      "▁Cynth": 7668,
      "▁br": 7669,
      "atyam": 7670,
      "lion": 7671,
      "lipp": 7672,
      "urg": 7673,
      "urasia": 7674,
      "acred": 7675,
      "anged": 7676,
      "▁2016.": 7677,
      "rest": 7678,
      "]](./India#cite_note-4": 7679,
      "olid": 7680,
      "olice": 7681,
      "▁Man": 7682,
      "▁diversity": 7683,
      "106": 7684,
      "10-2": 7685,
      "adra": 7686,
      "adras": 7687,
      "mentin-O": 7688,
      "tices": 7689,
      "umer": 7690,
      "-23": 7691,
      "2025": 7692,
      "_(union_territory": 7693,
      "▁Dev": 7694,
      "▁[↑](./India#cite_ref-Combined": 7695,
      "▁1970": 7696,
      "▁E.": 7697,
      "imedia": 7698,
      "akers": 7699,
      "-4\").": 7700,
      "▁34": 7701,
      "](./India#CITEREFCraven1997": 7702,
      "apa": 7703,
      "▁[\"M": 7704,
      "▁[\"P": 7705,
      "▁numbers": 7706,
      "▁Journal": 7707,
      "ount": 7708,
      "26.": 7709,
      "▁three": 7710,
      "ishing": 7711,
      "▁2023.": 7712,
      "](./Climate_": 7713,
      "▁Organisation": 7714,
      "-99": 7715,
      "hilipp": 7716,
      "_and_F": 7717,
      "artial": 7718,
      "▁[↑](./India#cite_ref-FOOTNOTECraven1997": 7719,
      "agara": 7720,
      "gions": 7721,
      "-7\").\r\n": 7722,
      "▁[Mughal": 7723,
      "](./Special:BookSources/978-0-19-9": 7724,
      "▁river": 7725,
      "▁\"Special:BookSources/978-0-19-9": 7726,
      "▁tree": 7727,
      "ourism": 7728,
      "▁[Bengal": 7729,
      "▁\"Bengal": 7730,
      "ommons": 7731,
      "ianity": 7732,
      "2006),": 7733,
      "_Publishing": 7734,
      "alled": 7735,
      "▁*[B": 7736,
      "384": 7737,
      "Harvard": 7738,
      "](./Ar": 7739,
      "exis": 7740,
      "ardian": 7741,
      "▁\"East": 7742,
      "▁\"Economic": 7743,
      "](./Economic": 7744,
      "54)": 7745,
      "ible": 7746,
      "▁villa": 7747,
      "▁well": 7748,
      "566": 7749,
      "rence": 7750,
      "_Bank": 7751,
      "tence": 7752,
      "58)": 7753,
      "▁(2016).": 7754,
      "39)": 7755,
      "▁subject": 7756,
      "51-9": 7757,
      "_Games": 7758,
      "incely": 7759,
      "ayanagara": 7760,
      "_Indian_subcontinent": 7761,
      "_relations": 7762,
      "ID-19": 7763,
      "crimin": 7764,
      "▁election\"),": 7765,
      "▁2023](./India#CITEREF": 7766,
      "▁traditional": 7767,
      "▁supp": 7768,
      "▁music\")": 7769,
      "izoram": 7770,
      "▁upper": 7771,
      "ijayanagara": 7772,
      "Hindustani": 7773,
      "aharashtra": 7774,
      "Harle1994),": 7775,
      "▁texts": 7776,
      "aurya": 7777,
      "janta": 7778,
      "ilies": 7779,
      "ealand": 7780,
      "▁Publishing\").": 7781,
      "▁rights": 7782,
      "▁Europe*](https://books.google.com/books?id=": 7783,
      "▁popular": 7784,
      ".[[406]](./India#cite_note-vatsyayan-lord-4": 7785,
      "ibetan": 7786,
      "hristianity": 7787,
      "ietnam": 7788,
      "urchasing": 7789,
      "hutan": 7790,
      "_industry_in_India": 7791,
      "ichell2000": 7792,
      "olnar2015": 7793,
      "67733": 7794,
      "kbar": 7795,
      "▁following": 7796,
      "ikkim": 7797,
      "olitical_": 7798,
      "▁kingdoms": 7799,
      "ambodia": 7800,
      "▁emerged": 7801,
      "IFTY": 7802,
      "razil": 7803,
      "▁[↑](./India#cite_ref-1": 7804,
      "▁divisions": 7805,
      "▁1994](./India#CITEREFHarle1994),": 7806,
      "touchability": 7807,
      "▁1997](./India#CITEREFCraven1997": 7808,
      "alysis": 7809,
      "Library_of_Congress2004": 7810,
      "8+5": 7811,
      "itchison": 7812,
      "OVID-19": 7813,
      "lémentin-O": 7814,
      "yprus": 7815,
      "▁Cynthia": 7816,
      "_(union_territory)": 7817,
      "hilippines": 7818,
      "▁1997](./India#CITEREFCraven1997),": 7819,
      "lémentin-Ojha": 7820,
      "\"](https://web.archive.org/web/202": 7821,
      "-T": 7822,
      "-language": 7823,
      "._": 7824,
      ".स": 7825,
      "4,": 7826,
      "613": 7827,
      "61)": 7828,
      "722": 7829,
      "DR": 7830,
      "Economic": 7831,
      "Jha": 7832,
      "RA": 7833,
      "_ध": 7834,
      "_पार": 7835,
      "aedia": 7836,
      "bd": 7837,
      "culture": 7838,
      "eb": 7839,
      "ehl": 7840,
      "ield": 7841,
      "med.": 7842,
      "tw": 7843,
      "vent": 7844,
      "yed": 7845,
      "इतिहास": 7846,
      "गी": 7847,
      "जास": 7848,
      "तः": 7849,
      "तपु": 7850,
      "पीप": 7851,
      "यल": 7852,
      "वणी": 7853,
      "षद": 7854,
      "ाचे": 7855,
      "िझ": 7856,
      "िष्ठ": 7857,
      "ीडिया": 7858,
      "ेन": 7859,
      "्थ": 7860,
      "्मार": 7861,
      "▁%": 7862,
      "▁<": 7863,
      "▁ढ": 7864,
      "▁70": 7865,
      "▁60": 7866,
      "▁टे": 7867,
      "](./धर्म": 7868,
      "](./विश्व": 7869,
      "](./श्रीलंका": 7870,
      "▁[विश्व": 7871,
      "▁[श्रीलंका": 7872,
      "▁\"धर्म": 7873,
      "▁\"श्रीलंका": 7874,
      "▁\"en:": 7875,
      "▁कंपनी": 7876,
      "्यु": 7877,
      "▁(J": 7878,
      "▁माना": 7879,
      "राव": 7880,
      "राठा": 7881,
      "▁India\".": 7882,
      "19.": 7883,
      "laim": 7884,
      "▁हाल": 7885,
      "▁केले": 7886,
      "rah": 7887,
      "▁birth": 7888,
      "▁Portal": 7889,
      "▁Present": 7890,
      "▁22.": 7891,
      "▁आदि": 7892,
      ".co": 7893,
      "▁Britannica": 7894,
      "▁Barb": 7895,
      "▁Gana": 7896,
      "▁शहरी": 7897,
      "▁उदा": 7898,
      "ripura": 7899,
      "▁Food": 7900,
      "▁Factbook": 7901,
      "▁संयुक्त": 7902,
      "▁इतर": 7903,
      "263": 7904,
      "]](./भारत#cite_note-B": 7905,
      "त्ताक": 7906,
      "143": 7907,
      "▁Ludden": 7908,
      "▁रु": 7909,
      "231": 7910,
      "24.": 7911,
      "▁करते": 7912,
      "ंदिरा": 7913,
      "▁प्रदेश](./उत्तर_प्रदेश": 7914,
      "ंत्रण": 7915,
      "▁[स्व": 7916,
      "▁आहे.\r\n": 7917,
      "▁आहे.[[": 7918,
      "जीवन": 7919,
      "▁vers": 7920,
      "type": 7921,
      "▁1999": 7922,
      "▁नाव": 7923,
      "▁[ब्रिटिश": 7924,
      "▁[बौद्ध": 7925,
      "▁[बिहार": 7926,
      "▁\"बिहार": 7927,
      "](./बिहार": 7928,
      "ख्यिकी": 7929,
      "ल्पा": 7930,
      "▁History*](https://books.google.com/books?id=": 7931,
      "%E0%A4%9": 7932,
      "स्कृतिक": 7933,
      "-in-india": 7934,
      "/countries/": 7935,
      "_नृत्य": 7936,
      "्यांची": 7937,
      "▁विकसित": 7938,
      "▁मोठ": 7939,
      "34238": 7940,
      "▁केंद्रशासित": 7941,
      "▁झाला": 7942,
      "](./संयुक्त": 7943,
      "▁\"संयुक्त": 7944,
      "▁न्यायाधीश": 7945,
      "cyclopaedia": 7946,
      "/08/": 7947,
      "▁ईस्ट": 7948,
      "11934238": 7949,
      "तेलुगु": 7950,
      "▁\"पंजाबी": 7951,
      "▁[पंजाबी": 7952,
      "दर्भ": 7953,
      "▁आकर्ष": 7954,
      "्यानमार": 7955,
      "1947)": 7956,
      "▁dispute": 7957,
      "](./भारत_सरकार": 7958,
      "ग्वेद": 7959,
      "_Assembly": 7960,
      "प्पा": 7961,
      "ातंत्र्य": 7962,
      "रामायण": 7963,
      "▁([link](./": 7964,
      "](https://en.wikipedia.org/wiki/": 7965,
      "eghalaya": 7966,
      "जासत्ताक": 7967,
      "▁[श्रीलंका](./श्रीलंका": 7968,
      "▁\"श्रीलंका\")": 7969,
      "▁Ludden,": 7970,
      "▁[बिहार](./बिहार": 7971,
      "▁\"बिहार\")": 7972,
      "11934238p": 7973,
      "%)": 7974,
      ",6": 7975,
      "1_3": 7976,
      "2)\r\n": 7977,
      "270": 7978,
      "3,": 7979,
      "700": 7980,
      ":\r\n": 7981,
      "CA": 7982,
      "Col": 7983,
      "_33": 7984,
      "_22": 7985,
      "aul": 7986,
      "dis": 7987,
      "mend": 7988,
      "pact": 7989,
      "rance": 7990,
      "wa": 7991,
      "zb": 7992,
      "ortion": 7993,
      "▁India](./D": 7994,
      "id-": 7995,
      "id=1": 7996,
      "-03": 7997,
      "-07": 7998,
      "▁inequality": 7999,
      "enty-": 8000,
      ").[[": 8001,
      "▁Ste": 8002,
      "▁Council": 8003,
      "ation)": 8004,
      "▁bot": 8005,
      "▁bord": 8006,
      "ette": 8007,
      "▁writ": 8008,
      "ovt": 8009,
      "▁2015.": 8010,
      "ficient": 8011,
      "_of_S": 8012,
      "102": 8013,
      ".org/w": 8014,
      "▁India\")*.": 8015,
      "▁19.": 8016,
      "▁II": 8017,
      "-39": 8018,
      "▁2009.": 8019,
      "166": 8020,
      "▁Le": 8021,
      "▁Library": 8022,
      "▁Or": 8023,
      "hile": 8024,
      "▁West": 8025,
      "ummary": 8026,
      "7080": 8027,
      "▁[BRICS": 8028,
      "▁\"BRICS": 8029,
      "](./BRICS": 8030,
      "profile": 8031,
      "33)": 8032,
      "47)": 8033,
      "222": 8034,
      "iterature": 8035,
      "ue.bnf.fr/ark:/12148/cb": 8036,
      "tates_and_union_territories_of_India": 8037,
      "\"](https://web.archive.org/web/20140": 8038,
      "▁(2019).": 8039,
      "metic": 8040,
      "▁regional": 8041,
      "edicine": 8042,
      "unjabi": 8043,
      "-report": 8044,
      "CON": 8045,
      "▁expectancy": 8046,
      "data.bnf.fr/ark:/12148/cb": 8047,
      "-of-india": 8048,
      ".com/news/world": 8049,
      "index.php?": 8050,
      "▁addition": 8051,
      "▁Informatics": 8052,
      "atabase": 8053,
      "▁continu": 8054,
      "gislative": 8055,
      "rakash": 8056,
      "▁adopted": 8057,
      "onkani": 8058,
      "#S": 8059,
      "*](https://www.": 8060,
      "-ar": 8061,
      "-पाकिस्तान": 8062,
      "-national-": 8063,
      "-agar": 8064,
      "/F": 8065,
      "/M": 8066,
      "BRICS": 8067,
      "Copland": 8068,
      "Garg": 8069,
      "Kumar": 8070,
      "L.": 8071,
      "PE": 8072,
      "Search": 8073,
      "Template": 8074,
      "Tritsch": 8075,
      "Young": 8076,
      "[https": 8077,
      "_वि": 8078,
      "_2011": 8079,
      "_వి": 8080,
      "_val": 8081,
      "_खाना": 8082,
      "_కాశ్మీ": 8083,
      "ae": 8084,
      "duc": 8085,
      "elec": 8086,
      "ful": 8087,
      "fun": 8088,
      "i](./K": 8089,
      "lar": 8090,
      "low": 8091,
      "lue": 8092,
      "lant": 8093,
      "more": 8094,
      "mission": 8095,
      "ner": 8096,
      "oastal": 8097,
      "pay": 8098,
      "pts": 8099,
      "present": 8100,
      "rban": 8101,
      "s_in_South_Asia": 8102,
      "vers": 8103,
      "vara": 8104,
      "xim": 8105,
      "ædia": 8106,
      "ंज़": 8107,
      "ंपर": 8108,
      "ंटे": 8109,
      "ंवर": 8110,
      "अतुल्य": 8111,
      "इप्रस": 8112,
      "उद्यान": 8113,
      "ऋग्वेद": 8114,
      "ऑपरेशन": 8115,
      "ओआई": 8116,
      "घाट": 8117,
      "जे": 8118,
      "जना": 8119,
      "जवा": 8120,
      "थुरा": 8121,
      "दून": 8122,
      "दयपुर": 8123,
      "धाक": 8124,
      "धोला": 8125,
      "नै": 8126,
      "नान": 8127,
      "निव": 8128,
      "नत्व": 8129,
      "नजं": 8130,
      "मआई": 8131,
      "ल-": 8132,
      "लब्": 8133,
      "शहरा": 8134,
      "स,": 8135,
      "सैनिक": 8136,
      "़तर": 8137,
      "ीर": 8138,
      "ीकरण": 8139,
      "ुट": 8140,
      "ूड": 8141,
      "ेत": 8142,
      "ेव": 8143,
      "ैम्ब": 8144,
      "ो-": 8145,
      "ोढ़": 8146,
      "ोटे": 8147,
      "ोडिया": 8148,
      "१५": 8149,
      "४.": 8150,
      "ంస్కృ": 8151,
      "ఉత్తరా": 8152,
      "ఖో": 8153,
      "ఘాలయ": 8154,
      "చ్": 8155,
      "టై": 8156,
      "టర్": 8157,
      "డమ్": 8158,
      "డఖ్": 8159,
      "ణే": 8160,
      "ణంగా": 8161,
      "తే": 8162,
      "తెల": 8163,
      "దరంగ": 8164,
      "నో": 8165,
      "నంద": 8166,
      "బర్": 8167,
      "బార్": 8168,
      "యె": 8169,
      "లడఖ్": 8170,
      "ళా": 8171,
      "ళి": 8172,
      "శు": 8173,
      "హించ": 8174,
      "ెన్న": 8175,
      "ెట్రో": 8176,
      "ేతి": 8177,
      "ేఘాలయ": 8178,
      "ైనిక": 8179,
      "ొగలు": 8180,
      "ోళ": 8181,
      "‌కా": 8182,
      "‌మహ": 8183,
      "–55": 8184,
      "–119": 8185,
      "▁x": 8186,
      "▁y": 8187,
      "▁ठ": 8188,
      "▁८": 8189,
      "▁ఐ": 8190,
      "▁ఖ": 8191,
      "▁ou": 8192,
      "▁ge": 8193,
      "▁rit": 8194,
      "▁–సా.శ.": 8195,
      "▁ve": 8196,
      "▁53": 8197,
      "▁eng": 8198,
      "▁దా": 8199,
      "](./ना": 8200,
      "](./భారతదేశ": 8201,
      "](./बांग्ला": 8202,
      "▁[r": 8203,
      "▁[రాష్ట్ర": 8204,
      "▁[జన": 8205,
      "▁[बांग्ला": 8206,
      "▁[గో": 8207,
      "▁[१९": 8208,
      "▁[...]": 8209,
      "▁\"Y": 8210,
      "▁\"ना": 8211,
      "▁\"పా": 8212,
      "▁\"జన": 8213,
      "▁\"बांग्ला": 8214,
      "▁\"గో": 8215,
      "▁\"మూస:": 8216,
      "▁\"Hinduism": 8217,
      "▁\"पूर्वी": 8218,
      "▁\"ISO": 8219,
      "iary": 8220,
      "rees": 8221,
      "erman": 8222,
      "thomas": 8223,
      "th_East_Asia_Summit": 8224,
      "arayan": 8225,
      "alc": 8226,
      "alwar": 8227,
      "enins": 8228,
      "▁किल्": 8229,
      "▁क्रांति": 8230,
      "्रु": 8231,
      "्रिज": 8232,
      "ising": 8233,
      "isted": 8234,
      "▁सम्": 8235,
      "▁समान": 8236,
      "▁सहायक": 8237,
      "्यपालिका": 8238,
      "ital": 8239,
      "▁(2010": 8240,
      "▁(2005": 8241,
      "▁(अभिज्ञापक": 8242,
      "▁(nominal)": 8243,
      "oms": 8244,
      "omic": 8245,
      "▁मत": 8246,
      "▁मध्ये": 8247,
      "▁मिला": 8248,
      "▁महारजिस्ट्रार": 8249,
      "▁पत्र": 8250,
      "रान": 8251,
      "197": 8252,
      "idence": 8253,
      "nold": 8254,
      "▁poli": 8255,
      "ानेर": 8256,
      "ानपान": 8257,
      "le,": 8258,
      "र्चा": 8259,
      "▁series": 8260,
      "trop": 8261,
      "tronom": 8262,
      "truggle": 8263,
      "](./भारत#": 8264,
      "ారస్వ": 8265,
      "▁हिल्": 8266,
      "ingle": 8267,
      "▁केवल": 8268,
      "ush": 8269,
      "usion": 8270,
      "▁100": 8271,
      "▁Some": 8272,
      "▁SCO": 8273,
      "▁Security": 8274,
      "▁Studies": 8275,
      "▁cultural": 8276,
      "▁courts": 8277,
      "▁Cup": 8278,
      "▁Caves": 8279,
      "ations/": 8280,
      "78)": 8281,
      "▁अब": 8282,
      "▁अमीरात": 8283,
      "▁अलावा": 8284,
      "▁bas": 8285,
      "▁bread": 8286,
      "atna": 8287,
      "ాలె": 8288,
      "▁Park": 8289,
      "▁Puran": 8290,
      "urned": 8291,
      "urther": 8292,
      "FOOTNOTENational_Informatics_Centre2005": 8293,
      "▁में).": 8294,
      "▁may": 8295,
      "acter": 8296,
      "ilbert": 8297,
      "▁won": 8298,
      "ango": 8299,
      "angam": 8300,
      "▁जाना": 8301,
      "▁जाने": 8302,
      "ेशन्स": 8303,
      "ों_और": 8304,
      "▁పర": 8305,
      "▁పండు": 8306,
      "▁प्रयास": 8307,
      "olv": 8308,
      "▁आया": 8309,
      "▁आकार": 8310,
      "▁आयुक्त": 8311,
      "▁Mah": 8312,
      "ंगलोर": 8313,
      "స్ట": 8314,
      "స్వాతంత్ర్య": 8315,
      "▁**राष्ट्रीय": 8316,
      "▁dances": 8317,
      "▁dynast": 8318,
      "andemic": 8319,
      "ला\")": 8320,
      "▁ब्यूरो": 8321,
      "adi": 8322,
      "adiverse": 8323,
      "▁निर": 8324,
      ".org*.": 8325,
      "▁today": 8326,
      ".org/s": 8327,
      "linkid=": 8328,
      "-212": 8329,
      "-2\").\r\n": 8330,
      "-2](./Special:BookSources/978-1": 8331,
      "ताम": 8332,
      "Sport": 8333,
      "iri": 8334,
      "▁की।": 8335,
      "_(अभिज्ञापक": 8336,
      "▁India\").[[": 8337,
      "▁Des": 8338,
      "▁Desert": 8339,
      "eling": 8340,
      "_स्": 8341,
      "_स्व": 8342,
      "▁however,": 8343,
      "125": 8344,
      "రాన్": 8345,
      "రాస్య": 8346,
      ".[[28": 8347,
      "Special:Search": 8348,
      "akar": 8349,
      "स्तिक": 8350,
      "tripura": 8351,
      "▁కే": 8352,
      "▁కోర్": 8353,
      "-4)": 8354,
      "-4\").\r\n": 8355,
      "▁epic": 8356,
      "तिरु": 8357,
      "ods": 8358,
      "माख्या": 8359,
      "క్స్": 8360,
      "క్కి": 8361,
      "▁వె": 8362,
      "▁వంట": 8363,
      "1991": 8364,
      "1996": 8365,
      "▁उन्": 8366,
      "▁उच्च": 8367,
      "త్రిక": 8368,
      "वागढ़": 8369,
      "aphr": 8370,
      "ri_L": 8371,
      "]](./India#cite_note-FOOTNOTEC": 8372,
      "साम": 8373,
      "काश": 8374,
      "ంగో": 8375,
      "▁ne": 8376,
      "▁nuclear": 8377,
      "▁సూచ": 8378,
      "▁సముద్ర": 8379,
      "▁సౌక": 8380,
      "180": 8381,
      "ables": 8382,
      "▁विभाजन": 8383,
      "▁विभिन्न": 8384,
      "▁परंत": 8385,
      "▁पर्यटन\")": 8386,
      "ociated": 8387,
      "▁ప్రజా": 8388,
      "AAAAMAAJ": 8389,
      "संदर्भ": 8390,
      "▁[Andaman": 8391,
      "पाषाण": 8392,
      "_केन्द्र": 8393,
      "ండీ": 8394,
      "ండ్య": 8395,
      "▁[Sri": 8396,
      "▁Li": 8397,
      "िलों": 8398,
      "म्न": 8399,
      "म्पी": 8400,
      "▁साक्षरता": 8401,
      "ension": 8402,
      "](https://books.google.com/books?id=ZvaGuaJIJgoC&pg=PA": 8403,
      "](https://books.google.com/books?id=kZVuDwAAQBAJ&pg=PA": 8404,
      "_and_B": 8405,
      "_and_Kashmir": 8406,
      "తాజ్": 8407,
      "నాథ": 8408,
      "ियम": 8409,
      "हाई": 8410,
      "हाजनप": 8411,
      "earning": 8412,
      "త్వా": 8413,
      "upreme": 8414,
      "oreign_": 8415,
      "agran": 8416,
      "1.asp?": 8417,
      "▁(సా.శ.12": 8418,
      "▁Intelligence": 8419,
      "कार्यपालिका": 8420,
      "lands": 8421,
      "ులు?action=edit&redlink=1": 8422,
      "▁rul": 8423,
      "▁rise": 8424,
      "–సా.శ.19": 8425,
      "్రామ": 8426,
      "▁అభి": 8427,
      "ourbaki": 8428,
      "▁[Bangladesh": 8429,
      "-526": 8430,
      "्राष्ट्र": 8431,
      "▁१३": 8432,
      "తం?action=edit&redlink=1": 8433,
      "▁\"Pakistan": 8434,
      "prov": 8435,
      "](./Pakistan": 8436,
      "_Cons": 8437,
      "_Co-operation": 8438,
      "▁whose": 8439,
      "irelease.aspx?rel": 8440,
      "temporary": 8441,
      "▁\"Andaman": 8442,
      "పూర్": 8443,
      "नीताल": 8444,
      "-6\").": 8445,
      "▁\"सिक्किम": 8446,
      "ajas": 8447,
      "▁ఉత్తర": 8448,
      "](./सिक्किम": 8449,
      "▁[सिक्किम": 8450,
      "हिन्दुस्तान": 8451,
      "ప్రిల్": 8452,
      "efault": 8453,
      "](./Andaman": 8454,
      "त्पत्ति": 8455,
      "▁రంగ": 8456,
      "श्रेणी:CS1": 8457,
      "▁సామా": 8458,
      "▁\"Ethnic": 8459,
      "▁होते.": 8460,
      "▁anim": 8461,
      "](./Ethnic": 8462,
      "వాద": 8463,
      "द्यनाथ": 8464,
      "ोगरी": 8465,
      "విధ": 8466,
      "ార్ఖండ్": 8467,
      "క్షరాస్య": 8468,
      "▁Veda": 8469,
      "▁\"North": 8470,
      "जीव": 8471,
      "िवार": 8472,
      "िवाली": 8473,
      "](./North": 8474,
      "गुट": 8475,
      "जनगणना": 8476,
      "▁very": 8477,
      "](./Russia": 8478,
      "▁\"Russia": 8479,
      "र्थन": 8480,
      "▁[Robb": 8481,
      "▁[Russia": 8482,
      "▁నడి": 8483,
      "పుర": 8484,
      "▁ఇండియా": 8485,
      "enguin": 8486,
      "▁[East": 8487,
      "▁[European": 8488,
      "▁इसकी": 8489,
      "ublications/": 8490,
      "वीरा": 8491,
      "▁[Kerala": 8492,
      "हुमूल्य": 8493,
      "rency": 8494,
      "ल्ल": 8495,
      "▁char": 8496,
      "साँची": 8497,
      "economy": 8498,
      "నేషియా": 8499,
      "फ़्रीका": 8500,
      "हिला": 8501,
      "గుర్": 8502,
      "గుప్": 8503,
      "_Re": 8504,
      "▁జన": 8505,
      "▁समर्थन": 8506,
      "ంగాణ": 8507,
      "roti": 8508,
      "देहरा": 8509,
      "లియా": 8510,
      "ंबेड": 8511,
      "वनेश्वर": 8512,
      "वनवर्ल्ड": 8513,
      "▁lim": 8514,
      "▁धर्म](./": 8515,
      "▁వివిధ": 8516,
      "▁సంఘ": 8517,
      "694": 8518,
      "▁किया।[[": 8519,
      "usiness/": 8520,
      "ండిచ్చేరి": 8521,
      "AsherTalbot2006),": 8522,
      "▁Prosp": 8523,
      "▁[మధ్య": 8524,
      "india.gov.in/know": 8525,
      "ंपन": 8526,
      "ंपानेर": 8527,
      "ynus": 8528,
      "च्चे": 8529,
      "▁arts": 8530,
      "-17feb": 8531,
      "डीओआई": 8532,
      "▁संघर्ष": 8533,
      "జీరియా": 8534,
      "▁[West": 8535,
      "भूम": 8536,
      "ంకేతి": 8537,
      "्यांच्या": 8538,
      "्यांमार": 8539,
      "गोवा": 8540,
      "क्षेत्रफल": 8541,
      "lad-agar": 8542,
      "▁देखा": 8543,
      "వేలీ": 8544,
      "▁स्रोत/978-0-521-80904-7": 8545,
      "](./विशेष:पुस्तक_स्रोत/978-0-521-80904-7": 8546,
      "flict": 8547,
      "_music": 8548,
      "_बल": 8549,
      "_बंगाल": 8550,
      "▁[Archived](https://web.archive.org/web/20190": 8551,
      "ामित्व": 8552,
      "▁[जम्मू": 8553,
      "▁[↑](./भारत#cite_ref-FOOTNOTESingh2009": 8554,
      "▁ప్రాంతాలు\")": 8555,
      "▁[Islam": 8556,
      "▁agriculture": 8557,
      "▁peoples": 8558,
      "బియా": 8559,
      "▁झाली": 8560,
      "▁[3](./India#cite_ref-": 8561,
      "▁[3](./India#cite_ref-FOOTNOTE": 8562,
      "గోళ": 8563,
      "దాద్రా": 8564,
      "▁Association": 8565,
      "पटना": 8566,
      "लिपुरम": 8567,
      "డామన్": 8568,
      "▁రాష్ట్రపతి": 8569,
      "▁parties": 8570,
      "cyclopædia": 8571,
      "CO_summit": 8572,
      "బడిన": 8573,
      "▁व्यक्ति": 8574,
      "▁उत्तर-": 8575,
      "త్రిపుర": 8576,
      "_కాల": 8577,
      "िक्की": 8578,
      "▁expand": 8579,
      "▁election](./": 8580,
      "देवनाग": 8581,
      "▁2012](./India#CITEREF": 8582,
      "▁రైల్వే": 8583,
      "▁2006](./India#CITEREFAsherTalbot2006),": 8584,
      "गोलशास्त्र": 8585,
      "दुच्चे": 8586,
      "▁about": 8587,
      "▁endangered": 8588,
      "ैकमिल": 8589,
      "య్యూ": 8590,
      "▁plain": 8591,
      "ampion": 8592,
      "▁ప్రదేశ్](./": 8593,
      "త్తీస్": 8594,
      "ोमाल": 8595,
      "▁hered": 8596,
      "నాగాలా": 8597,
      "राष्ट्रपति](./भारत_के_": 8598,
      "▁support": 8599,
      "वैत": 8600,
      "वैद्यनाथ": 8601,
      "▁\"జమ్మూ": 8602,
      "▁बनाने": 8603,
      "rganisation_for": 8604,
      "sites/d": 8605,
      "हायता": 8606,
      "119–120": 8607,
      "▁speakers": 8608,
      "▁\"China\")": 8609,
      "▁పాకిస్తాన్": 8610,
      "▁जलोढ़": 8611,
      "_BRICS_Games": 8612,
      "nclm.nic.in/index": 8613,
      "కోవ": 8614,
      "కోబార్": 8615,
      "▁भाष": 8616,
      "▁भाजपा": 8617,
      "](./జమ్మూ": 8618,
      "ammu_and_Kashmir": 8619,
      "▁mathematics": 8620,
      "भोपाल": 8621,
      "रक्षित": 8622,
      "▁\"पंजाब\")": 8623,
      "▁earliest": 8624,
      "ల్లవ": 8625,
      "_Organisation": 8626,
      "▁गुफाएं": 8627,
      "2024_BRICS_Games": 8628,
      "inghamYoung": 8629,
      "▁Although": 8630,
      "ंटर": 8631,
      "ंटार्कटिका": 8632,
      "▁భారతదేశానికి": 8633,
      "▁जीवन": 8634,
      "▁defe": 8635,
      "▁नृत्य\")": 8636,
      "cogn": 8637,
      "्यान्मार": 8638,
      "▁बंगाल\")": 8639,
      "▁बंगाल](./पश्चिम": 8640,
      "Robb201": 8641,
      "రేబియా": 8642,
      "▁spread": 8643,
      "▁राजनीति": 8644,
      "amsar": 8645,
      ".worldcat.org/": 8646,
      "iscover": 8647,
      "▁२०११": 8648,
      "_group": 8649,
      "▁(2006),": 8650,
      "▁York:": 8651,
      "भुवनेश्वर": 8652,
      "టాక్": 8653,
      "▁नदियाँ": 8654,
      "▁మాత్ర": 8655,
      "్రిటిష్": 8656,
      "ताजमहल": 8657,
      "▁Exchange": 8658,
      "ConinghamYoung": 8659,
      "lackb": 8660,
      "lackwell": 8661,
      "▁हिस्": 8662,
      "DikshitSchwartzberg2023),": 8663,
      "వెను": 8664,
      "ూచి": 8665,
      "భారతదేశ_రాష్ట్రాలు,_కేంద్రపాలిత_ప్రాంత": 8666,
      "▁ప్రపంచంలో": 8667,
      "▁सर्वाधिक": 8668,
      "iogeograph": 8669,
      "्मपुत्र": 8670,
      "▁प्रसि": 8671,
      "वेशद्वार": 8672,
      "िर्धन": 8673,
      "▁राज्यक्षेत्र\")": 8674,
      "ప్పటిక": 8675,
      "_विकास": 8676,
      "मरीका": 8677,
      "Provisional_Population_Totals_Paper_1_of_2011_India16": 8678,
      "లేషియా": 8679,
      "▁[तमिल](./तमिल": 8680,
      "ंग्रजी": 8681,
      "_Act,_": 8682,
      "▁దేశంలోని": 8683,
      "▁మొదల": 8684,
      "/hindirelease.aspx?rel": 8685,
      "▁2001](./India#CITEREF": 8686,
      "ंचनजं": 8687,
      "▁समाप्त": 8688,
      "▁signific": 8689,
      "▁families": 8690,
      "जेंस": 8691,
      "हूदी": 8692,
      "ेन्द्रीय": 8693,
      "ద్యు": 8694,
      "](./पूर्वी_": 8695,
      "▁\"दिल्ली\")": 8696,
      "▁చిత్ర": 8697,
      "ద్వీప్": 8698,
      "▁ఉపఖండ": 8699,
      "▁घोषणा": 8700,
      "▁కాంగ్రెసు": 8701,
      "▁Civilisation": 8702,
      "▁literacy": 8703,
      "राष्ट्रीय_सूचना-विज्ञान": 8704,
      "%E0%A5%87": 8705,
      "▁oldest": 8706,
      "ఆగష్టు": 8707,
      "లక్షద్వీప్": 8708,
      "హాయం:": 8709,
      "ీకరణ": 8710,
      "ేరళ": 8711,
      "ోల్‌కా": 8712,
      "ino-Indian": 8713,
      "▁पड़ोसी": 8714,
      "राक़": 8715,
      "▁दृष्टि": 8716,
      "ंगलादेश": 8717,
      "▁developed": 8718,
      "ogamy": 8719,
      "थाईलैंड": 8720,
      "राष्ट्रीय_उद्यान": 8721,
      "हाबलिपुरम": 8722,
      "మిజోరా": 8723,
      "▁తరువాత": 8724,
      "आईएसएस": 8725,
      "_न्यायालय": 8726,
      "िज़ोरम": 8727,
      "business/business-": 8728,
      "Insurance": 8729,
      "uttaphr": 8730,
      "](./List_of_countries_and_dependencies_by_population": 8731,
      "ridget": 8732,
      "▁Emergency": 8733,
      "▁2014](./India#CITEREFLudden2014": 8734,
      "-पावागढ़": 8735,
      "బడ్డీ": 8736,
      "ర్యానా": 8737,
      "▁`|": 8738,
      "▁[ఢిల్లీ](./ఢిల్లీ": 8739,
      "्रह्मपुत्र": 8740,
      "▁पहुँच": 8741,
      "सांख्यिकी": 8742,
      "द्वितीय": 8743,
      "టిబెట్": 8744,
      "पीएमआई": 8745,
      "pib.nic.in/newsite/hindirelease.aspx?rel": 8746,
      "bellion": 8747,
      "iotechnology": 8748,
      "वरात्रि": 8749,
      "ोणार्क": 8750,
      "▁appro": 8751,
      "▁[Pakistan](./Pakistan": 8752,
      "_Economic_Co-operation": 8753,
      "jolad-agar": 8754,
      "िलीपी": 8755,
      "▁[चीन](./चीन": 8756,
      "్రైస్త": 8757,
      "▁वीं": 8758,
      "ండమాన్": 8759,
      "▁\"कर्नाटक\")": 8760,
      "▁[कर्नाटक](./कर्नाटक": 8761,
      "మెరికా": 8762,
      "ెలవుదిన": 8763,
      "ब्लिकेशन्स": 8764,
      "संख्येनुसार": 8765,
      "hagwat": 8766,
      "▁[978-0-521-80904-7](./विशेष:पुस्तक_स्रोत/978-0-521-80904-7": 8767,
      "orporation": 8768,
      "▁(2003).": 8769,
      "ecutive": 8770,
      "▁Organisation\")": 8771,
      "▁2023](./India#CITEREFDikshitSchwartzberg2023),": 8772,
      "▁Europe*](https://books.google.com/books?id=ZvaGuaJIJgoC&pg=PA": 8773,
      "पीपीपी)": 8774,
      "-national-language": 8775,
      "_value": 8776,
      "जवाड़े": 8777,
      "धाकृष्ण": 8778,
      "धोलावीरा": 8779,
      "निवेश": 8780,
      "लब्ध": 8781,
      "ैम्ब्रिज": 8782,
      "తెలంగాణ": 8783,
      "ెన్నై": 8784,
      "‌మహల్": 8785,
      "▁[बांग्ला](./बांग्ला": 8786,
      "thomason": 8787,
      "▁(2010).": 8788,
      "▁(अभिज्ञापक)\")": 8789,
      "▁dynasty\")": 8790,
      "_(अभिज्ञापक)": 8791,
      "Special:Search/India": 8792,
      "तिरुवन": 8793,
      "ri_Lank": 8794,
      "▁परंतु": 8795,
      "తాజ్‌మహల్": 8796,
      "हाजनपद": 8797,
      "1.asp?linkid=": 8798,
      "efault/files/": 8799,
      "క్షరాస్యత": 8800,
      "देहरादून": 8801,
      "ंबेडकर": 8802,
      "▁Prospects": 8803,
      "ंपानेर-पावागढ़": 8804,
      "-17feb14": 8805,
      "ैकमिलन": 8806,
      "నాగాలాండ్": 8807,
      "rganisation_for_Economic_Co-operation": 8808,
      "sites/default/files/": 8809,
      "nclm.nic.in/index1.asp?linkid=": 8810,
      "](./జమ్మూ_కాశ్మీ": 8811,
      "▁बंगाल](./पश्चिम_बंगाल": 8812,
      "ConinghamYoung2015": 8813,
      "िर्धनता": 8814,
      "ंचनजंघा": 8815,
      "ోల్‌కాతా": 8816,
      "business/business-news/": 8817,
      "uttaphrynus": 8818,
      "▁2014](./India#CITEREFLudden2014),": 8819,
      "पीएमआईडी": 8820,
      "rganisation_for_Economic_Co-operation_and_D": 8821,
      "/19": 8822,
      "/18": 8823,
      "1)[[": 8824,
      "213": 8825,
      "352": 8826,
      "7)[[": 8827,
      "8%": 8828,
      "9-5": 8829,
      "LD": 8830,
      "LO": 8831,
      "_U": 8832,
      "`:": 8833,
      "aci": 8834,
      "pos": 8835,
      "search": 8836,
      "–5": 8837,
      "–12": 8838,
      "▁List": 8839,
      "▁[28": 8840,
      "▁[978-0-19-882905-8": 8841,
      "onic": 8842,
      "reater": 8843,
      "arm": 8844,
      "arth": 8845,
      "cite": 8846,
      "▁(2011": 8847,
      "▁India\"](https://": 8848,
      "▁pres": 8849,
      "▁Americ": 8850,
      "[[18": 8851,
      "[[15": 8852,
      "▁Social": 8853,
      "](https://pub": 8854,
      "▁Court": 8855,
      "urd": 8856,
      "▁makes": 8857,
      "▁data": 8858,
      "▁Rec": 8859,
      "-267": 8860,
      "50)": 8861,
      "▁Gl": 8862,
      "eph": 8863,
      "appa": 8864,
      "▁Fish": 8865,
      "▁First": 8866,
      "40.": 8867,
      "stat": 8868,
      "standard": 8869,
      "14.": 8870,
      "udget": 8871,
      "-95": 8872,
      "agen": 8873,
      "ota": 8874,
      "-59": 8875,
      "ordin": 8876,
      "353": 8877,
      "ervice": 8878,
      "▁[978-1-107-11162-2": 8879,
      "2003),": 8880,
      "article/": 8881,
      "oduct": 8882,
      "_capita": 8883,
      "lora": 8884,
      "▁1947,": 8885,
      "▁°C": 8886,
      "▁°F)": 8887,
      "ncbi.nlm.nih.gov/": 8888,
      "loc.gov/": 8889,
      "▁Day*](https://books.google.com/books?id=": 8890,
      "}}`:": 8891,
      "{{cite": 8892,
      "med.ncbi.nlm.nih.gov/": 8893,
      "](https://pubmed.ncbi.nlm.nih.gov/": 8894,
      "▁Fisher,": 8895,
      "%202": 8896,
      ".200": 8897,
      "/12": 8898,
      "/pdf": 8899,
      "/C-01": 8900,
      "330": 8901,
      "41": 8902,
      "754": 8903,
      "CCN": 8904,
      "DW": 8905,
      "First": 8906,
      "Gaz": 8907,
      "HO": 8908,
      "HDR": 8909,
      "LS": 8910,
      "MDD": 8911,
      "XLS": 8912,
      "_con": 8913,
      "_files/": 8914,
      "dna": 8915,
      "gi": 8916,
      "ius": 8917,
      "jana": 8918,
      "lc": 8919,
      "las": 8920,
      "load": 8921,
      "p/auth": 8922,
      "sing": 8923,
      "tats": 8924,
      "utri": 8925,
      "uture": 8926,
      "ऋष": 8927,
      "क्ट": 8928,
      "गल": 8929,
      "गरा": 8930,
      "छा": 8931,
      "दर": 8932,
      "ध्व": 8933,
      "मना": 8934,
      "मता": 8935,
      "रद": 8936,
      "ळवंट": 8937,
      "वळ": 8938,
      "िप": 8939,
      "ृह": 8940,
      "ोट": 8941,
      "४०": 8942,
      "४३": 8943,
      "′′": 8944,
      "▁own": 8945,
      "](./गुजराती": 8946,
      "](./त्रिपुरा": 8947,
      "▁[6": 8948,
      "▁[फ": 8949,
      "▁[बा": 8950,
      "▁[978-0-19": 8951,
      "▁[गुजराती": 8952,
      "▁[त्रिपुरा": 8953,
      "ndl": 8954,
      "▁\"ख": 8955,
      "▁\"गुजराती": 8956,
      "▁\"त्रिपुरा": 8957,
      "anthem": 8958,
      "isni": 8959,
      "istrib": 8960,
      "्यंत": 8961,
      "itage": 8962,
      "▁(इ": 8963,
      "▁(2004": 8964,
      "▁मस": 8965,
      "▁मिश": 8966,
      "ान्स": 8967,
      "▁init": 8968,
      "▁siz": 8969,
      "▁हर": 8970,
      "▁हिम": 8971,
      "rand": 8972,
      "िकन": 8973,
      "amang": 8974,
      "▁अथ": 8975,
      "▁अर्": 8976,
      "▁वास्त": 8977,
      "ilar": 8978,
      "ov-res": 8979,
      "▁दु": 8980,
      "▁24.": 8981,
      "▁23.": 8982,
      "▁भारत\r\n": 8983,
      "▁प्रचल": 8984,
      "olar": 8985,
      ".co.": 8986,
      "▁Ram": 8987,
      "105": 8988,
      "▁बद": 8989,
      "organisation": 8990,
      "▁तीन": 8991,
      "es/00": 8992,
      "00C-01": 8993,
      "-2_Data": 8994,
      "▁Bureau": 8995,
      "2021": 8996,
      "osh": 8997,
      "▁*2011": 8998,
      "▁having": 8999,
      "▁Id": 9000,
      "विषय": 9001,
      "▁living": 9002,
      "-498": 9003,
      "113": 9004,
      "114": 9005,
      "▁300": 9006,
      "रीबी": 9007,
      "▁reach": 9008,
      "constitution": 9009,
      "▁[\"World": 9010,
      "▁[मराठी": 9011,
      "18.com/news/": 9012,
      "▁इंड": 9013,
      "ably": 9014,
      "▁विद्य": 9015,
      "▁those": 9016,
      "stre": 9017,
      "_मशी": 9018,
      "16.": 9019,
      "166-2": 9020,
      "▁[States": 9021,
      "▁Related": 9022,
      "▁iss": 9023,
      "hip": 9024,
      "र्वत": 9025,
      "▁\"मराठी": 9026,
      "ears": 9027,
      "](./मानव": 9028,
      "जात": 9029,
      "247": 9030,
      "1.pdf)": 9031,
      "-7\").": 9032,
      "र्मदा": 9033,
      "▁Institu": 9034,
      "2542": 9035,
      "▁[↑](./भारत#cite_ref-B": 9036,
      "▁१७": 9037,
      "▁being": 9038,
      "ana-m": 9039,
      "ana-498": 9040,
      "2018-lead": 9041,
      "▁प्रदेश](./": 9042,
      "▁पुरु": 9043,
      "▁\"सकल": 9044,
      "opulation_en": 9045,
      "धार्म": 9046,
      "▁prim": 9047,
      "efficient": 9048,
      "ातर": 9049,
      "perCol": 9050,
      "दाय": 9051,
      "िश्च": 9052,
      "मुख्य": 9053,
      "576.": 9054,
      "-sign": 9055,
      "र्थव्यवस्था": 9056,
      "▁trillion": 9057,
      "▁मुस्लिम": 9058,
      "%20MDD": 9059,
      "▁[बंगाल": 9060,
      "▁\"बौद्ध": 9061,
      "](./बौद्ध": 9062,
      "2007),": 9063,
      "_Tabl": 9064,
      "tate_": 9065,
      "गणित": 9066,
      "हिंदी": 9067,
      "_Dictionary": 9068,
      "▁500": 9069,
      "देवी": 9070,
      "वर्तन": 9071,
      "▁पाहि": 9072,
      "▁पाषाण": 9073,
      "▁Ancient": 9074,
      "▁2010.": 9075,
      "ुरत": 9076,
      "थील": 9077,
      "_power": 9078,
      "india/national-": 9079,
      "india/report": 9080,
      "▁\"इंडोन": 9081,
      "भूगोल": 9082,
      "▁मान्यता": 9083,
      "](./इंडोनेशिया": 9084,
      "▁[इंडोनेशिया": 9085,
      "त्यमे": 9086,
      "▁\"आंध्र": 9087,
      "/population_en": 9088,
      "_अरब": 9089,
      "▁Metcalf,": 9090,
      "](./आंध्र": 9091,
      "▁[जल": 9092,
      "-gana-m": 9093,
      "/A-2_Data": 9094,
      "ustralian": 9095,
      "▁युद्ध\")": 9096,
      "UNHDR": 9097,
      ".htm).": 9098,
      "▁येथील": 9099,
      "/DDW": 9100,
      "www.censusindia.gov.in/2011census/P": 9101,
      "www.censusindia.gov.in/2011census/C-01": 9102,
      "www.censusindia.gov.in/2011census/population_en": 9103,
      "tiger": 9104,
      "etary_Fund": 9105,
      "▁आक्रम": 9106,
      "-prov-res": 9107,
      "▁२०१४": 9108,
      "▁विस्तार": 9109,
      "_इंडिया": 9110,
      "▁28.613": 9111,
      "-on-jana": 9112,
      "bbc.co.": 9113,
      "▁मशीन](./": 9114,
      "20833": 9115,
      "rief-on-jana": 9116,
      "▁जयंती": 9117,
      "S.XLS": 9118,
      "india.gov.in/india-glance/profile": 9119,
      "india.com/india/report": 9120,
      "_युद्ध": 9121,
      "%20A%202": 9122,
      "▁zone": 9123,
      "▁similar": 9124,
      "_English": 9125,
      "▁figures": 9126,
      "▁3,287,263": 9127,
      "▁(1,269,219": 9128,
      "-asia-india": 9129,
      "hmedabad": 9130,
      "▁Century*](https://books.google.com/books?id=": 9131,
      "▁77.20833": 9132,
      "▁Technology": 9133,
      "news18.com/news/": 9134,
      "_Monetary_Fund": 9135,
      "-a-brief-on-jana": 9136,
      "data.worldbank.org/indicator/S": 9137,
      "▁उदाहर": 9138,
      "▁[पंजाबी](./पंजाब": 9139,
      "_Assembly_of_India": 9140,
      "11934238p)": 9141,
      "CA/A-2_Data": 9142,
      "enty-First": 9143,
      "-of-india-a-brief-on-jana": 9144,
      "ंपरिक": 9145,
      "लब्धता": 9146,
      "dnaindia.com/india/report": 9147,
      "tatsama": 9148,
      "utrition": 9149,
      "anthem-of-india-a-brief-on-jana": 9150,
      "es/00%20A%202": 9151,
      "00C-01%20MDD": 9152,
      "▁[मराठी](./म": 9153,
      "_मशीन": 9154,
      "2542-519": 9155,
      "ana-498576.": 9156,
      "धार्मिक": 9157,
      "perCollin": 9158,
      "_Tables/00%20A%202": 9159,
      "india/national-anthem-of-india-a-brief-on-jana": 9160,
      "▁\"इंडोनेशिया\")": 9161,
      "त्यमेव": 9162,
      "-gana-mana-498576.": 9163,
      "/DDW00C-01%20MDD": 9164,
      "www.censusindia.gov.in/2011census/PCA/A-2_Data": 9165,
      "www.censusindia.gov.in/2011census/C-01/DDW00C-01%20MDD": 9166,
      "www.censusindia.gov.in/2011census/population_enumeration": 9167,
      "-prov-results": 9168,
      "▁28.61389": 9169,
      "bbc.co.uk": 9170,
      "news18.com/news/india/national-anthem-of-india-a-brief-on-jana": 9171,
      "_Tables/00%20A%202-India.pdf)": 9172,
      "www.censusindia.gov.in/2011census/PCA/A-2_Data_Tables/00%20A%202-India.pdf)": 9173,
      "www.censusindia.gov.in/2011census/C-01/DDW00C-01%20MDDS.XLS": 9174,
      "news18.com/news/india/national-anthem-of-india-a-brief-on-jana-gana-mana-498576.": 9175,
      "\";\r\n": 9176,
      "&l": 9177,
      "*),": 9178,
      "-sh": 9179,
      "-year": 9180,
      ".ern": 9181,
      ".edu": 9182,
      ".tool": 9183,
      "/to": 9184,
      "1)\r\n": 9185,
      "3.\r\n": 9186,
      "3]](./India#cite_note-": 9187,
      "313": 9188,
      "3203": 9189,
      "446": 9190,
[...]
