{
  "version": "1.0",
  "truncation": null,
  "padding": null,
  "added_tokens": [
    {
      "id": 0,
      "content": "[UNK]",
      "single_word": false,
      "lstrip": false,
      "rstrip": false,
      "normalized": false,
      "special": true
    },
    {
      "id": 1,
      "content": "[PAD]",
      "single_word": false,
      "lstrip": false,
      "rstrip": false,
      "normalized": false,
      "special": true
    },
    {
      "id": 2,
      "content": "[CLS]",
      "single_word": false,
      "lstrip": false,
      "rstrip": false,
      "normalized": false,
      "special": true
    },
    {
      "id": 3,
      "content": "[SEP]",
      "single_word": false,
      "lstrip": false,
      "rstrip": false,
      "normalized": false,
      "special": true
    },
    {
      "id": 4,
      "content": "[MASK]",
      "single_word": false,
      "lstrip": false,
      "rstrip": false,
      "normalized": false,
      "special": true
    }
  ],
  "normalizer": {
    "type": "Sequence",
    "normalizers": [
      {
        "type": "NFC"
      }
    ]
  },
  "pre_tokenizer": {
    "type": "WhitespaceSplit"
  },
  "post_processor": null,
  "decoder": {
    "type": "BPEDecoder",
    "suffix": "</w>"
  },
  "model": {
    "type": "BPE",
    "dropout": null,
    "unk_token": "[UNK]",
    "continuing_subword_prefix": null,
    "end_of_word_suffix": null,
    "fuse_unk": false,
    "byte_fallback": false,
    "ignore_merges": false,
    "vocab": {
      "[UNK]": 0,
      "[PAD]": 1,
      "[CLS]": 2,
      "[SEP]": 3,
      "[MASK]": 4,
      "\"": 5,
      "$": 6,
      "%": 7,
      "'": 8,
      "(": 9,
      ")": 10,
      "+": 11,
      ",": 12,
      "-": 13,
      ".": 14,
      "/": 15,
      "0": 16,
      "1": 17,
      "2": 18,
      "3": 19,
      "4": 20,
      "5": 21,
      "6": 22,
      "7": 23,
      "8": 24,
      "9": 25,
      ":": 26,
      ";": 27,
      "A": 28,
      "B": 29,
      "C": 30,
      "D": 31,
      "E": 32,
      "F": 33,
      "G": 34,
      "H": 35,
      "I": 36,
      "J": 37,
      "K": 38,
      "L": 39,
      "M": 40,
      "N": 41,
      "O": 42,
      "P": 43,
      "R": 44,
      "S": 45,
      "T": 46,
      "U": 47,
      "V": 48,
      "W": 49,
      "Y": 50,
      "Z": 51,
      "[": 52,
      "]": 53,
      "^": 54,
      "a": 55,
      "b": 56,
      "c": 57,
      "d": 58,
      "e": 59,
      "f": 60,
      "g": 61,
      "h": 62,
      "i": 63,
      "j": 64,
      "k": 65,
      "l": 66,
      "m": 67,
      "n": 68,
      "o": 69,
      "p": 70,
      "q": 71,
      "r": 72,
      "s": 73,
      "t": 74,
      "u": 75,
      "v": 76,
      "w": 77,
      "x": 78,
      "y": 79,
      "z": 80,
      "|": 81,
      "°": 82,
      "Ö": 83,
      "á": 84,
      "â": 85,
      "í": 86,
      "ā": 87,
      "ī": 88,
      "Ś": 89,
      "ū": 90,
      "ə": 91,
      "ɦ": 92,
      "ɪ": 93,
      "ɾ": 94,
      "ʊ": 95,
      "ʱ": 96,
      "ˈ": 97,
      "ː": 98,
      "ί": 99,
      "α": 100,
      "δ": 101,
      "ν": 102,
      "ς": 103,
      "ό": 104,
      "ँ": 105,
      "ं": 106,
      "ः": 107,
      "अ": 108,
      "आ": 109,
      "इ": 110,
      "ई": 111,
      "उ": 112,
      "ऊ": 113,
      "ऋ": 114,
      "ए": 115,
      "ऐ": 116,
      "ऑ": 117,
      "ओ": 118,
      "औ": 119,
      "क": 120,
      "ख": 121,
      "ग": 122,
      "घ": 123,
      "च": 124,
      "छ": 125,
      "ज": 126,
      "झ": 127,
      "ञ": 128,
      "ट": 129,
      "ठ": 130,
      "ड": 131,
      "ढ": 132,
      "ण": 133,
      "त": 134,
      "थ": 135,
      "द": 136,
      "ध": 137,
      "न": 138,
      "प": 139,
      "फ": 140,
      "ब": 141,
      "भ": 142,
      "म": 143,
      "य": 144,
      "र": 145,
      "ऱ": 146,
      "ल": 147,
      "ळ": 148,
      "व": 149,
      "श": 150,
      "ष": 151,
      "स": 152,
      "ह": 153,
      "़": 154,
      "ा": 155,
      "ि": 156,
      "ी": 157,
      "ु": 158,
      "ू": 159,
      "ृ": 160,
      "ॅ": 161,
      "े": 162,
      "ै": 163,
      "ॉ": 164,
      "ो": 165,
      "ौ": 166,
      "्": 167,
      "ॠ": 168,
      "।": 169,
      "०": 170,
      "१": 171,
      "२": 172,
      "३": 173,
      "४": 174,
      "५": 175,
      "६": 176,
      "७": 177,
      "८": 178,
      "९": 179,
      "॰": 180,
      "ॲ": 181,
      "ం": 182,
      "ః": 183,
      "అ": 184,
      "ఆ": 185,
      "ఇ": 186,
      "ఈ": 187,
      "ఉ": 188,
      "ఋ": 189,
      "ఎ": 190,
      "ఏ": 191,
      "ఐ": 192,
      "ఒ": 193,
      "ఓ": 194,
      "ఔ": 195,
      "క": 196,
      "ఖ": 197,
      "గ": 198,
      "ఘ": 199,
      "చ": 200,
      "ఛ": 201,
      "జ": 202,
      "ఞ": 203,
      "ట": 204,
      "ఠ": 205,
      "డ": 206,
      "ఢ": 207,
      "ణ": 208,
      "త": 209,
      "థ": 210,
      "ద": 211,
      "ధ": 212,
      "న": 213,
      "ప": 214,
      "ఫ": 215,
      "బ": 216,
      "భ": 217,
      "మ": 218,
      "య": 219,
      "ర": 220,
      "ల": 221,
      "ళ": 222,
      "వ": 223,
      "శ": 224,
      "ష": 225,
      "స": 226,
      "హ": 227,
      "ా": 228,
      "ి": 229,
      "ీ": 230,
      "ు": 231,
      "ూ": 232,
      "ృ": 233,
      "ె": 234,
      "ే": 235,
      "ై": 236,
      "ొ": 237,
      "ో": 238,
      "ౌ": 239,
      "్": 240,
      "ṅ": 241,
      "ṇ": 242,
      "ṣ": 243,
      "ṭ": 244,
      "Ἰ": 245,
      "‌": 246,
      "‍": 247,
      "–": 248,
      "—": 249,
      "‘": 250,
      "’": 251,
      "“": 252,
      "”": 253,
      "†": 254,
      "′": 255,
      "₹": 256,
      "﻿": 257,
      "्य": 258,
      "ार": 259,
      "्र": 260,
      "th": 261,
      "के": 262,
      "an": 263,
      "్ర": 264,
      "्या": 265,
      "in": 266,
      "ारत": 267,
      "ార": 268,
      "भारत": 269,
      "र्": 270,
      "the": 271,
      "ात": 272,
      "ें": 273,
      "లు": 274,
      "का": 275,
      "स्": 276,
      "में": 277,
      "er": 278,
      "on": 279,
      "प्र": 280,
      "या": 281,
      "లో": 282,
      "है": 283,
      "ान": 284,
      "िक": 285,
      "re": 286,
      "స్": 287,
      "रा": 288,
      "న్": 289,
      "al": 290,
      "st": 291,
      "en": 292,
      "ది": 293,
      "ने": 294,
      "్య": 295,
      "ిం": 296,
      "सा": 297,
      "वि": 298,
      "से": 299,
      "हे": 300,
      "di": 301,
      "at": 302,
      "क्": 303,
      "ों": 304,
      "ప్ర": 305,
      "ar": 306,
      "ला": 307,
      "ना": 308,
      "ed": 309,
      "and": 310,
      "की": 311,
      "ని": 312,
      "దే": 313,
      "ాల": 314,
      "वा": 315,
      "దేశ": 316,
      "ర్": 317,
      "और": 318,
      "of": 319,
      "or": 320,
      "In": 321,
      "ीय": 322,
      "सं": 323,
      "ले": 324,
      "గా": 325,
      "आहे": 326,
      "त्र": 327,
      "న్న": 328,
      "as": 329,
      "భార": 330,
      "ion": 331,
      "क्ष": 332,
      "భారత": 333,
      "ली": 334,
      "es": 335,
      "मा": 336,
      "ది.": 337,
      "Indi": 338,
      "it": 339,
      "కు": 340,
      "कर": 341,
      "ic": 342,
      "ता": 343,
      "था": 344,
      "पर": 345,
      "भा": 346,
      "ిక": 347,
      "िया": 348,
      "दे": 349,
      "ాలు": 350,
      "है।": 351,
      "ती": 352,
      "ాయ": 353,
      "राज": 354,
      "is": 355,
      "ing": 356,
      "त्": 357,
      "हा": 358,
      "19": 359,
      "వి": 360,
      "च्या": 361,
      "तर": 362,
      "ను": 363,
      "मु": 364,
      "క్": 365,
      "ची": 366,
      "ति": 367,
      "ष्": 368,
      "न्": 369,
      "कार": 370,
      "om": 371,
      "ित": 372,
      "पा": 373,
      "ent": 374,
      "ంలో": 375,
      "to": 376,
      "को": 377,
      "द्": 378,
      "हो": 379,
      "ते": 380,
      "ही": 381,
      "ंग": 382,
      "भारतीय": 383,
      "India": 384,
      "తి": 385,
      "రా": 386,
      "ిన": 387,
      "ou": 388,
      "ील": 389,
      "हु": 390,
      "ां": 391,
      "आहे.": 392,
      "नि": 393,
      "్ట": 394,
      "देश": 395,
      "चे": 396,
      "త్ర": 397,
      "ించ": 398,
      "ec": 399,
      "हैं": 400,
      "ండ": 401,
      "ద్": 402,
      "ము": 403,
      "వా": 404,
      "कि": 405,
      "త్": 406,
      "मि": 407,
      "हि": 408,
      "ून": 409,
      "चा": 410,
      "భారతదేశ": 411,
      "जात": 412,
      "ల్": 413,
      "ly": 414,
      "ष्ट": 415,
      "20": 416,
      "र्व": 417,
      "मान": 418,
      "वर्": 419,
      "ur": 420,
      "ड़": 421,
      "मध": 422,
      "ంగ": 423,
      "दी": 424,
      "पू": 425,
      "స్త": 426,
      "le": 427,
      "एक": 428,
      "ింది.": 429,
      "शा": 430,
      "सम": 431,
      "రి": 432,
      "ాన": 433,
      "ులు": 434,
      "ాయి": 435,
      "्ये": 436,
      "लि": 437,
      "తం": 438,
      "భా": 439,
      "రు": 440,
      "he": 441,
      "il": 442,
      "पु": 443,
      "ంట": 444,
      "स्त": 445,
      "द्र": 446,
      "वी": 447,
      "పు": 448,
      "ైన": 449,
      "స్థ": 450,
      "वर": 451,
      "राज्य": 452,
      "am": 453,
      "नी": 454,
      "श्": 455,
      "పా": 456,
      "ూడ": 457,
      "ాయి.": 458,
      "ad": 459,
      "दि": 460,
      "बा": 461,
      "भी": 462,
      "ंत्र": 463,
      "वे": 464,
      "కి": 465,
      "సా": 466,
      "ీయ": 467,
      "ారు": 468,
      "ver": 469,
      "सर": 470,
      "प्रा": 471,
      "हैं।": 472,
      "li": 473,
      "ంది.": 474,
      "ఉన్న": 475,
      "ri": 476,
      "इस": 477,
      "त्या": 478,
      "तथा": 479,
      "धिक": 480,
      "१९": 481,
      "ంగా": 482,
      "టి": 483,
      "తో": 484,
      "ro": 485,
      "अस": 486,
      "द्ध": 487,
      "ul": 488,
      "The": 489,
      "em": 490,
      "సం": 491,
      "్చ": 492,
      "క్ష": 493,
      "00": 494,
      "ch": 495,
      "लो": 496,
      "ार्": 497,
      "ation": 498,
      "कृ": 499,
      "िण": 500,
      "चि": 501,
      "ये": 502,
      "रू": 503,
      "आहेत": 504,
      "उत्": 505,
      "यु": 506,
      "ल्": 507,
      "षा": 508,
      "ce": 509,
      "ra": 510,
      "स्थ": 511,
      "मुख": 512,
      "ol": 513,
      "tion": 514,
      "जि": 515,
      "प्": 516,
      "मी": 517,
      "िय": 518,
      "కూడ": 519,
      "మా": 520,
      "ార్": 521,
      "विध": 522,
      "ष्ट्र": 523,
      "दक्ष": 524,
      "ल्या": 525,
      "स्था": 526,
      "दक्षिण": 527,
      "by": 528,
      "et": 529,
      "मो": 530,
      "Indian": 531,
      "ve": 532,
      "ist": 533,
      "ंड": 534,
      "म्": 535,
      "्रा": 536,
      "भारता": 537,
      "est": 538,
      "जी": 539,
      "झा": 540,
      "री": 541,
      "కా": 542,
      "చ్చ": 543,
      "र्म": 544,
      "ast": 545,
      "for": 546,
      "सि": 547,
      "ातील": 548,
      "वर्ष": 549,
      "पूर्व": 550,
      "us": 551,
      "con": 552,
      "ंध": 553,
      "तक": 554,
      "दो": 555,
      "ధిక": 556,
      "నే": 557,
      "మొ": 558,
      "ష్ట": 559,
      "రాజ": 560,
      "lo": 561,
      "तात": 562,
      "ारा": 563,
      "्यां": 564,
      "res": 565,
      "आहेत.": 566,
      "अन": 567,
      "जा": 568,
      "बहु": 569,
      "క్ర": 570,
      "తర": 571,
      "भारतात": 572,
      "ప్రా": 573,
      "मध्ये": 574,
      "ag": 575,
      "wi": 576,
      "किया": 577,
      "दा": 578,
      "de": 579,
      "mo": 580,
      "ter": 581,
      "un": 582,
      "కో": 583,
      "పే": 584,
      "సి": 585,
      "ాన్": 586,
      "ाने": 587,
      "భారతదేశం": 588,
      "ారు.": 589,
      "ir": 590,
      "क्र": 591,
      "णा": 592,
      "र्थ": 593,
      "राष्ट्र": 594,
      "be": 595,
      "wh": 596,
      "ంచ": 597,
      "జా": 598,
      "తా": 599,
      "యా": 600,
      "రై": 601,
      "వచ్చ": 602,
      "्रे": 603,
      "स्कृ": 604,
      "साम": 605,
      "क्षे": 606,
      "चीन": 607,
      "सरकार": 608,
      "'s": 609,
      "se": 610,
      "),": 611,
      "gh": 612,
      "ंत": 613,
      "सद": 614,
      "साथ": 615,
      "भाषा": 616,
      "शास": 617,
      "su": 618,
      "जन": 619,
      "ంద": 620,
      "ట్ట": 621,
      "ate": 622,
      "माण": 623,
      "ద్ధ": 624,
      "with": 625,
      "क्षेत्र": 626,
      "ex": 627,
      "im": 628,
      "s,": 629,
      "was": 630,
      "खा": 631,
      "भू": 632,
      "व्य": 633,
      "सु": 634,
      "सार": 635,
      "स्व": 636,
      "भाग": 637,
      "धर्म": 638,
      "रु": 639,
      "रे": 640,
      "కాల": 641,
      "నా": 642,
      "మైన": 643,
      "లి": 644,
      "వే": 645,
      "్ల": 646,
      "are": 647,
      "सी": 648,
      "संस्कृ": 649,
      "ते.": 650,
      "तात.": 651,
      "ies": 652,
      "ab": 653,
      "s.": 654,
      "लग": 655,
      "ळे": 656,
      "ఉంది.": 657,
      "ఒక": 658,
      "గు": 659,
      "చే": 660,
      "ధ్య": 661,
      "ong": 662,
      "ింద": 663,
      "రాష్ట": 664,
      "ల్ల": 665,
      "बाद": 666,
      "రాష్ట్ర": 667,
      "ain": 668,
      "po": 669,
      "si": 670,
      "ang": 671,
      "ut": 672,
      "अधिक": 673,
      "ओं": 674,
      "गया": 675,
      "टि": 676,
      "लय": 677,
      "ोग": 678,
      "ारी": 679,
      "नाव": 680,
      "उत्तर": 681,
      "rom": 682,
      "der": 683,
      "ంత": 684,
      "ంది": 685,
      "కొ": 686,
      "ఖ్య": 687,
      "వ్య": 688,
      "्यात": 689,
      "art": 690,
      "నికి": 691,
      "దేశాల": 692,
      "निर्": 693,
      "త్వ": 694,
      "हिन्": 695,
      "ఉన్నాయి.": 696,
      "लोक": 697,
      "du": 698,
      "wer": 699,
      "ical": 700,
      "अने": 701,
      "जो": 702,
      "टी": 703,
      "ढ़": 704,
      "धान": 705,
      "००": 706,
      "िक्": 707,
      "स्थान": 708,
      "प्त": 709,
      "so": 710,
      "ial": 711,
      "अप": 712,
      "गर": 713,
      "थी": 714,
      "मंत्र": 715,
      "यह": 716,
      "हर": 717,
      "డి": 718,
      "డు": 719,
      "ణా": 720,
      "పాల": 721,
      "శా": 722,
      "ిన్న": 723,
      "న్ని": 724,
      "ర్వ": 725,
      "ंगा": 726,
      "ద్ద": 727,
      "201": 728,
      "जिस": 729,
      "स्थाप": 730,
      "अनेक": 731,
      "has": 732,
      "ment": 733,
      "ac": 734,
      "ंतर": 735,
      "उप": 736,
      "द्य": 737,
      "पट": 738,
      "बसे": 739,
      "सबसे": 740,
      "ली.": 741,
      "्राज": 742,
      "साम्राज": 743,
      "ich": 744,
      "ंद्र": 745,
      "कु": 746,
      "तु": 747,
      "तो": 748,
      "दल": 749,
      "बन": 750,
      "बंध": 751,
      "रो": 752,
      "वै": 753,
      "కార": 754,
      "దా": 755,
      "పార": 756,
      "మార్": 757,
      "హింద": 758,
      "్రా": 759,
      "inc": 760,
      "काळ": 761,
      "प्रकार": 762,
      "భారతీయ": 763,
      "196": 764,
      "होता": 765,
      "ंग्रे": 766,
      "ండి": 767,
      "जाती": 768,
      "200": 769,
      "స్తు": 770,
      "కూడా": 771,
      "from": 772,
      "per": 773,
      "um": 774,
      "च्": 775,
      "णी": 776,
      "बी": 777,
      "ब्र": 778,
      "महा": 779,
      "प्रदेश": 780,
      "प्राचीन": 781,
      "over": 782,
      "ther": 783,
      "ंप": 784,
      "ठा": 785,
      "त्य": 786,
      "मह": 787,
      "शी": 788,
      "ంబ": 789,
      "అధిక": 790,
      "ఎన్న": 791,
      "కే": 792,
      "చె": 793,
      "తు": 794,
      "త్య": 795,
      "దక్ష": 796,
      "ధాన": 797,
      "పంచ": 798,
      "మే": 799,
      "మధ్య": 800,
      "్‌": 801,
      "है,": 802,
      "साह": 803,
      "ాలు,": 804,
      "ండు": 805,
      "ill": 806,
      "भारताच्या": 807,
      "మొద": 808,
      "రాజ్య": 809,
      "which": 810,
      "ay": 811,
      "el": 812,
      "ear": 813,
      "कड": 814,
      "गण": 815,
      "दिया": 816,
      "शिया": 817,
      "ैन": 818,
      "विश्": 819,
      "नाम": 820,
      "क्षा": 821,
      "चित्र": 822,
      "sp": 823,
      "com": 824,
      "गे": 825,
      "धी": 826,
      "मे": 827,
      "व्या": 828,
      "కృ": 829,
      "దాయ": 830,
      "ప్": 831,
      "బడ": 832,
      "రె": 833,
      "వస్థ": 834,
      "సభ": 835,
      "సు": 836,
      "ానికి": 837,
      "काल": 838,
      "विविध": 839,
      "ప్రధాన": 840,
      "దేశంలో": 841,
      "मुळे": 842,
      "క్కు": 843,
      "मिळ": 844,
      "భారతదేశంలో": 845,
      "భాష": 846,
      "स्तान": 847,
      "పేరు": 848,
      "शासन": 849,
      "व्यव": 850,
      "దక్షి": 851,
      "विश्व": 852,
      "cont": 853,
      "cent": 854,
      "rit": 855,
      "ure": 856,
      "गु": 857,
      "ठी": 858,
      "पश्": 859,
      "केंद्र": 860,
      "यां": 861,
      "ity": 862,
      "195": 863,
      "हिमा": 864,
      "रूप": 865,
      "अनु": 866,
      "ब्रि": 867,
      "चित्रपट": 868,
      "पश्चि": 869,
      "ak": 870,
      "ld": 871,
      "ted": 872,
      "its": 873,
      "1,": 874,
      "co": 875,
      "me": 876,
      "sh": 877,
      "ts": 878,
      "आण": 879,
      "आध": 880,
      "इंड": 881,
      "चु": 882,
      "बड़": 883,
      "वं": 884,
      "वन": 885,
      "शिक्": 886,
      "सर्": 887,
      "समा": 888,
      "అయ": 889,
      "ఇతర": 890,
      "టు": 891,
      "పె": 892,
      "పరి": 893,
      "మత": 894,
      "మి": 895,
      "రో": 896,
      "ర్య": 897,
      "లా": 898,
      "వార": 899,
      "వర్": 900,
      "स्त्र": 901,
      "స్వా": 902,
      "దేశం": 903,
      "199": 904,
      "द्वी": 905,
      "हुआ": 906,
      "్టీ": 907,
      "ించింది.": 908,
      "తంత్ర": 909,
      "ult": 910,
      "ప్రాంత": 911,
      "రైలు": 912,
      "टिश": 913,
      "వ్యవస్థ": 914,
      "పార్టీ": 915,
      "హిందూ": 916,
      "साहित": 917,
      "ब्रिटिश": 918,
      "India's": 919,
      "id": 920,
      "ive": 921,
      "कर्": 922,
      "पद": 923,
      "शि": 924,
      "प्रमुख": 925,
      "सेना": 926,
      "पास": 927,
      "हुई": 928,
      "जाता": 929,
      "मुख्य": 930,
      "मंत्री": 931,
      "द्वीप": 932,
      "ig": 933,
      "wor": 934,
      "end": 935,
      "arg": 936,
      "194": 937,
      "oun": 938,
      "were": 939,
      "lu": 940,
      "pl": 941,
      "pro": 942,
      "ंद": 943,
      "ंब": 944,
      "असे": 945,
      "तिक": 946,
      "दान": 947,
      "मत": 948,
      "रि": 949,
      "शक": 950,
      "सो": 951,
      "ोड़": 952,
      "గి": 953,
      "లకు": 954,
      "వల": 955,
      "వీ": 956,
      "ిత": 957,
      "प्रधान": 958,
      "స్త్ర": 959,
      "్యం": 960,
      "ప్రపంచ": 961,
      "ले.": 962,
      "करण": 963,
      "तील": 964,
      "त्व": 965,
      "197": 966,
      "पाकि": 967,
      "ించిన": 968,
      "मिल": 969,
      "पूर्": 970,
      "స్థాన": 971,
      "సాం": 972,
      "विधान": 973,
      "క్రీ": 974,
      "వచ్చింది.": 975,
      "साम्राज्य": 976,
      "క్కువ": 977,
      "सर्वा": 978,
      "पाकिस्तान": 979,
      "ap": 980,
      "26": 981,
      "larg": 982,
      "ख्या": 983,
      "ज़": 984,
      "टे": 985,
      "बढ़": 986,
      "मै": 987,
      "शे": 988,
      "षण": 989,
      "सभा": 990,
      "सर्व": 991,
      "हण": 992,
      "ated": 993,
      "ary": 994,
      "संघ": 995,
      "हीं": 996,
      "econ": 997,
      "मध्य": 998,
      "समय": 999,
      "000": 1000,
      "form": 1001,
      "gen": 1002,
      "ha": 1003,
      "no": 1004,
      "hi": 1005,
      "ru": 1006,
      "we": 1007,
      "गी": 1008,
      "जे": 1009,
      "तंत्र": 1010,
      "थे": 1011,
      "न्या": 1012,
      "पार": 1013,
      "ब्": 1014,
      "भर": 1015,
      "मन": 1016,
      "मू": 1017,
      "ऱ्या": 1018,
      "सह": 1019,
      "ृष्ट": 1020,
      "అతి": 1021,
      "ఉత్": 1022,
      "గం": 1023,
      "జరి": 1024,
      "జనా": 1025,
      "ట్": 1026,
      "తరు": 1027,
      "పూ": 1028,
      "పో": 1029,
      "భు": 1030,
      "మం": 1031,
      "మీ": 1032,
      "లలో": 1033,
      "శ్ర": 1034,
      "ష్": 1035,
      "ుకు": 1036,
      "్రె": 1037,
      "काही": 1038,
      "स्ट": 1039,
      "क्त": 1040,
      "ప్రభు": 1041,
      "ला.": 1042,
      "విధ": 1043,
      "तिश": 1044,
      "होती": 1045,
      "త్రి": 1046,
      "ముఖ్య": 1047,
      "मधील": 1048,
      "लिए": 1049,
      "राज्यों": 1050,
      "म्हण": 1051,
      "अन्य": 1052,
      "राष्ट्रीय": 1053,
      "జాత": 1054,
      "ంద్ర": 1055,
      "हिन्दी": 1056,
      "ప్ప": 1057,
      "అయిన": 1058,
      "జనాభా": 1059,
      "తరువా": 1060,
      "gion": 1061,
      "od": 1062,
      "por": 1063,
      "ans": 1064,
      "ish": 1065,
      "ism": 1066,
      "af": 1067,
      "ma": 1068,
      "min": 1069,
      "part": 1070,
      "ंचा": 1071,
      "अन्": 1072,
      "अर्थ": 1073,
      "आज": 1074,
      "आर्थ": 1075,
      "गा": 1076,
      "चल": 1077,
      "ज्": 1078,
      "पह": 1079,
      "योग": 1080,
      "ant": 1081,
      "ष्ठ": 1082,
      "ough": 1083,
      "देशों": 1084,
      "हैं,": 1085,
      "low": 1086,
      "व्यवस्था": 1087,
      "हिमालय": 1088,
      "पूर्ण": 1089,
      "आर्थिक": 1090,
      "iv": 1091,
      "ous": 1092,
      "ame": 1093,
      "age": 1094,
      "Ch": 1095,
      "Hin": 1096,
      "op": 1097,
      "ry": 1098,
      "up": 1099,
      "अर": 1100,
      "टक्": 1101,
      "डी": 1102,
      "पी": 1103,
      "पे": 1104,
      "बर": 1105,
      "बना": 1106,
      "रहा": 1107,
      "शन": 1108,
      "అనే": 1109,
      "ఆర్": 1110,
      "ఇది": 1111,
      "ఉంట": 1112,
      "ఎక్కువ": 1113,
      "ఏర్": 1114,
      "కలి": 1115,
      "గిన": 1116,
      "టిక": 1117,
      "డ్": 1118,
      "పట్ట": 1119,
      "బహ": 1120,
      "రణ": 1121,
      "లే": 1122,
      "వంట": 1123,
      "సంగ": 1124,
      "సరి": 1125,
      "ీన": 1126,
      "్లో": 1127,
      "प्रजाती": 1128,
      "స్కృ": 1129,
      "ప్రస్తు": 1130,
      "ప్రదాయ": 1131,
      "संविधान": 1132,
      "ass": 1133,
      "करने": 1134,
      "था।": 1135,
      "कारण": 1136,
      "द्व": 1137,
      "outh": 1138,
      "जाते": 1139,
      "ంగ్రె": 1140,
      "స్తాన్": 1141,
      "పాకి": 1142,
      "సాధ": 1143,
      "युद्ध": 1144,
      "కాంగ్రె": 1145,
      "दोन": 1146,
      "కాలంలో": 1147,
      "संस्कृती": 1148,
      "ందిన": 1149,
      "द्योग": 1150,
      "అధికార": 1151,
      "ఎన్నో": 1152,
      "కేంద్ర": 1153,
      "మొదటి": 1154,
      "దక్షిణ": 1155,
      "आणि": 1156,
      "1947": 1157,
      "ber": 1158,
      "bec": 1159,
      "ct": 1160,
      "mar": 1161,
      "nor": 1162,
      "all": 1163,
      "ally": 1164,
      "econom": 1165,
      "अंग्रे": 1166,
      "एशिया": 1167,
      "ग्र": 1168,
      "णे": 1169,
      "तसे": 1170,
      "दु": 1171,
      "नंतर": 1172,
      "नहीं": 1173,
      "पै": 1174,
      "पार्": 1175,
      "बंगा": 1176,
      "वळ": 1177,
      "शु": 1178,
      "सैन": 1179,
      "any": 1180,
      "्याने": 1181,
      "साठी": 1182,
      "संसद": 1183,
      "संख्या": 1184,
      "लीन": 1185,
      "पर्य": 1186,
      "तिहा": 1187,
      "हुए": 1188,
      "uring": 1189,
      "इसके": 1190,
      "झाले": 1191,
      "सिंध": 1192,
      "पूर्वी": 1193,
      "च्च": 1194,
      "अनुसार": 1195,
      "पश्चिम": 1196,
      "चुनाव": 1197,
      "साहित्य": 1198,
      "तसेच": 1199,
      "mill": 1200,
      "ance": 1201,
      "into": 1202,
      "our": 1203,
      "centur": 1204,
      "CE": 1205,
      "fo": 1206,
      "pul": 1207,
      "इन": 1208,
      "उन": 1209,
      "कई": 1210,
      "कॉ": 1211,
      "डा": 1212,
      "तृ": 1213,
      "त्ये": 1214,
      "दार": 1215,
      "दिक": 1216,
      "दशक": 1217,
      "पर्व": 1218,
      "बौ": 1219,
      "मार": 1220,
      "यों": 1221,
      "शह": 1222,
      "కల్": 1223,
      "గర": 1224,
      "గల": 1225,
      "గో": 1226,
      "చిన్న": 1227,
      "జన": 1228,
      "తిక": 1229,
      "దు": 1230,
      "ధి": 1231,
      "పర": 1232,
      "పై": 1233,
      "బా": 1234,
      "బ్": 1235,
      "బ్ర": 1236,
      "భూ": 1237,
      "మన": 1238,
      "మహ": 1239,
      "యో": 1240,
      "రవా": 1241,
      "రంగ": 1242,
      "లను": 1243,
      "లతో": 1244,
      "వు": 1245,
      "షు": 1246,
      "హద్ద": 1247,
      "ిమ": 1248,
      "ౌక": 1249,
      "ern": 1250,
      "stit": 1251,
      "विस्त": 1252,
      "ప్రతి": 1253,
      "ాలలో": 1254,
      "ాలను": 1255,
      "संबंध": 1256,
      "es,": 1257,
      "करोड़": 1258,
      "मुद्र": 1259,
      "होते.": 1260,
      "ించి": 1261,
      "ड़ा": 1262,
      "ంగ్ల": 1263,
      "पुर": 1264,
      "१९९": 1265,
      "ल्ली": 1266,
      "క్రమ": 1267,
      "సిని": 1268,
      "సియా": 1269,
      "भाषाओं": 1270,
      "ద్ధి": 1271,
      "भूमि": 1272,
      "गया।": 1273,
      "निर्माण": 1274,
      "శాస్త్ర": 1275,
      "वैदिक": 1276,
      "overn": 1277,
      "రెండు": 1278,
      "इंडिया": 1279,
      "शिक्षण": 1280,
      "క్రీడ": 1281,
      "मैदान": 1282,
      "ప్రభుత్వ": 1283,
      "జాతీయ": 1284,
      "टक्के": 1285,
      "సంగీ": 1286,
      "సరిహద్ద": 1287,
      "రవాణా": 1288,
      "ding": 1289,
      "fe": 1290,
      "govern": 1291,
      "ution": 1292,
      "sub": 1293,
      "18": 1294,
      "22": 1295,
      "av": 1296,
      "lat": 1297,
      "ne": 1298,
      "west": 1299,
      "y,": 1300,
      "अव": 1301,
      "आप": 1302,
      "इस्": 1303,
      "इतिहा": 1304,
      "गठ": 1305,
      "गो": 1306,
      "घे": 1307,
      "घो": 1308,
      "चार": 1309,
      "जग": 1310,
      "जून": 1311,
      "दर": 1312,
      "दू": 1313,
      "दर्": 1314,
      "दृष्ट": 1315,
      "पड": 1316,
      "पृ": 1317,
      "पती": 1318,
      "फ्र": 1319,
      "श्र": 1320,
      "सू": 1321,
      "िका": 1322,
      "ृत": 1323,
      "ारिक": 1324,
      "प्रत्ये": 1325,
      "नेतृ": 1326,
      "विका": 1327,
      "क्ति": 1328,
      "नाट": 1329,
      "वाद": 1330,
      "न्न": 1331,
      "दिल्ली": 1332,
      "किया।": 1333,
      "क्रम": 1334,
      "स्वतंत्र": 1335,
      "angu": 1336,
      "ंग्रेस": 1337,
      "बीच": 1338,
      "1950": 1339,
      "पासून": 1340,
      "ज्ञ": 1341,
      "द्वारा": 1342,
      "चुनावों": 1343,
      "बौद्ध": 1344,
      "प्रत्येक": 1345,
      "Th": 1346,
      "but": 1347,
      "fir": 1348,
      "ire": 1349,
      "langu": 1350,
      "sy": 1351,
      "year": 1352,
      "Ind": 1353,
      "198": 1354,
      "ress": 1355,
      "government": 1356,
      "15": 1357,
      "dec": 1358,
      "pri": 1359,
      "qu": 1360,
      "tra": 1361,
      "uc": 1362,
      "ंची": 1363,
      "अभ": 1364,
      "इंग": 1365,
      "ई।": 1366,
      "उदा": 1367,
      "जिक": 1368,
      "टा": 1369,
      "ण्": 1370,
      "तन": 1371,
      "पठ": 1372,
      "फ़": 1373,
      "मौ": 1374,
      "यन": 1375,
      "लिया": 1376,
      "विक": 1377,
      "हार": 1378,
      "हवा": 1379,
      "१८": 1380,
      "२००": 1381,
      "ంతో": 1382,
      "అత్య": 1383,
      "ఆధ": 1384,
      "ఉప": 1385,
      "కను": 1386,
      "గ్": 1387,
      "గలు": 1388,
      "చు": 1389,
      "ణి": 1390,
      "దం": 1391,
      "దీ": 1392,
      "దార": 1393,
      "నీ": 1394,
      "నడి": 1395,
      "పతి": 1396,
      "బె": 1397,
      "భిన్న": 1398,
      "మై": 1399,
      "మూడ": 1400,
      "యు": 1401,
      "రహ": 1402,
      "లం": 1403,
      "వై": 1404,
      "సిం": 1405,
      "సింది.": 1406,
      "ిల్ల": 1407,
      "ारे": 1408,
      "केले": 1409,
      "ाता": 1410,
      "काम": 1411,
      "कालीन": 1412,
      "स्वर": 1413,
      "में,": 1414,
      "reas": 1415,
      "region": 1416,
      "స్య": 1417,
      "స్వ": 1418,
      "dition": 1419,
      "ప్రము": 1420,
      "ాల్లో": 1421,
      "గా,": 1422,
      "గాలు": 1423,
      "भाज": 1424,
      "విస్త": 1425,
      "వివిధ": 1426,
      "త్వా": 1427,
      "हिं": 1428,
      "భాగం": 1429,
      "ైనా": 1430,
      "సామ": 1431,
      "असते.": 1432,
      "మాత్ర": 1433,
      "बहुत": 1434,
      "popul": 1435,
      "थी।": 1436,
      "inclu": 1437,
      "महारा": 1438,
      "దేశంలోని": 1439,
      "పెద్ద": 1440,
      "world": 1441,
      "మంత్రి": 1442,
      "ప్పటిక": 1443,
      "తరువాత": 1444,
      "minist": 1445,
      "ఏర్ప": 1446,
      "బహు": 1447,
      "बंगाल": 1448,
      "सैन्य": 1449,
      "कॉंग्रेस": 1450,
      "బ్రి": 1451,
      "సరిహద్దు": 1452,
      "घोष": 1453,
      "हवामान": 1454,
      "అత్యధిక": 1455,
      "దారులు": 1456,
      "నడిప": 1457,
      "ప్రముఖ": 1458,
      "Asi": 1459,
      "cl": 1460,
      "sc": 1461,
      "ud": 1462,
      "ved": 1463,
      "ers": 1464,
      "stem": 1465,
      "ates": 1466,
      "ome": 1467,
      "row": 1468,
      "most": 1469,
      "2011": 1470,
      "Hindu": 1471,
      "first": 1472,
      "system": 1473,
      "0%": 1474,
      "4%": 1475,
      "bo": 1476,
      "land": 1477,
      "og": 1478,
      "इतर": 1479,
      "गंगा": 1480,
      "जब": 1481,
      "निक": 1482,
      "पं": 1483,
      "बो": 1484,
      "बां": 1485,
      "बदल": 1486,
      "भग": 1487,
      "भे": 1488,
      "यू": 1489,
      "रक्षा": 1490,
      "लन": 1491,
      "लर": 1492,
      "लु": 1493,
      "शै": 1494,
      "सक": 1495,
      "सित": 1496,
      "समुद्र": 1497,
      "ृत्य": 1498,
      "५०": 1499,
      "्यों": 1500,
      "ine": 1501,
      "कां": 1502,
      "eral": 1503,
      "प्रमाण": 1504,
      "reat": 1505,
      "reli": 1506,
      "ence": 1507,
      "सामा": 1508,
      "सेवा": 1509,
      "लाग": 1510,
      "लाल": 1511,
      "क्षण": 1512,
      "परमाण": 1513,
      "देख": 1514,
      "न्ह": 1515,
      "कार्य": 1516,
      "निर": 1517,
      "ection": 1518,
      "शास्त्र": 1519,
      "सम्": 1520,
      "वीं": 1521,
      "वेश": 1522,
      "प्राप्त": 1523,
      "१९७": 1524,
      "ार्थ": 1525,
      "युक्त": 1526,
      "स्थित": 1527,
      "ियों": 1528,
      "संस्कृत": 1529,
      "होता.": 1530,
      "च्छ": 1531,
      "गणराज्य": 1532,
      "हुआ।": 1533,
      "प्रधानमंत्री": 1534,
      "सर्वाधिक": 1535,
      "शेष": 1536,
      "न्याया": 1537,
      "इस्ला": 1538,
      "सामाजिक": 1539,
      "परमाणु": 1540,
      "during": 1541,
      "gan": 1542,
      "had": 1543,
      "hist": 1544,
      "long": 1545,
      "mon": 1546,
      "oc": 1547,
      "pe": 1548,
      "anc": 1549,
      "ect": 1550,
      "used": 1551,
      "ext": 1552,
      "after": 1553,
      "became": 1554,
      "fore": 1555,
      "stitution": 1556,
      ",000": 1557,
      "1.": 1558,
      "jor": 1559,
      "pre": 1560,
      "pire": 1561,
      "ral": 1562,
      "ric": 1563,
      "ser": 1564,
      "ंह": 1565,
      "ंदि": 1566,
      "अमे": 1567,
      "इ.": 1568,
      "ईसा": 1569,
      "ओर": 1570,
      "डॉ": 1571,
      "ण्या": 1572,
      "ण्यात": 1573,
      "पक्ष": 1574,
      "यं": 1575,
      "यात": 1576,
      "रिक": 1577,
      "लों": 1578,
      "शो": 1579,
      "शता": 1580,
      "शां": 1581,
      "शिय": 1582,
      "सण": 1583,
      "ूह": 1584,
      "ो.": 1585,
      "२०": 1586,
      "ం,": 1587,
      "ం.": 1588,
      "ంధ": 1589,
      "అభ": 1590,
      "అను": 1591,
      "కాలు": 1592,
      "కీయ": 1593,
      "గే": 1594,
      "గంగా": 1595,
      "చైనా": 1596,
      "జ్య": 1597,
      "టీ": 1598,
      "ఢిల్ల": 1599,
      "తన": 1600,
      "తూ": 1601,
      "తె": 1602,
      "థిక": 1603,
      "నాలు": 1604,
      "పత": 1605,
      "పొ": 1606,
      "బి": 1607,
      "మలు": 1608,
      "మ్య": 1609,
      "రూ": 1610,
      "ళ్ల": 1611,
      "వడ": 1612,
      "శ్": 1613,
      "శతా": 1614,
      "సమ": 1615,
      "సార": 1616,
      "సము": 1617,
      "సమా": 1618,
      "సర్వ": 1619,
      "సౌక": 1620,
      "హార": 1621,
      "ెల": 1622,
      "्यता": 1623,
      "ाती": 1624,
      "प्रभा": 1625,
      "प्रति": 1626,
      "प्रां": 1627,
      "यास": 1628,
      "ाना": 1629,
      "న్య": 1630,
      "साल": 1631,
      "विष": 1632,
      "विद्य": 1633,
      "ప్రజ": 1634,
      "ప్రజా": 1635,
      "నిర్వ": 1636,
      "ాలతో": 1637,
      "वादी": 1638,
      "संगी": 1639,
      "న్నాయి.": 1640,
      "భారత్": 1641,
      "కుల": 1642,
      "परंत": 1643,
      "भाष": 1644,
      "हाला": 1645,
      "నులు": 1646,
      "నుండి": 1647,
      "न्तु": 1648,
      "निव": 1649,
      "ించే": 1650,
      "త్తం": 1651,
      "భారతదేశానికి": 1652,
      "जातो.": 1653,
      "ల్వే": 1654,
      "लिये": 1655,
      "वेग": 1656,
      "असले": 1657,
      "असून": 1658,
      "సంస్కృ": 1659,
      "येथ": 1660,
      "युग": 1661,
      "కూడిన": 1662,
      "मोठ": 1663,
      "वर्षों": 1664,
      "మొత్తం": 1665,
      "రాజకీయ": 1666,
      "కోర్": 1667,
      "పేర్": 1668,
      "been": 1669,
      "రైల్వే": 1670,
      "शासित": 1671,
      "ందు": 1672,
      "क्षेत्रीय": 1673,
      "ఒకటి": 1674,
      "చేయ": 1675,
      "రాష్ట్రపతి": 1676,
      "dern": 1677,
      "దేశాలలో": 1678,
      "soc": 1679,
      "जिसमें": 1680,
      "మార్గ": 1681,
      "మార్గాలు": 1682,
      "काळात": 1683,
      "తున్న": 1684,
      "మొదల": 1685,
      "धीरे": 1686,
      "contin": 1687,
      "आधार": 1688,
      "समाज": 1689,
      "స్వాతంత్ర": 1690,
      "ప్రాంతాలు": 1691,
      "ప్రపంచంలో": 1692,
      "largest": 1693,
      "सर्वो": 1694,
      "have": 1695,
      "ब्दी": 1696,
      "జరిగిన": 1697,
      "अर्थव्यवस्था": 1698,
      "पहले": 1699,
      "अरब": 1700,
      "అనేక": 1701,
      "ఎక్కువగా": 1702,
      "పట్టణ": 1703,
      "వంటి": 1704,
      "ప్రస్తుతం": 1705,
      "కాంగ్రెసు": 1706,
      "पर्यंत": 1707,
      "सिंधू": 1708,
      "బ్దం": 1709,
      "भूमिका": 1710,
      "इतिहास": 1711,
      "नेतृत्व": 1712,
      "विकास": 1713,
      "tradition": 1714,
      "उदाहर": 1715,
      "ण्ड": 1716,
      "రహదారులు": 1717,
      "సింధ": 1718,
      "स्वरू": 1719,
      "महाराष्ट्र": 1720,
      "शताब्दी": 1721,
      "అభి": 1722,
      "ఢిల్లీ": 1723,
      "శతాబ్దం": 1724,
      "సౌకర్య": 1725,
      "నిర్వహ": 1726,
      "परंतु": 1727,
      ").": 1728,
      "Cong": 1729,
      "Em": 1730,
      "bl": 1731,
      "cast": 1732,
      "gr": 1733,
      "ni": 1734,
      "vi": 1735,
      "wo": 1736,
      "war": 1737,
      "them": 1738,
      "ere": 1739,
      "also": 1740,
      "ural": 1741,
      "ational": 1742,
      "more": 1743,
      "such": 1744,
      "duc": 1745,
      "1965": 1746,
      "thern": 1747,
      "million": 1748,
      "minister": 1749,
      "12": 1750,
      "17": 1751,
      "South": 1752,
      "ban": 1753,
      "fic": 1754,
      "num": 1755,
      "ok": 1756,
      "pt": 1757,
      "pol": 1758,
      "wn": 1759,
      "अथ": 1760,
      "अतिश": 1761,
      "आर": 1762,
      "आक्रम": 1763,
      "उद्योग": 1764,
      "कला": 1765,
      "खन": 1766,
      "गत": 1767,
      "गां": 1768,
      "जै": 1769,
      "द्या": 1770,
      "धि": 1771,
      "धार": 1772,
      "ध्या": 1773,
      "नदी": 1774,
      "पीय": 1775,
      "बि": 1776,
      "बे": 1777,
      "बार": 1778,
      "मार्": 1779,
      "यी": 1780,
      "वृ": 1781,
      "स.": 1782,
      "ुनिक": 1783,
      "that": 1784,
      "inf": 1785,
      "साय": 1786,
      "सागर": 1787,
      "करून": 1788,
      "था,": 1789,
      "परंप": 1790,
      "राज्यां": 1791,
      "हाँ": 1792,
      "तरी": 1793,
      "न्द्र": 1794,
      "देशी": 1795,
      "किल्": 1796,
      "वर्ण": 1797,
      "वरी": 1798,
      "ade": 1799,
      "लोग": 1800,
      "जिन": 1801,
      "प्ले": 1802,
      "झाली.": 1803,
      "दोलन": 1804,
      "सदस": 1805,
      "जनसंख्या": 1806,
      "लगभग": 1807,
      "अपने": 1808,
      "कुछ": 1809,
      "कुल": 1810,
      "तो.": 1811,
      "बंधन": 1812,
      "increas": 1813,
      "comp": 1814,
      "गुप्त": 1815,
      "आधुनिक": 1816,
      "major": 1817,
      "अन्त": 1818,
      "दोनों": 1819,
      "पर्वत": 1820,
      "शहरी": 1821,
      "जगातील": 1822,
      "स्वतंत्रता": 1823,
      "बांध": 1824,
      "संगीत": 1825,
      "येथील": 1826,
      "सर्वोच्च": 1827,
      "स्वरूप": 1828,
      "Congress": 1829,
      "गांधी": 1830,
      "परंपरा": 1831,
      ".7": 1832,
      "3,": 1833,
      "6%": 1834,
      "Af": 1835,
      "ca": 1836,
      "cor": 1837,
      "coun": 1838,
      "ef": 1839,
      "grow": 1840,
      "har": 1841,
      "par": 1842,
      "ta": 1843,
      "two": 1844,
      "atic": 1845,
      "es.": 1846,
      "India.": 1847,
      "modern": 1848,
      "imal": 1849,
      "ound": 1850,
      "port": 1851,
      "prime": 1852,
      "both": 1853,
      "10": 1854,
      "2%": 1855,
      "2,": 1856,
      "BCE": 1857,
      "bet": 1858,
      "cult": 1859,
      "dom": 1860,
      "hum": 1861,
      "ian": 1862,
      "main": 1863,
      "rough": 1864,
      "ures": 1865,
      "ँकि": 1866,
      "ंशी": 1867,
      "अग": 1868,
      "अम": 1869,
      "अप्र": 1870,
      "अलग": 1871,
      "आदि": 1872,
      "आधिक": 1873,
      "उस": 1874,
      "ओळ": 1875,
      "घा": 1876,
      "चना": 1877,
      "जल": 1878,
      "ज्या": 1879,
      "डे": 1880,
      "तमिळ": 1881,
      "तमिल": 1882,
      "थिय": 1883,
      "धर्": 1884,
      "नै": 1885,
      "नृत्य": 1886,
      "पहा": 1887,
      "पड़": 1888,
      "बने": 1889,
      "बनी": 1890,
      "भि": 1891,
      "मसा": 1892,
      "यार": 1893,
      "रहे": 1894,
      "वल": 1895,
      "व्": 1896,
      "सत": 1897,
      "हथिय": 1898,
      "१५": 1899,
      "२.": 1900,
      "అని": 1901,
      "ఇండి": 1902,
      "కం": 1903,
      "కీ": 1904,
      "క్య": 1905,
      "చీన": 1906,
      "జి": 1907,
      "టె": 1908,
      "ట్ల": 1909,
      "ణంగా": 1910,
      "దన": 1911,
      "నాయ": 1912,
      "పద": 1913,
      "పశ": 1914,
      "పద్ధ": 1915,
      "పండు": 1916,
      "మూ": 1917,
      "మ్": 1918,
      "రే": 1919,
      "రకాల": 1920,
      "వర": 1921,
      "వహ": 1922,
      "వృ": 1923,
      "వె": 1924,
      "వత్": 1925,
      "వరి": 1926,
      "ా,": 1927,
      "ిస్త": 1928,
      "ీ,": 1929,
      "ీలు": 1930,
      "ు.": 1931,
      "ుంది.": 1932,
      "ుకో": 1933,
      "ూచ": 1934,
      "though": 1935,
      "ారి": 1936,
      "ातंत्र": 1937,
      "स्तर": 1938,
      "स्ति": 1939,
      "లోక్": 1940,
      "స్లా": 1941,
      "राण": 1942,
      "ప్రకార": 1943,
      "नाड": 1944,
      "నిక": 1945,
      "నిర్": 1946,
      "वाळ": 1947,
      "वाह": 1948,
      "ర్ణ": 1949,
      "संयुक्त": 1950,
      "ess": 1951,
      "ition": 1952,
      "కులు": 1953,
      "కుంట": 1954,
      "కుటు": 1955,
      "करना": 1956,
      "तांशी": 1957,
      "ిక,": 1958,
      "ికత": 1959,
      "ిక్": 1960,
      "त्वा": 1961,
      "त्तर": 1962,
      "వి.": 1963,
      "క్క": 1964,
      "India,": 1965,
      "రాస్య": 1966,
      "out": 1967,
      "निभा": 1968,
      "ండో": 1969,
      "ద్వీ": 1970,
      "किन": 1971,
      "हिंद": 1972,
      "वर्ग": 1973,
      "urban": 1974,
      "ड़ी": 1975,
      "lear": 1976,
      "पुत्र": 1977,
      "ంటే": 1978,
      "స్థా": 1979,
      "స్థాన్": 1980,
      "वरील": 1981,
      "वरून": 1982,
      "పాక్": 1983,
      "పాత్ర": 1984,
      "दिव": 1985,
      "lim": 1986,
      "इसी": 1987,
      "१९८": 1988,
      "టిలో": 1989,
      "సంప్రదాయ": 1990,
      "్చిమ": 1991,
      "క్షరాస్య": 1992,
      "दक्षिणे": 1993,
      "मोह": 1994,
      "istan": 1995,
      "म्भ": 1996,
      "सिद्ध": 1997,
      "सिंह": 1998,
      "वर्षां": 1999,
      "बहुमत": 2000,
      "बहुतांशी": 2001,
      "ప్రాచీన": 2002,
      "under": 2003,
      "ంచి": 2004,
      "రైళ్ల": 2005,
      "వచ్చిన": 2006,
      "स्वातंत्र": 2007,
      "వేగంగా": 2008,
      "सीमा": 2009,
      "संस्कृति": 2010,
      "अधिकार": 2011,
      "अपनी": 2012,
      "ణాసియా": 2013,
      "పాలన": 2014,
      "स्थापना": 2015,
      "रोपीय": 2016,
      "కార్య": 2017,
      "చెందిన": 2018,
      "మేన": 2019,
      "రాజ్యాలు": 2020,
      "సభ్య": 2021,
      "ప్రధానమంత్రి": 2022,
      "భాషలు": 2023,
      "बड़ा": 2024,
      "वंश": 2025,
      "పరిశ్ర": 2026,
      "స్వామ్య": 2027,
      "వ్యవస్థలో": 2028,
      "शिष्ट": 2029,
      "1971": 2030,
      "సాంప్రదాయ": 2031,
      "सर्वांत": 2032,
      "large": 2033,
      "ज़ी": 2034,
      "not": 2035,
      "ween": 2036,
      "भरत": 2037,
      "मूल": 2038,
      "ఉత్తర": 2039,
      "ట్లు": 2040,
      "పూ.": 2041,
      "ఆర్ధిక": 2042,
      "ఆర్థిక": 2043,
      "ఉంటాయి.": 2044,
      "కలిగి": 2045,
      "जाते.": 2046,
      "పాకిస్తాన్": 2047,
      "పాకిస్థాన్": 2048,
      "దక్షిణాన": 2049,
      "पार्टी": 2050,
      "పైగా": 2051,
      "బాద్": 2052,
      "మహా": 2053,
      "ించి,": 2054,
      "సినిమా": 2055,
      "శాస్త్రం": 2056,
      "సంగీతం": 2057,
      "गठबंधन": 2058,
      "years": 2059,
      "इंग्र": 2060,
      "विकसित": 2061,
      "ఆధార": 2062,
      "మూడు": 2063,
      "స్వతంత్ర": 2064,
      "भाजपा": 2065,
      "సామ్రా": 2066,
      "మాత్రం": 2067,
      "బ్రిటి": 2068,
      "నడిపించ": 2069,
      "Asia": 2070,
      "class": 2071,
      "पंजा": 2072,
      "न्हें": 2073,
      "न्यायालय": 2074,
      "సర్వీ": 2075,
      "న్యాయ": 2076,
      "हालाँकि": 2077,
      "निवड": 2078,
      "उदाहरण": 2079,
      "అభివృ": 2080,
      "caste": 2081,
      "अथवा": 2082,
      "अतिशय": 2083,
      "प्लेट": 2084,
      "आधिकारिक": 2085,
      "ओळख": 2086,
      "हथियार": 2087,
      "ఇండియా": 2088,
      "పశ్చిమ": 2089,
      "కుటుంబ": 2090,
      "క్షరాస్యత": 2091,
      "అభివృద్ధి": 2092,
      "23": 2093,
      "30": 2094,
      "Brit": 2095,
      "Bud": 2096,
      "east": 2097,
      "led": 2098,
      "mer": 2099,
      "o-": 2100,
      "tr": 2101,
      "this": 2102,
      "ince": 2103,
      "their": 2104,
      "eng": 2105,
      "diver": 2106,
      "isation": 2107,
      "leg": 2108,
      "ament": 2109,
      "life": 2110,
      "who": 2111,
      "able": 2112,
      "election": 2113,
      "economic": 2114,
      "new": 2115,
      "language": 2116,
      "uclear": 2117,
      "population": 2118,
      "histor": 2119,
      "continent": 2120,
      "Empire": 2121,
      "number": 2122,
      "British": 2123,
      "Budd": 2124,
      "Al": 2125,
      "Con": 2126,
      "Pak": 2127,
      "Un": 2128,
      "dance": 2129,
      "fer": 2130,
      "fol": 2131,
      "ho": 2132,
      "lit": 2133,
      "late": 2134,
      "many": 2135,
      "pu": 2136,
      "ss": 2137,
      "south": 2138,
      "ँच": 2139,
      "ंका": 2140,
      "अजून": 2141,
      "आढ": 2142,
      "आले": 2143,
      "आहार": 2144,
      "इम": 2145,
      "इत्या": 2146,
      "उभ": 2147,
      "ऊँ": 2148,
      "एँ": 2149,
      "एं": 2150,
      "ऑफ": 2151,
      "कह": 2152,
      "ख्": 2153,
      "गए": 2154,
      "गति": 2155,
      "घल": 2156,
      "जु": 2157,
      "जैन": 2158,
      "टन": 2159,
      "डि": 2160,
      "ण्यां": 2161,
      "तः": 2162,
      "तयार": 2163,
      "ध्य": 2164,
      "नौ": 2165,
      "पि": 2166,
      "पो": 2167,
      "फल": 2168,
      "फा": 2169,
      "बत": 2170,
      "बद": 2171,
      "मक": 2172,
      "मिक": 2173,
      "यक": 2174,
      "लिक": 2175,
      "वली": 2176,
      "शक्ति": 2177,
      "सात": 2178,
      "सभे": 2179,
      "सध्या": 2180,
      "ुसार": 2181,
      "्ट": 2182,
      "१०": 2183,
      "१७": 2184,
      "२६": 2185,
      "४.": 2186,
      "ारम्भ": 2187,
      "केली": 2188,
      "केन्द्र": 2189,
      "ात्": 2190,
      "erg": 2191,
      "प्रिय": 2192,
      "प्रारम्भ": 2193,
      "सां": 2194,
      "विदेशी": 2195,
      "ari": 2196,
      "लावा": 2197,
      "की।": 2198,
      "वायु": 2199,
      "माध्य": 2200,
      "करता": 2201,
      "ियाँ": 2202,
      "राजा": 2203,
      "राजनी": 2204,
      "मुघल": 2205,
      "ष्ण": 2206,
      "omet": 2207,
      "पालि": 2208,
      "होत": 2209,
      "देशा": 2210,
      "किन्तु": 2211,
      "माना": 2212,
      "वर्त": 2213,
      "सम्रा": 2214,
      "पुरु": 2215,
      "सरे": 2216,
      "प्रामुख": 2217,
      "१९६": 2218,
      "मीर": 2219,
      "मोठा": 2220,
      "भारताचे": 2221,
      "झाला.": 2222,
      "ages": 2223,
      "राष्ट्रपती": 2224,
      "began": 2225,
      "ght": 2226,
      "सदार": 2227,
      "sup": 2228,
      "जनता": 2229,
      "खास": 2230,
      "खासदार": 2231,
      "सुरु": 2232,
      "भागात": 2233,
      "निर्मि": 2234,
      "ically": 2235,
      "स्थानिक": 2236,
      "ially": 2237,
      "जिसके": 2238,
      "महाद्वीप": 2239,
      "कडे": 2240,
      "गुज": 2241,
      "बड़ी": 2242,
      "बड़े": 2243,
      "कर्ज": 2244,
      "ंबे": 2245,
      "सहयोग": 2246,
      "lowing": 2247,
      "द्योगिक": 2248,
      "north": 2249,
      "अंग्रेजी": 2250,
      "शुरू": 2251,
      "western": 2252,
      "दृष्ट्या": 2253,
      "पृष्ठ": 2254,
      "ज्ञान": 2255,
      "पठार": 2256,
      "मौर": 2257,
      "घोषणा": 2258,
      "इस्लामी": 2259,
      "डॉलर": 2260,
      "शांति": 2261,
      "वेगळे": 2262,
      "मोठ्या": 2263,
      "blic": 2264,
      "between": 2265,
      "धर्मा": 2266,
      "पंजाब": 2267,
      "Pakistan": 2268,
      "public": 2269,
      "इमारत": 2270,
      "पालिका": 2271,
      "सम्राट": 2272,
      "प्रामुख्याने": 2273,
      "सुरुव": 2274,
      ".3": 2275,
      "40": 2276,
      "50": 2277,
      "An": 2278,
      "Com": 2279,
      "Eur": 2280,
      "It": 2281,
      "ped": 2282,
      "ris": 2283,
      "rate": 2284,
      "set": 2285,
      "ting": 2286,
      "tec": 2287,
      "tim": 2288,
      "ust": 2289,
      "y.": 2290,
      "on-": 2291,
      "ens": 2292,
      "ited": 2293,
      "river": 2294,
      "ement": 2295,
      "exp": 2296,
      "power": 2297,
      "anges": 2298,
      "1962": 2299,
      "peri": 2300,
      "spec": 2301,
      "northern": 2302,
      "later": 2303,
      "world's": 2304,
      "(వె": 2305,
      ".పూ.": 2306,
      "16": 2307,
      "By": 2308,
      "Ma": 2309,
      "cour": 2310,
      "ded": 2311,
      "her": 2312,
      "ket": 2313,
      "lish": 2314,
      "os": 2315,
      "other": 2316,
      "ple": 2317,
      "since": 2318,
      "ving": 2319,
      "ंक": 2320,
      "ंनी": 2321,
      "अब": 2322,
      "अभी": 2323,
      "अशी": 2324,
      "अफ्र": 2325,
      "अस्ति": 2326,
      "आग": 2327,
      "आन्": 2328,
      "ऋष": 2329,
      "ऋतु": 2330,
      "एवं": 2331,
      "कम": 2332,
      "कू": 2333,
      "कमी": 2334,
      "खो": 2335,
      "खंड": 2336,
      "गंग": 2337,
      "ग्रा": 2338,
      "चर": 2339,
      "चळ": 2340,
      "चो": 2341,
      "चला": 2342,
      "छो": 2343,
      "जवा": 2344,
      "जंग": 2345,
      "जलो": 2346,
      "जाने": 2347,
      "जयं": 2348,
      "जाना": 2349,
      "ठिका": 2350,
      "तत्": 2351,
      "दख्": 2352,
      "धो": 2353,
      "धार्": 2354,
      "पान": 2355,
      "पत्": 2356,
      "पंत": 2357,
      "फे": 2358,
      "बै": 2359,
      "बॉ": 2360,
      "भु": 2361,
      "मरा": 2362,
      "मंदि": 2363,
      "लू": 2364,
      "ळा": 2365,
      "ळी": 2366,
      "वार": 2367,
      "वसाय": 2368,
      "शत": 2369,
      "सून": 2370,
      "सल्": 2371,
      "िम": 2372,
      "ीका": 2373,
      "ैल": 2374,
      "ोसी": 2375,
      "१६": 2376,
      "४७": 2377,
      "ంభ": 2378,
      "అవ": 2379,
      "అవి": 2380,
      "ఆఫ": 2381,
      "ఆక్రమ": 2382,
      "ఆహార": 2383,
      "ఇవ": 2384,
      "ఇవి": 2385,
      "ఇంగ్ల": 2386,
      "ఇస్లా": 2387,
      "ఉండ": 2388,
      "ఎన్ని": 2389,
      "కథ": 2390,
      "కల": 2391,
      "కళ": 2392,
      "కటి": 2393,
      "కింద": 2394,
      "కరణ": 2395,
      "ఖండ": 2396,
      "గణ": 2397,
      "గె": 2398,
      "చాల": 2399,
      "జీ": 2400,
      "జన్": 2401,
      "జాలు": 2402,
      "జరు": 2403,
      "జంబ": 2404,
      "టం": 2405,
      "టా": 2406,
      "టో": 2407,
      "టర్": 2408,
      "టులు": 2409,
      "డిన": 2410,
      "తరా": 2411,
      "తము": 2412,
      "తులు": 2413,
      "తమి": 2414,
      "ద్ర": 2415,
      "నది": 2416,
      "నగర": 2417,
      "పం": 2418,
      "పక్ష": 2419,
      "బంగ్ల": 2420,
      "భర": 2421,
      "మె": 2422,
      "మౌ": 2423,
      "మాలు": 2424,
      "మతి": 2425,
      "మాన": 2426,
      "మారు": 2427,
      "మంది": 2428,
      "లె": 2429,
      "లిం": 2430,
      "లక్ష": 2431,
      "ళం": 2432,
      "ళ్": 2433,
      "వులు": 2434,
      "వల్ల": 2435,
      "వరణ": 2436,
      "సర": 2437,
      "సహ": 2438,
      "సే": 2439,
      "సులు": 2440,
      "సార్": 2441,
      "సూచ": 2442,
      "హా": 2443,
      "హ్": 2444,
      "హిమ": 2445,
      "ాదేశ": 2446,
      "ాంగ": 2447,
      "ిగా": 2448,
      "ుకొ": 2449,
      "ే.": 2450,
      "్ఘ": 2451,
      "్డ": 2452,
      "than": 2453,
      "केवल": 2454,
      "inter": 2455,
      "ారంభ": 2456,
      "भारताने": 2457,
      "र्त": 2458,
      "र्ष": 2459,
      "there": 2460,
      "ातून": 2461,
      "లు.": 2462,
      "లుగు": 2463,
      "स्लि": 2464,
      "स्वी": 2465,
      "one": 2466,
      "प्रतिश": 2467,
      "प्रचल": 2468,
      "प्रयास": 2469,
      "प्रसिद्ध": 2470,
      "లోయ": 2471,
      "దిన": 2472,
      "नेह": 2473,
      "विवाद": 2474,
      "विभि": 2475,
      "dic": 2476,
      "ప్రారంభ": 2477,
      "लां": 2478,
      "लाख": 2479,
      "नावा": 2480,
      "नागर": 2481,
      "నిస్తాన్": 2482,
      "ాలయ": 2483,
      "ాలీ": 2484,
      "ాలకు": 2485,
      "ాలనే": 2486,
      "वाली": 2487,
      "वापर": 2488,
      "वास्त": 2489,
      "దేశపు": 2490,
      "దేశంగా": 2491,
      "దేశానికి": 2492,
      "ర్,": 2493,
      "ర్త": 2494,
      "ర్ష": 2495,
      "గాంధ": 2496,
      "आहे,": 2497,
      "న్నది.": 2498,
      "న్నారు.": 2499,
      "क्षर": 2500,
      "करतात.": 2501,
      "ికి": 2502,
      "ियान": 2503,
      "देव": 2504,
      "ాలు.": 2505,
      "तीन": 2506,
      "ాయు": 2507,
      "राज्या": 2508,
      "त्न": 2509,
      "విధ్య": 2510,
      "విభిన్న": 2511,
      "నుంచి": 2512,
      "నుకటి": 2513,
      "मुस्लि": 2514,
      "క్తి": 2515,
      "ष्ठा": 2516,
      "पाद": 2517,
      "पाल": 2518,
      "ంలో,": 2519,
      "होते": 2520,
      "ांच्या": 2521,
      "ांमध्ये": 2522,
      "निय": 2523,
      "ించబడ": 2524,
      "ండా": 2525,
      "ద్వార": 2526,
      "ము.": 2527,
      "ముంబ": 2528,
      "వాతా": 2529,
      "వాణి": 2530,
      "త్తా": 2531,
      "मिला": 2532,
      "భారతదేశపు": 2533,
      "मान्य": 2534,
      "मानवी": 2535,
      "ంగాలీ": 2536,
      "समर्थ": 2537,
      "समूह": 2538,
      "लियन": 2539,
      "తంగా": 2540,
      "ilit": 2541,
      "పురు": 2542,
      "పుట్ట": 2543,
      "స్థి": 2544,
      "राज्यसभा": 2545,
      "among": 2546,
      "श्मीर": 2547,
      "పాటు": 2548,
      "పాదన": 2549,
      "वेद": 2550,
      "प्राण्यां": 2551,
      "ఉన్నారు.": 2552,
      "इसकी": 2553,
      "त्याचे": 2554,
      "१९५०": 2555,
      "ular": 2556,
      "సంఘ": 2557,
      "సంఖ్య": 2558,
      "సంకీ": 2559,
      "సంవత్": 2560,
      "कृष": 2561,
      "उत्पाद": 2562,
      "olog": 2563,
      "కూడుకు": 2564,
      "మాబాద్": 2565,
      "भारताची": 2566,
      "झाला": 2567,
      "మొట్ట": 2568,
      "जास्त": 2569,
      "కోవడ": 2570,
      "కోట్ల": 2571,
      "ాన్ని": 2572,
      "జాతి": 2573,
      "వచ్చు.": 2574,
      "ద్ధం": 2575,
      "भूमी": 2576,
      "सुरू": 2577,
      "నాగర": 2578,
      "మైనది.": 2579,
      "లిచ": 2580,
      "ఒకే": 2581,
      "గువ": 2582,
      "గుర్త": 2583,
      "చేసింది.": 2584,
      "రాష్ట్రాల": 2585,
      "రాష్ట్రాలు": 2586,
      "కొన్ని": 2587,
      "వ్యా": 2588,
      "हिन्दू": 2589,
      "लोकसभा": 2590,
      "०००": 2591,
      "పాలించ": 2592,
      "పాలిత": 2593,
      "శాఖ": 2594,
      "उपयोग": 2595,
      "साम्राज्या": 2596,
      "बनाने": 2597,
      "वैशिष्ट": 2598,
      "కారణంగా": 2599,
      "దాపు": 2600,
      "దాదాపు": 2601,
      "महासागर": 2602,
      "కేవల": 2603,
      "రాజ్యాంగ": 2604,
      "कडील": 2605,
      "दिया।": 2606,
      "व्यापार": 2607,
      "బడత": 2608,
      "దక్షిణాసియా": 2609,
      "यांनी": 2610,
      "इंडो": 2611,
      "वंट": 2612,
      "పెనీ": 2613,
      "వారస": 2614,
      "హిందూదేశం": 2615,
      "रिका": 2616,
      "सोबत": 2617,
      "వీటిలో": 2618,
      "करण्यात": 2619,
      "సాంస్కృ": 2620,
      "ఉత్తరా": 2621,
      "పూర్వ": 2622,
      "శ్రీ": 2623,
      "ష్ణ": 2624,
      "ుకుంట": 2625,
      "होती.": 2626,
      "ముఖ్యమైన": 2627,
      "म्हणून": 2628,
      "म्हणजे": 2629,
      "తరువాతి": 2630,
      "पेक्ष": 2631,
      "కలిసి": 2632,
      "డ్డ": 2633,
      "లేదా": 2634,
      "సాధించ": 2635,
      "కేంద్రపాలిత": 2636,
      "अंग्रेज़ी": 2637,
      "पैकी": 2638,
      "లతో,": 2639,
      "विस्तार": 2640,
      "विस्तृत": 2641,
      "ప్రతిపాదన": 2642,
      "సినిమాలు": 2643,
      "శాస్త్రీయ": 2644,
      "ప్రభుత్వం": 2645,
      "subcontinent": 2646,
      "पृष्ठा": 2647,
      "तनत": 2648,
      "ఉపఖండ": 2649,
      "బెంగాలీ": 2650,
      "వైవిధ్య": 2651,
      "త్వాన్ని": 2652,
      "including": 2653,
      "ఏర్పడ్డ": 2654,
      "బహుళ": 2655,
      "जबकि": 2656,
      "यूरोपीय": 2657,
      "शैली": 2658,
      "निरपेक्ष": 2659,
      "ार्थ्यां": 2660,
      "अमेरिका": 2661,
      "ण्यास": 2662,
      "పతకాలు": 2663,
      "పొందిన": 2664,
      "సముద్ర": 2665,
      "సమాఖ్య": 2666,
      "प्रभाव": 2667,
      "विद्यार्थ्यां": 2668,
      "ప్రజాస్వామ్య": 2669,
      "కోర్టులు": 2670,
      "పేర్కొ": 2671,
      "మొదలైన": 2672,
      "आधारित": 2673,
      "స్వాతంత్ర్య": 2674,
      "సింధు": 2675,
      "నిర్వహణ": 2676,
      "धारण": 2677,
      "influ": 2678,
      "किल्ला": 2679,
      "increased": 2680,
      "After": 2681,
      "count": 2682,
      "human": 2683,
      "अमरी": 2684,
      "अप्रैल": 2685,
      "तमिळनाड": 2686,
      "पड़ोसी": 2687,
      "व्हा": 2688,
      "కంపెనీ": 2689,
      "నాయక": 2690,
      "పండుగలు": 2691,
      "ప్రకారం": 2692,
      "ద్వీప": 2693,
      "दिवस": 2694,
      "సంప్రదాయాలు": 2695,
      "वर्षांपूर्वी": 2696,
      "రైళ్లను": 2697,
      "కార్యక్రమ": 2698,
      "పరిశ్రమలు": 2699,
      "సాంప్రదాయిక": 2700,
      "classical": 2701,
      "సర్వీసులు": 2702,
      "liter": 2703,
      "आढळ": 2704,
      "माध्यम": 2705,
      "राजनीतिक": 2706,
      "वर्तमान": 2707,
      "पुरुष": 2708,
      "निर्मिती": 2709,
      "मौर्य": 2710,
      "(వెనుకటి": 2711,
      "अफ्रीका": 2712,
      "आन्दोलन": 2713,
      "चळवळ": 2714,
      "जलोढ़": 2715,
      "जयंती": 2716,
      "धार्मिक": 2717,
      "पंतप्रधान": 2718,
      "सल्तनत": 2719,
      "ఆఫ్ఘ": 2720,
      "ఇస్లామాబాద్": 2721,
      "చాలా": 2722,
      "జన్మ": 2723,
      "జరుపు": 2724,
      "జంబూ": 2725,
      "బంగ్లాదేశ": 2726,
      "ళ్ళ": 2727,
      "వరణం": 2728,
      "హిమాలయ": 2729,
      "प्रतिशत": 2730,
      "विभिन्न": 2731,
      "గాంధీ": 2732,
      "मुस्लिम": 2733,
      "ద్వారా": 2734,
      "వాతావరణం": 2735,
      "వాణిజ్య": 2736,
      "समर्थन": 2737,
      "సంకీర్ణ": 2738,
      "మొట్టమొదటి": 2739,
      "నాగరికత": 2740,
      "కేవలం": 2741,
      "సాంస్కృతిక": 2742,
      "तमिळनाडू": 2743,
      ".8": 2744,
      "21": 2745,
      "9%": 2746,
      "Mu": 2747,
      "S$": 2748,
      "US$": 2749,
      "ai": 2750,
      "aw": 2751,
      "ach": 2752,
      "bal": 2753,
      "bas": 2754,
      "ik": 2755,
      "krit": 2756,
      "mus": 2757,
      "mid": 2758,
      "nuclear": 2759,
      "pres": 2760,
      "ten": 2761,
      "ually": 2762,
      "ree": 2763,
      "ren": 2764,
      "sty": 2765,
      "state": 2766,
      "ite": 2767,
      "ised": 2768,
      "amil": 2769,
      "liament": 2770,
      "velo": 2771,
      "constitution": 2772,
      "develo": 2773,
      "ghal": 2774,
      "ies,": 2775,
      "pos": 2776,
      "sig": 2777,
      "1991": 2778,
      "work": 2779,
      "general": 2780,
      "rule": 2781,
      "Chin": 2782,
      "ople": 2783,
      "1947,": 2784,
      "185": 2785,
      "Indo-": 2786,
      "occ": 2787,
      "people": 2788,
      "parliament": 2789,
      "period": 2790,
      "Mughal": 2791,
      "13": 2792,
      "24": 2793,
      "5%": 2794,
      "7%": 2795,
      "Beng": 2796,
      "East": 2797,
      "Mo": 2798,
      "Ne": 2799,
      "Pun": 2800,
      "Plate": 2801,
      "Sans": 2802,
      "West": 2803,
      "ace": 2804,
      "bir": 2805,
      "cal": 2806,
      "ev": 2807,
      "gi": 2808,
      "gre": 2809,
      "great": 2810,
      "hm": 2811,
      "hism": 2812,
      "ient": 2813,
      "jab": 2814,
      "milit": 2815,
      "ned": 2816,
      "national": 2817,
      "non-": 2818,
      "ph": 2819,
      "ron": 2820,
      "sur": 2821,
      "sity": 2822,
      "ya": 2823,
      "ं।": 2824,
      "अं": 2825,
      "अधि": 2826,
      "अलावा": 2827,
      "आत": 2828,
      "आम": 2829,
      "आस": 2830,
      "आर्": 2831,
      "आकर्": 2832,
      "ईस्ट": 2833,
      "उद": 2834,
      "उठा": 2835,
      "उच्च": 2836,
      "उष्ण": 2837,
      "एन": 2838,
      "कमा": 2839,
      "कटि": 2840,
      "कंप": 2841,
      "गई": 2842,
      "गई।": 2843,
      "घड": 2844,
      "छोड़": 2845,
      "जह": 2846,
      "जवळ": 2847,
      "जहाँ": 2848,
      "टर": 2849,
      "टना": 2850,
      "णात": 2851,
      "तम": 2852,
      "तरा": 2853,
      "द्यां": 2854,
      "दारी": 2855,
      "नवी": 2856,
      "नगर": 2857,
      "नदिया": 2858,
      "नद्यां": 2859,
      "पहु": 2860,
      "फि": 2861,
      "फै": 2862,
      "मर": 2863,
      "महि": 2864,
      "यत": 2865,
      "र-": 2866,
      "रल": 2867,
      "रचना": 2868,
      "लया": 2869,
      "वान": 2870,
      "वारी": 2871,
      "शस्त्र": 2872,
      "सरा": 2873,
      "सस्त": 2874,
      "सक्र": 2875,
      "सऱ्या": 2876,
      "सृष्ट": 2877,
      "ह्या": 2878,
      "ाम": 2879,
      "ूण": 2880,
      "ेक्षा": 2881,
      "ैकी": 2882,
      "ौर": 2883,
      "ौद्योगिक": 2884,
      "०,": 2885,
      "११": 2886,
      "१३": 2887,
      "२४": 2888,
      "४०": 2889,
      "through": 2890,
      "केली.": 2891,
      "भारती": 2892,
      "स्मार": 2893,
      "स्पती": 2894,
      "प्रग": 2895,
      "प्रणा": 2896,
      "प्रौद्योगिक": 2897,
      "या।": 2898,
      "enc": 2899,
      "enni": 2900,
      "साली": 2901,
      "विज": 2902,
      "विद्या": 2903,
      "वियत": 2904,
      "क्ट": 2905,
      "arm": 2906,
      "वाघ": 2907,
      "वास": 2908,
      "offic": 2909,
      "लेला": 2910,
      "त्री": 2911,
      "माल": 2912,
      "करते": 2913,
      "परि": 2914,
      "परी": 2915,
      "परे": 2916,
      "ियां": 2917,
      "देखा": 2918,
      "राज्ये": 2919,
      "राजधान": 2920,
      "राजनै": 2921,
      "त्त": 2922,
      "त्त्वा": 2923,
      "हाल": 2924,
      "तरह": 2925,
      "चीफ": 2926,
      "कोई": 2927,
      "द्दल": 2928,
      "ीलंका": 2929,
      "ांचा": 2930,
      "किये": 2931,
      "मिश्र": 2932,
      "मिलियन": 2933,
      "हिस्": 2934,
      "चाल": 2935,
      "मानव": 2936,
      "मानसून": 2937,
      "lead": 2938,
      "लिख": 2939,
      "पुर्त": 2940,
      "श्च": 2941,
      "बाह": 2942,
      "ंत्रिक": 2943,
      "वेष": 2944,
      "त्यामुळे": 2945,
      "१९४७": 2946,
      "emerg": 2947,
      "ations": 2948,
      "कृष्ट": 2949,
      "रूस": 2950,
      "ल्प": 2951,
      "स्थि": 2952,
      "मी.": 2953,
      "भारताला": 2954,
      "जीत": 2955,
      "वर्षात": 2956,
      "किया,": 2957,
      "णाऱ्या": 2958,
      "स्कृतिक": 2959,
      "सरकारें": 2960,
      "सदन": 2961,
      "जनवरी": 2962,
      "ately": 2963,
      "व्यु": 2964,
      "ange": 2965,
      "लोकप्रिय": 2966,
      "soon": 2967,
      "अपना": 2968,
      "जिसका": 2969,
      "स्थापत्य": 2970,
      "उपमहाद्वीप": 2971,
      "प्रकारच्या": 2972,
      "2004": 2973,
      "प्रदेशात": 2974,
      "ंपैकी": 2975,
      "गेट": 2976,
      "गेल्या": 2977,
      "गेली.": 2978,
      "व्यावसाय": 2979,
      "मिळा": 2980,
      "केंद्रशासित": 2981,
      "यांच्या": 2982,
      "पश्चिमी": 2983,
      "वन्य": 2984,
      "वनस्पती": 2985,
      "समाप्त": 2986,
      "ultan": 2987,
      "कर्नाट": 2988,
      "पदवी": 2989,
      "हुई।": 2990,
      "ign": 2991,
      "सोयी": 2992,
      "बढ़कर": 2993,
      "संघीय": 2994,
      "संघर्ष": 2995,
      "थे।": 2996,
      "अन्तर": 2997,
      "ope": 2998,
      "पेक्षा": 2999,
      "ग्री": 3000,
      "पार्ट": 3001,
      "शुरु": 3002,
      "millenni": 3003,
      "मैदानी": 3004,
      "दृष्टि": 3005,
      "पडले": 3006,
      "श्रीलंका": 3007,
      "नाटके": 3008,
      "अभियान": 3009,
      "हिंदी": 3010,
      "बंगालच्या": 3011,
      "घोषित": 3012,
      "कांच्या": 3013,
      "religion": 3014,
      "forest": 3015,
      "served": 3016,
      "इ.स.": 3017,
      "social": 3018,
      "जैसे": 3019,
      "लोगों": 3020,
      "caused": 3021,
      "उसके": 3022,
      "वाळवंट": 3023,
      "निभाई": 3024,
      "हिंदू": 3025,
      "स्वातंत्र्य": 3026,
      "अजूनही": 3027,
      "इत्यादी": 3028,
      "कहते": 3029,
      "सांस्कृतिक": 3030,
      "गुजर": 3031,
      "Europe": 3032,
      "tech": 3033,
      "ऋषभ": 3034,
      "गंगे": 3035,
      "छोटे": 3036,
      "तत्कालीन": 3037,
      "दख्खन": 3038,
      "नागरिक": 3039,
      "country": 3040,
      "music": 3041,
      "China": 3042,
      "Bengal": 3043,
      "Punjab": 3044,
      "Sanskrit": 3045,
      "नदियाँ": 3046,
      "सस्तन": 3047,
      "प्रणाली": 3048,
      "प्रौद्योगिकी": 3049,
      "राजधानी": 3050,
      "राजनैतिक": 3051,
      "पुर्तगा": 3052,
      "कर्नाटक": 3053,
      "millennium": 3054,
      "\",": 3055,
      "\".": 3056,
      "-d": 3057,
      "-largest": 3058,
      "29": 3059,
      "7,": 3060,
      "Ar": 3061,
      "Himal": 3062,
      "Is": 3063,
      "Mus": 3064,
      "Sik": 3065,
      "bill": 3066,
      "can": 3067,
      "col": 3068,
      "ds": 3069,
      "fi": 3070,
      "ga": 3071,
      "king": 3072,
      "kil": 3073,
      "man": 3074,
      "rat": 3075,
      "rural": 3076,
      "some": 3077,
      "te": 3078,
      "tro": 3079,
      "uch": 3080,
      "vement": 3081,
      "theast": 3082,
      "ered": 3083,
      "als": 3084,
      "dire": 3085,
      "disp": 3086,
      "ese": 3087,
      "esp": 3088,
      "ly,": 3089,
      "2022": 3090,
      "ver,": 3091,
      "ation,": 3092,
      "wide": 3093,
      "ared": 3094,
      "ell": 3095,
      "cook": 3096,
      "ident": 3097,
      "1977": 3098,
      "app": 3099,
      "gener": 3100,
      "high": 3101,
      "wever,": 3102,
      "mathem": 3103,
      "ivil": 3104,
      "economy": 3105,
      "century": 3106,
      "Indus": 3107,
      "4%,": 3108,
      "religi": 3109,
      "soci": 3110,
      "duced": 3111,
      "polit": 3112,
      "majority": 3113,
      "cording": 3114,
      "culture": 3115,
      "diversity": 3116,
      "military": 3117,
      "Himalay": 3118,
      "Muslim": 3119,
      "billion": 3120,
      "kilomet": 3121,
      "(0": 3122,
      "(3": 3123,
      "(इंग्र": 3124,
      ".0": 3125,
      "14": 3126,
      "36": 3127,
      "55": 3128,
      "500": 3129,
      "8,": 3130,
      "8లో": 3131,
      "Ac": 3132,
      "Act": 3133,
      "Cent": 3134,
      "Del": 3135,
      "En": 3136,
      "Gand": 3137,
      "Jain": 3138,
      "Re": 3139,
      "St": 3140,
      "Wor": 3141,
      "aj": 3142,
      "air": 3143,
      "bi": 3144,
      "cre": 3145,
      "cit": 3146,
      "dle": 3147,
      "dra": 3148,
      "fl": 3149,
      "fin": 3150,
      "fed": 3151,
      "ight": 3152,
      "ked": 3153,
      "last": 3154,
      "made": 3155,
      "ob": 3156,
      "ose": 3157,
      "own": 3158,
      "pend": 3159,
      "pany": 3160,
      "sing": 3161,
      "sch": 3162,
      "ty": 3163,
      "tal": 3164,
      "tri": 3165,
      "vent": 3166,
      "wom": 3167,
      "ंच": 3168,
      "ंवर": 3169,
      "अज": 3170,
      "अति": 3171,
      "अशिया": 3172,
      "अहिं": 3173,
      "अशो": 3174,
      "आय": 3175,
      "आली": 3176,
      "आंतर": 3177,
      "आयात": 3178,
      "इसे": 3179,
      "इंदि": 3180,
      "ई,": 3181,
      "ईद": 3182,
      "उसे": 3183,
      "उन्हें": 3184,
      "एका": 3185,
      "ओडि": 3186,
      "कप": 3187,
      "कल": 3188,
      "कों": 3189,
      "कले": 3190,
      "क्यों": 3191,
      "कच्छ": 3192,
      "कश्मीर": 3193,
      "खु": 3194,
      "गि": 3195,
      "ग्": 3196,
      "ग्रे": 3197,
      "घर": 3198,
      "घात": 3199,
      "चली": 3200,
      "जट": 3201,
      "ज्य": 3202,
      "जार": 3203,
      "जरा": 3204,
      "जों": 3205,
      "जमा": 3206,
      "जां": 3207,
      "ट्ट": 3208,
      "डिया": 3209,
      "णि": 3210,
      "णु": 3211,
      "णारे": 3212,
      "तट": 3213,
      "तान": 3214,
      "तनाव": 3215,
      "थार": 3216,
      "धन": 3217,
      "नर": 3218,
      "नद्या": 3219,
      "नुसार": 3220,
      "पर्": 3221,
      "पात": 3222,
      "पहि": 3223,
      "पद्ध": 3224,
      "पणे": 3225,
      "फु": 3226,
      "बरो": 3227,
      "बडी": 3228,
      "बजट": 3229,
      "भार": 3230,
      "भवन": 3231,
      "भ्यता": 3232,
      "म्या": 3233,
      "मना": 3234,
      "मले": 3235,
      "मंचा": 3236,
      "यर": 3237,
      "यश": 3238,
      "यदा": 3239,
      "यहाँ": 3240,
      "रख": 3241,
      "रह": 3242,
      "रही": 3243,
      "रंग": 3244,
      "रत्न": 3245,
      "लौ": 3246,
      "लड़ा": 3247,
      "लंबे": 3248,
      "ळू": 3249,
      "ळूह": 3250,
      "वत": 3251,
      "वू": 3252,
      "वणात": 3253,
      "शिक": 3254,
      "शील": 3255,
      "श्रे": 3256,
      "शहर": 3257,
      "षिक": 3258,
      "षित": 3259,
      "षणा": 3260,
      "स्र": 3261,
      "सत्": 3262,
      "सहा": 3263,
      "सन्": 3264,
      "सफल": 3265,
      "सभ्यता": 3266,
      "हॉ": 3267,
      "हारा": 3268,
      "हळूह": 3269,
      "ृद्ध": 3270,
      "ेत": 3271,
      "्न": 3272,
      "१,": 3273,
      "१२": 3274,
      "१४": 3275,
      "२८": 3276,
      "३८": 3277,
      "५,": 3278,
      "५७": 3279,
      "ంకా": 3280,
      "ంతర": 3281,
      "అణ": 3282,
      "అంట": 3283,
      "అంత": 3284,
      "అన్ని": 3285,
      "అప్ప": 3286,
      "అక్షరాస్యత": 3287,
      "ఆసియా": 3288,
      "ఇదే": 3289,
      "ఇటీ": 3290,
      "ఇక్క": 3291,
      "ఇండో": 3292,
      "ఈశ": 3293,
      "ఈస్": 3294,
      "ఎల": 3295,
      "ఐరో": 3296,
      "ఐక్య": 3297,
      "ఒలం": 3298,
      "కర": 3299,
      "కూ": 3300,
      "కర్": 3301,
      "కన్న": 3302,
      "కబడ": 3303,
      "కంటే": 3304,
      "ఖో": 3305,
      "ఖని": 3306,
      "గత": 3307,
      "గంగ": 3308,
      "గ్రా": 3309,
      "చద": 3310,
      "చన": 3311,
      "చయ": 3312,
      "చి": 3313,
      "చూ": 3314,
      "చవి": 3315,
      "చారి": 3316,
      "జె": 3317,
      "జో": 3318,
      "జ్": 3319,
      "జ్యం": 3320,
      "జమ్": 3321,
      "జిక,": 3322,
      "టే": 3323,
      "టై": 3324,
      "టాన్": 3325,
      "ట్‌": 3326,
      "ఠభూ": 3327,
      "డైన": 3328,
      "ఢా": 3329,
      "ణులు": 3330,
      "తే": 3331,
      "తర్": 3332,
      "తను": 3333,
      "తంలో": 3334,
      "తక్కువ": 3335,
      "థ్యం": 3336,
      "ద్య": 3337,
      "దర్": 3338,
      "దగా": 3339,
      "దులు": 3340,
      "ద్రా": 3341,
      "దరణ": 3342,
      "ధీన": 3343,
      "నూ": 3344,
      "నె": 3345,
      "నెల": 3346,
      "పీ": 3347,
      "పలు": 3348,
      "పిక": 3349,
      "పవి": 3350,
      "పార్": 3351,
      "పల్ల": 3352,
      "పడు": 3353,
      "పర్వ": 3354,
      "పర్య": 3355,
      "పడిన": 3356,
      "బు": 3357,
      "బౌ": 3358,
      "బంగ": 3359,
      "బంధ": 3360,
      "భవ": 3361,
      "భౌ": 3362,
      "భక్తి": 3363,
      "మల": 3364,
      "మరో": 3365,
      "మించబడ": 3366,
      "యం": 3367,
      "యింది.": 3368,
      "యమించబడ": 3369,
      "రం": 3370,
      "రీ": 3371,
      "రిక": 3372,
      "రల్": 3373,
      "రకాలు": 3374,
      "రచయ": 3375,
      "లీ": 3376,
      "లచే": 3377,
      "లౌక": 3378,
      "లస్య": 3379,
      "ళి": 3380,
      "ళిక": 3381,
      "వం": 3382,
      "వత్ర": 3383,
      "వైన": 3384,
      "వార్": 3385,
      "శి": 3386,
      "శీ": 3387,
      "శై": 3388,
      "శకు": 3389,
      "శెల": 3390,
      "సన": 3391,
      "సీ": 3392,
      "సె": 3393,
      "సై": 3394,
      "సాల": 3395,
      "స్రా": 3396,
      "సిక్": 3397,
      "హై": 3398,
      "హో": 3399,
      "ాక": 3400,
      "ిల్": 3401,
      "ీర": 3402,
      "ీక్ష": 3403,
      "ీషు": 3404,
      "ూనది": 3405,
      "ే,": 3406,
      "ౌర": 3407,
      "్వ": 3408,
      "‌సభ": 3409,
      "thir": 3410,
      "केवळ": 3411,
      "ann": 3412,
      "్రాన్": 3413,
      "्याद्र": 3414,
      "ins": 3415,
      "ात.": 3416,
      "ातन": 3417,
      "ात्र": 3418,
      "లుగా": 3419,
      "లుచు": 3420,
      "स्कार": 3421,
      "प्रे": 3422,
      "प्रसार": 3423,
      "प्रशासन": 3424,
      "प्रदान": 3425,
      "प्रभु": 3426,
      "లోని": 3427,
      "లోను": 3428,
      "లోమీ": 3429,
      "red": 3430,
      "స్వీ": 3431,
      "స్కరణ": 3432,
      "స్లిం": 3433,
      "న్‌": 3434,
      "దినాలు": 3435,
      "नेट": 3436,
      "नेमा": 3437,
      "नेशिया": 3438,
      "్యా": 3439,
      "ింది": 3440,
      "साग": 3441,
      "साद": 3442,
      "वित": 3443,
      "विभाग": 3444,
      "विरो": 3445,
      "से,": 3446,
      "ప్రదేశ": 3447,
      "ప్రాయ": 3448,
      "ప్రసి": 3449,
      "ప్రత్య": 3450,
      "ప్రయో": 3451,
      "arn": 3452,
      "नाही": 3453,
      "నిపు": 3454,
      "నిడి": 3455,
      "నియమించబడ": 3456,
      "ాల్": 3457,
      "वाढ": 3458,
      "वाला": 3459,
      "वाटा": 3460,
      "ర్తి": 3461,
      "ర్పు": 3462,
      "ర్జాతీయ": 3463,
      "ర్చు": 3464,
      "ర్థ్యం": 3465,
      "orig": 3466,
      "संख": 3467,
      "लेय": 3468,
      "लेकर": 3469,
      "लेल्या": 3470,
      "लेणी": 3471,
      "గాన్ని": 3472,
      "त्रि": 3473,
      "న్నీ": 3474,
      "కు,": 3475,
      "ice": 3476,
      "परिक": 3477,
      "परिण": 3478,
      "भाव": 3479,
      "देवा": 3480,
      "ాయాలు": 3481,
      "राज्यात": 3482,
      "राजस्थान": 3483,
      "राजवंश": 3484,
      "त्त्व": 3485,
      "విలు": 3486,
      "విశ్": 3487,
      "విమాన": 3488,
      "క్కను": 3489,
      "క్టో": 3490,
      "ष्क": 3491,
      "पाव": 3492,
      "पाया": 3493,
      "पाँच": 3494,
      "कोटी": 3495,
      "होना": 3496,
      "होत्या": 3497,
      "తిలో": 3498,
      "ినీ": 3499,
      "ांत": 3500,
      "ांस": 3501,
      "ांना": 3502,
      "ांची": 3503,
      "ांचे": 3504,
      "निष्ठ": 3505,
      "निवेश": 3506,
      "త్రక": 3507,
      "ించుకో": 3508,
      "ected": 3509,
      "हैं:": 3510,
      "ండవ": 3511,
      "ండ్": 3512,
      "ములో": 3513,
      "ముడి": 3514,
      "ముస్లిం": 3515,
      "किए": 3516,
      "किसी": 3517,
      "త్మా": 3518,
      "जाति": 3519,
      "जातात.": 3520,
      "वर्षा": 3521,
      "पूरा": 3522,
      "पूरे": 3523,
      "స్తులు": 3524,
      "స్తారు": 3525,
      "एकूण": 3526,
      "शाही": 3527,
      "शालेय": 3528,
      "समझ": 3529,
      "समृद्ध": 3530,
      "ానీ": 3531,
      "ులు,": 3532,
      "लिवू": 3533,
      "భాగ": 3534,
      "భావిస్త": 3535,
      "భాగాన్ని": 3536,
      "पुन": 3537,
      "पुरा": 3538,
      "पुराण": 3539,
      "ంటు": 3540,
      "स्तरा": 3541,
      "द्रो": 3542,
      "పుకో": 3543,
      "పుతూ": 3544,
      "పాడు": 3545,
      "పాంతర": 3546,
      "ades": 3547,
      "दिला": 3548,
      "बांग": 3549,
      "కిలోమీ": 3550,
      "సాహ": 3551,
      "సామా": 3552,
      "very": 3553,
      "सरी": 3554,
      "प्राप्": 3555,
      "इसका": 3556,
      "इसमें": 3557,
      "त्यात": 3558,
      "धिकार": 3559,
      "rol": 3560,
      "असल्या": 3561,
      "సంబంధ": 3562,
      "సంస్కరణ": 3563,
      "येतात.": 3564,
      "येथे": 3565,
      "उत्कृष्ट": 3566,
      "old": 3567,
      "जिन्हें": 3568,
      "प्पा": 3569,
      "కూడి": 3570,
      "కూడుకొ": 3571,
      "ార్థ": 3572,
      "मोदी": 3573,
      "istic": 3574,
      "जी:": 3575,
      "जीवन": 3576,
      "झाल्या": 3577,
      "झाले.": 3578,
      "री,": 3579,
      "కాశ్": 3580,
      "కాహార": 3581,
      "కాపాడు": 3582,
      "చ్చే": 3583,
      "सिनेमा": 3584,
      "నేపాల": 3585,
      "నేరే": 3586,
      "మొగలు": 3587,
      "రాజు": 3588,
      "lower": 3589,
      "తరాలు": 3590,
      "ago": 3591,
      "agric": 3592,
      "కోల్": 3593,
      "ాన్య": 3594,
      "భారతదేశం.": 3595,
      "क्री": 3596,
      "ంచిన": 3597,
      "జాబి": 3598,
      "వచ్చని": 3599,
      "सामरिक": 3600,
      "भाषाएं": 3601,
      "ందాయి.": 3602,
      "खाली": 3603,
      "भूभाग": 3604,
      "भागी": 3605,
      "धर्मीय": 3606,
      "కాలే": 3607,
      "నాథ": 3608,
      "వే.": 3609,
      "వేద": 3610,
      "వేల": 3611,
      "areas": 3612,
      "लगा": 3613,
      "नावाने": 3614,
      "उत्तर-": 3615,
      "उत्तरी": 3616,
      "उत्तरे": 3617,
      "ందింది.": 3618,
      "దేశాలను": 3619,
      "త్వంలో": 3620,
      "हिन्दु": 3621,
      "मंत्रिम": 3622,
      "हरलाल": 3623,
      "శాసన": 3624,
      "2014": 3625,
      "स्थापन": 3626,
      "ack": 3627,
      "तुल": 3628,
      "वैविध": 3629,
      "హిందీ": 3630,
      "काळा": 3631,
      "काळातील": 3632,
      "1960": 3633,
      "2003": 3634,
      "ंपारिक": 3635,
      "महत्त्वा": 3636,
      "ఎన్నుకో": 3637,
      "ఎన్నుకుంట": 3638,
      "కేతిక": 3639,
      "చెప్": 3640,
      "చెందు": 3641,
      "చెందాయి.": 3642,
      "తుంది.": 3643,
      "తులతో": 3644,
      "త్యం": 3645,
      "మే.": 3646,
      "రాజ్యంగా": 3647,
      "early": 3648,
      "गणला": 3649,
      "common": 3650,
      "దాయంలో": 3651,
      "బడిన": 3652,
      "రెండో": 3653,
      "రెండవ": 3654,
      "సభను": 3655,
      "मिळतात.": 3656,
      "భాషా": 3657,
      "భాషలను": 3658,
      "పేరు,": 3659,
      "contri": 3660,
      "control": 3661,
      "central": 3662,
      "ritor": 3663,
      "चित्रपटसृष्ट": 3664,
      "coal": 3665,
      "coast": 3666,
      "शिक्षा": 3667,
      "शिक्षणा": 3668,
      "समावेश": 3669,
      "మతము": 3670,
      "మిస్తు": 3671,
      "రోడ్": 3672,
      "లాహో": 3673,
      "వారి": 3674,
      "వర్గ": 3675,
      "వర్ణ": 3676,
      "వర్ష": 3677,
      "వర్తి": 3678,
      "దేశం.": 3679,
      "1999": 3680,
      "ప్రాంతీయ": 3681,
      "ప్రాంతాల్లో": 3682,
      "పార్టీ,": 3683,
      "पदव्यु": 3684,
      "plain": 3685,
      "सोवियत": 3686,
      "వలన": 3687,
      "స్త్రీలు": 3688,
      "करणे": 3689,
      "ించినట్లు": 3690,
      "స్థానంలో": 3691,
      "స్థానాలను": 3692,
      "సాంకేతిక": 3693,
      "క్రీ.పూ.": 3694,
      "26న": 3695,
      "बढ़ती": 3696,
      "शेती": 3697,
      "जेवणात": 3698,
      "पारंपारिक": 3699,
      "सह्याद्र": 3700,
      "అతిపెద్ద": 3701,
      "జరిగే": 3702,
      "పూర్తి": 3703,
      "పోయింది.": 3704,
      "మంత్ర": 3705,
      "మీర్": 3706,
      "మీదగా": 3707,
      "ప్రభుత్వాన్ని": 3708,
      "ముఖ్యంగా": 3709,
      "म्हणतात.": 3710,
      "అయినప్పటిక": 3711,
      "అయినా,": 3712,
      "జనాభాతో": 3713,
      "party": 3714,
      "अरबी": 3715,
      "रहा।": 3716,
      "ఉంటుంది.": 3717,
      "గినది.": 3718,
      "లేదు": 3719,
      "ప్రస్తుతము": 3720,
      "సాధించిన": 3721,
      "युद्धात": 3722,
      "కాంగ్రెస్": 3723,
      "కాలంలో,": 3724,
      "అధికారం": 3725,
      "संसदीय": 3726,
      "पर्यटन": 3727,
      "सिंधु": 3728,
      "century,": 3729,
      "उनके": 3730,
      "उनकी": 3731,
      "डालर": 3732,
      "కల్లో": 3733,
      "గోదా": 3734,
      "జనతా": 3735,
      "జనవరి": 3736,
      "పరంగా": 3737,
      "పరీక్ష": 3738,
      "బ్ది": 3739,
      "భూభాగం": 3740,
      "భూటాన్": 3741,
      "మనదేశం": 3742,
      "యోగి": 3743,
      "రంగంలో": 3744,
      "వుదినాలు": 3745,
      "ప్రతిపక్ష": 3746,
      "संबंधों": 3747,
      "पुरातन": 3748,
      "पुरस्कार": 3749,
      "१९९१": 3750,
      "క్రీడా": 3751,
      "క్రీడలు": 3752,
      "క్రీడలలో": 3753,
      "टक्के,": 3754,
      "feat": 3755,
      "अवशेष": 3756,
      "दर्श": 3757,
      "फ्रांस": 3758,
      "सूची": 3759,
      "1980": 3760,
      "इंग्": 3761,
      "२००४": 3762,
      "ఉపయోగి": 3763,
      "కనుక": 3764,
      "కనుమలు": 3765,
      "స్వతం": 3766,
      "త్వానికి": 3767,
      "సామర్థ్యం": 3768,
      "మాత్రమే": 3769,
      "include": 3770,
      "ప్పటికీ": 3771,
      "ఏర్పడ": 3772,
      "బ్రిటీ": 3773,
      "సరిహద్దుగా": 3774,
      "ప్రముఖమైన": 3775,
      "scri": 3776,
      "Hinduism": 3777,
      "0%),": 3778,
      "प्रमाणात": 3779,
      "लागले.": 3780,
      "क्षणिक": 3781,
      "कार्यकाल": 3782,
      "कार्यपालिका": 3783,
      "शास्त्रीय": 3784,
      "इस्लाम": 3785,
      "अमेरिक": 3786,
      "ण्याची": 3787,
      "చైనాను": 3788,
      "తూర్పు": 3789,
      "తెలుగు": 3790,
      "నాలుగు": 3791,
      "రూపాంతర": 3792,
      "సమరం": 3793,
      "సారస్వతం": 3794,
      "సమాజ": 3795,
      "प्रांतात": 3796,
      "ప్రజలు": 3797,
      "ప్రజాదరణ": 3798,
      "భారత్,": 3799,
      "కులాలు,": 3800,
      "भाषी": 3801,
      "నులు,": 3802,
      "असलेली": 3803,
      "కోర్టు": 3804,
      "పేర్లు": 3805,
      "రైల్వేశాఖ": 3806,
      "ఒకటిగా": 3807,
      "స్వాతంత్ర్యం": 3808,
      "ప్రపంచంలోని": 3809,
      "పట్టణాలు,": 3810,
      "ण्डल": 3811,
      "సింధూనది": 3812,
      "సౌకర్యాలలో": 3813,
      "నిర్వహించింది.": 3814,
      "आक्रमण": 3815,
      "वृद्ध": 3816,
      "जिनमें": 3817,
      "सदस्य": 3818,
      "सदस्यों": 3819,
      "परंपरागत": 3820,
      "growth": 3821,
      "domin": 3822,
      "जलवायु": 3823,
      "వరాలు": 3824,
      "ిస్తారు.": 3825,
      "లోక్‌సభ": 3826,
      "నిర్మ": 3827,
      "కుంటూ": 3828,
      "కుంటారు.": 3829,
      "స్థావరాలు": 3830,
      "१९८४": 3831,
      "मोहन": 3832,
      "పాలనలో": 3833,
      "మేనని": 3834,
      "రాజ్యాలుగా": 3835,
      "సభ్యు": 3836,
      "సభ్యులు": 3837,
      "మహాత్మా": 3838,
      "ఆధారపడిన": 3839,
      "సామ్రాజ్య": 3840,
      "సామ్రాజ్యం": 3841,
      "బ్రిటిష్": 3842,
      "బ్రిటిషు": 3843,
      "ओळखले": 3844,
      "పశ్చిమాన": 3845,
      "trans": 3846,
      "following": 3847,
      "ऊँची": 3848,
      "नौसेना": 3849,
      "ात्मक": 3850,
      "सुरुवाती": 3851,
      "Company": 3852,
      "time": 3853,
      "ensus": 3854,
      "court": 3855,
      "अस्तित्त्व": 3856,
      "आगमन": 3857,
      "जवाहरलाल": 3858,
      "ठिकाणी": 3859,
      "बॉलिवू": 3860,
      "मंदिरे": 3861,
      "ఆహారం": 3862,
      "ఇంగ్లీషు": 3863,
      "ఎన్నికల్లో": 3864,
      "కళలు": 3865,
      "కిందకు": 3866,
      "గణతంత్ర": 3867,
      "గెలుచు": 3868,
      "టర్లకు": 3869,
      "తమిళం": 3870,
      "భరత": 3871,
      "మౌర్య": 3872,
      "లక్షణ": 3873,
      "సహస్రా": 3874,
      "సార్వత్ర": 3875,
      "సూచించినట్లు": 3876,
      "హ్మ": 3877,
      "్డీ": 3878,
      "प्रचलित": 3879,
      "नेहरू": 3880,
      "ప్రారంభించ": 3881,
      "नावाचा": 3882,
      "ర్షణ": 3883,
      "ాయుత": 3884,
      "ముంబై": 3885,
      "పురుషు": 3886,
      "స్థితి": 3887,
      "సంవత్సర": 3888,
      "कृषि": 3889,
      "కూడుకుని": 3890,
      "కోవడం": 3891,
      "కోట్లకు": 3892,
      "వ్యాపార": 3893,
      "పాలించారు.": 3894,
      "वैशिष्ट्य": 3895,
      "రాజ్యాంగం": 3896,
      "బడతారు.": 3897,
      "इंडोनेशिया": 3898,
      "ఉత్తరాన": 3899,
      "ప్రతిపాదనకు": 3900,
      "ఏర్పడ్డాయి.": 3901,
      "సముద్రం": 3902,
      "influenc": 3903,
      "अमरीकी": 3904,
      "కార్యక్రమాలు": 3905,
      "आढळतात.": 3906,
      "चळवळी": 3907,
      "ఆఫ్ఘనిస్తాన్": 3908,
      "జరుపుకుంటారు.": 3909,
      "బంగ్లాదేశ్‌": 3910,
      "आकर्षित": 3911,
      "सक्रिय": 3912,
      "ामस्वरूप": 3913,
      "परीक्षण": 3914,
      "बाहरी": 3915,
      "वेषभू": 3916,
      "emerged": 3917,
      "स्थिति": 3918,
      "व्यावसायिक": 3919,
      "ultanate": 3920,
      "शुरुआत": 3921,
      "गुजरात": 3922,
      "religious": 3923,
      "political": 3924,
      "(इंग्रजी:": 3925,
      "Delhi": 3926,
      "Gandhi": 3927,
      "World": 3928,
      "women": 3929,
      "इंदिरा": 3930,
      "थारचे": 3931,
      "पद्धती": 3932,
      "बरोबर": 3933,
      "सहायक": 3934,
      "हॉकी": 3935,
      "हळूहळू": 3936,
      "అంతర్జాతీయ": 3937,
      "ఈశాన్య": 3938,
      "ఈస్ట్": 3939,
      "ఎలక్టో": 3940,
      "ఐరోపా": 3941,
      "కన్నడ": 3942,
      "కబడ్డీ": 3943,
      "ఖనిజాలు": 3944,
      "చారిత్రక": 3945,
      "జమ్మూ": 3946,
      "టైటి": 3947,
      "ఢాకా": 3948,
      "తర్వా": 3949,
      "నెలకొ": 3950,
      "పీఠభూ": 3951,
      "పిక్‌": 3952,
      "పవిత్ర": 3953,
      "పర్యాయాలు": 3954,
      "బౌద్ధ": 3955,
      "బంగారు": 3956,
      "రచయిత": 3957,
      "శెలవుదినాలు": 3958,
      "third": 3959,
      "ప్రసిద్ధి": 3960,
      "ప్రయోజన": 3961,
      "నిపుణులు": 3962,
      "నిడివి": 3963,
      "origin": 3964,
      "परिणामस्वरूप": 3965,
      "కిలోమీటర్లకు": 3966,
      "సామాజిక,": 3967,
      "కూడుకొని": 3968,
      "కాపాడుకుంటూ": 3969,
      "నేపాల్": 3970,
      "నేరేడు": 3971,
      "agricult": 3972,
      "జాబితా": 3973,
      "मंत्रिमण्डल": 3974,
      "ఎన్నుకోబడతారు.": 3975,
      "చెప్పుకో": 3976,
      "చెందుతున్న": 3977,
      "రోడ్డు": 3978,
      "లాహోర్": 3979,
      "पदव्युत्तर": 3980,
      "सह्याद्री": 3981,
      "పూర్తిగా": 3982,
      "बॉलिवूड": 3983,
      "గెలుచుకోవడం": 3984,
      "సహస్రాబ్ది": 3985,
      "సార్వత్రిక": 3986,
      "ఎలక్టోరల్": 3987,
      "1%": 3988,
      "5,": 3989,
      "62": 3990,
      "Am": 3991,
      "BJ": 3992,
      "Ganges": 3993,
      "Its": 3994,
      "Jan": 3995,
      "Se": 3996,
      "ath": 3997,
      "bre": 3998,
      "car": 3999,
      "cur": 4000,
      "cial": 4001,
      "cap": 4002,
      "cru": 4003,
      "census": 4004,
      "dam": 4005,
      "day": 4006,
      "eth": 4007,
      "ft": 4008,
      "far": 4009,
      "fast": 4010,
      "fac": 4011,
      "fig": 4012,
      "found": 4013,
      "ge": 4014,
      "gar": 4015,
      "glish": 4016,
      "hru": 4017,
      "ia": 4018,
      "ide": 4019,
      "ke": 4020,
      "men": 4021,
      "mit": 4022,
      "nolog": 4023,
      "pain": 4024,
      "rul": 4025,
      "sou": 4026,
      "secon": 4027,
      "ti": 4028,
      "tur": 4029,
      "val": 4030,
      "ven": 4031,
      "vast": 4032,
      "wan": 4033,
      "animal": 4034,
      "indu": 4035,
      "they": 4036,
      "ers,": 4037,
      "remain": 4038,
      "ste": 4039,
      "stat": 4040,
      "stru": 4041,
      "dif": 4042,
      "ati": 4043,
      "arch": 4044,
      "ions": 4045,
      "ing,": 4046,
      "ecially": 4047,
      "ild": 4048,
      "roc": 4049,
      "ulpt": 4050,
      "emp": 4051,
      "emoc": 4052,
      "use": 4053,
      "local": 4054,
      "depend": 4055,
      "movement": 4056,
      "territor": 4057,
      "und": 4058,
      "2012": 4059,
      "2013": 4060,
      "ments": 4061,
      "spe": 4062,
      "medi": 4063,
      "sho": 4064,
      "place": 4065,
      "1974": 4066,
      "formed": 4067,
      "ives": 4068,
      "Hindi": 4069,
      "marri": 4070,
      "market": 4071,
      "There": 4072,
      "languages": 4073,
      "sculpt": 4074,
      "lands": 4075,
      "ancient": 4076,
      "1965,": 4077,
      "17.": 4078,
      "Constitution": 4079,
      "United": 4080,
      "species": 4081,
      "literac": 4082,
      "based": 4083,
      "occup": 4084,
      "parliamentary": 4085,
      "Nehru": 4086,
      "birth": 4087,
      "grew": 4088,
      "European": 4089,
      "direct": 4090,
      "especially": 4091,
      "Central": 4092,
      "English": 4093,
      "BJP": 4094,
      "painting": 4095,
      "second": 4096,
      "indust": 4097,
      "(०,": 4098,
      "-धीरे": 4099,
      ".८": 4100,
      ".6%": 4101,
      ".9%": 4102,
      "1000": 4103,
      "28": 4104,
      "400": 4105,
      "40%": 4106,
      "5.": 4107,
      "6,": 4108,
      "83": 4109,
      "93,": 4110,
      "Ara": 4111,
      "DP": 4112,
      "Des": 4113,
      "During": 4114,
      "GDP": 4115,
      "National": 4116,
      "Per": 4117,
      "Pro": 4118,
      "Tamil": 4119,
      "War": 4120,
      "au": 4121,
      "bod": 4122,
      "c.": 4123,
      "cess": 4124,
      "danc": 4125,
      "ep": 4126,
      "five": 4127,
      "hat": 4128,
      "here": 4129,
      "i)": 4130,
      "ip": 4131,
      "ians": 4132,
      "les": 4133,
      "ling": 4134,
      "lam": 4135,
      "lay": 4136,
      "line": 4137,
      "mat": 4138,
      "ns": 4139,
      "nat": 4140,
      "pen": 4141,
      "prom": 4142,
      "rates": 4143,
      "sist": 4144,
      "sultanate": 4145,
      "tor": 4146,
      "til": 4147,
      "vol": 4148,
      "won": 4149,
      "well": 4150,
      "yan": 4151,
      "ंश": 4152,
      "ंस": 4153,
      "ंना": 4154,
      "ंच्या": 4155,
      "ंमध्ये": 4156,
      "ंजन": 4157,
      "ंदोलन": 4158,
      "ंपरिक": 4159,
      "अरा": 4160,
      "अंद": 4161,
      "अच्छ": 4162,
      "अक्ट": 4163,
      "अणु": 4164,
      "आई": 4165,
      "आक": 4166,
      "आठ": 4167,
      "आव": 4168,
      "आकार": 4169,
      "आते": 4170,
      "आली.": 4171,
      "आगे": 4172,
      "आंबे": 4173,
      "आहारा": 4174,
      "आंदोलन": 4175,
      "ईश": 4176,
      "उम": 4177,
      "उर्व": 4178,
      "ऊन": 4179,
      "ऊर्": 4180,
      "ऊपर": 4181,
      "एव": 4182,
      "एशन": 4183,
      "ऑपरे": 4184,
      "ओघात": 4185,
      "कथ": 4186,
      "खर": 4187,
      "गड": 4188,
      "गध": 4189,
      "गम": 4190,
      "गल": 4191,
      "गै": 4192,
      "गों": 4193,
      "चौ": 4194,
      "चित": 4195,
      "छह": 4196,
      "छा": 4197,
      "जू": 4198,
      "जन्": 4199,
      "जारी": 4200,
      "जंब": 4201,
      "झे": 4202,
      "टो": 4203,
      "ठक": 4204,
      "डकर": 4205,
      "ढा": 4206,
      "ण,": 4207,
      "णू": 4208,
      "तब": 4209,
      "तच्या": 4210,
      "थल": 4211,
      "थान": 4212,
      "दह": 4213,
      "धा": 4214,
      "धु": 4215,
      "नन": 4216,
      "नया": 4217,
      "नमु": 4218,
      "नदि": 4219,
      "नर्म": 4220,
      "नमू": 4221,
      "नमार": 4222,
      "पण": 4223,
      "पसं": 4224,
      "पत्र": 4225,
      "पमान": 4226,
      "पक्षा": 4227,
      "पड़ा": 4228,
      "पतन": 4229,
      "बल": 4230,
      "बळ": 4231,
      "बह": 4232,
      "बंद": 4233,
      "बियों": 4234,
      "बद्दल": 4235,
      "भो": 4236,
      "भौ": 4237,
      "भरा": 4238,
      "मही": 4239,
      "मील": 4240,
      "मंड": 4241,
      "मृत्य": 4242,
      "मगध": 4243,
      "यो": 4244,
      "यमु": 4245,
      "यद्य": 4246,
      "यपालिका": 4247,
      "रण": 4248,
      "रत": 4249,
      "रिया": 4250,
      "रणा": 4251,
      "रखा": 4252,
      "ल)": 4253,
      "लै": 4254,
      "ळून": 4255,
      "व्र": 4256,
      "वार्": 4257,
      "वतात.": 4258,
      "वटी": 4259,
      "वृत": 4260,
      "वारे": 4261,
      "शृ": 4262,
      "शतक": 4263,
      "शब्": 4264,
      "शक्त": 4265,
      "सव": 4266,
      "सै": 4267,
      "सॉ": 4268,
      "सौ": 4269,
      "सों": 4270,
      "सिया": 4271,
      "सदे": 4272,
      "सदी": 4273,
      "सभी": 4274,
      "सशस्त्र": 4275,
      "हरा": 4276,
      "हस्त": 4277,
      "हत्या": 4278,
      "हार्": 4279,
      "हारी": 4280,
      "हजह": 4281,
      "ाफ": 4282,
      "ाला": 4283,
      "ाचा": 4284,
      "िष्ठ": 4285,
      "ीण": 4286,
      "ीचे": 4287,
      "ुप": 4288,
      "ुव": 4289,
      "ूत": 4290,
      "ूबर": 4291,
      "ृह": 4292,
      "ोर": 4293,
      "ोत्तर": 4294,
      "्नि": 4295,
      "२३": 4296,
      "२९": 4297,
      "३७": 4298,
      "४३": 4299,
      "४५": 4300,
      "५२": 4301,
      "५००": 4302,
      "‍नी": 4303,
      "केला": 4304,
      "ank": 4305,
      "ants": 4306,
      "्याचे": 4307,
      "indi": 4308,
      "र्ज": 4309,
      "ातार": 4310,
      "ेंद्र": 4311,
      "काज": 4312,
      "काने": 4313,
      "स्वा": 4314,
      "ert": 4315,
      "प्रमा": 4316,
      "प्रश्": 4317,
      "प्रवेश": 4318,
      "याब": 4319,
      "यामुळे": 4320,
      "ानी": 4321,
      "ान्": 4322,
      "ानंतर": 4323,
      "republic": 4324,
      "राम": 4325,
      "राला": 4326,
      "states": 4327,
      "साहे": 4328,
      "साक्षर": 4329,
      "सामान्य": 4330,
      "साधारण": 4331,
      "विले": 4332,
      "विमान": 4333,
      "विशा": 4334,
      "विरु": 4335,
      "विशेष": 4336,
      "विज्ञान": 4337,
      "विद्रो": 4338,
      "dis": 4339,
      "div": 4340,
      "ोंने": 4341,
      "लाभ": 4342,
      "लाव": 4343,
      "लादेश": 4344,
      "नाइ": 4345,
      "नाऱ्या": 4346,
      "educ": 4347,
      "कीय": 4348,
      "वाज": 4349,
      "वाम": 4350,
      "often": 4351,
      "संर": 4352,
      "संलग": 4353,
      "संपूर्ण": 4354,
      "संबो": 4355,
      "लेली": 4356,
      "क्षणा": 4357,
      "लीवि": 4358,
      "करत": 4359,
      "करे": 4360,
      "करो": 4361,
      "करती": 4362,
      "ताज": 4363,
      "तांत्रिक": 4364,
      "तापमान": 4365,
      "तीस": 4366,
      "तीसरी": 4367,
      "राजभाषा": 4368,
      "त्‍": 4369,
      "त्वे": 4370,
      "मुद्": 4371,
      "मुंब": 4372,
      "तिम": 4373,
      "तिसऱ्या": 4374,
      "न्स": 4375,
      "कारभार": 4376,
      "पाच": 4377,
      "पाठ": 4378,
      "touch": 4379,
      "होने": 4380,
      "होतो.": 4381,
      "भारतीयों": 4382,
      "oup": 4383,
      "ould": 4384,
      "ांवर": 4385,
      "निम्": 4386,
      "निर्म": 4387,
      "नियों": 4388,
      "निवास": 4389,
      "देशात": 4390,
      "ecut": 4391,
      "किनाऱ्या": 4392,
      "हिनी": 4393,
      "चाई": 4394,
      "जातीय": 4395,
      "2023": 4396,
      "मानी": 4397,
      "मान्यता": 4398,
      "वर्तन": 4399,
      "urther": 4400,
      "दीव": 4401,
      "पूर": 4402,
      "शाका": 4403,
      "शाली": 4404,
      "शामिल": 4405,
      "शाहजह": 4406,
      "समी": 4407,
      "लिस": 4408,
      "head": 4409,
      "पुढ": 4410,
      "पुत": 4411,
      "पुरी": 4412,
      "पुड़ा": 4413,
      "पुलिस": 4414,
      "वरिष्ठ": 4415,
      "राज्यसभे": 4416,
      "amp": 4417,
      "नीति": 4418,
      "vere": 4419,
      "सरस्व": 4420,
      "त्याला": 4421,
      "त्यांची": 4422,
      "असली": 4423,
      "असतात.": 4424,
      "ember": 4425,
      "ार्थी": 4426,
      "येते.": 4427,
      "उत्तरा": 4428,
      "ल्स": 4429,
      "ल्ले": 4430,
      "षाण": 4431,
      "raph": 4432,
      "मीण": 4433,
      "ियो": 4434,
      "ल्या.": 4435,
      "etic": 4436,
      "मोर्": 4437,
      "मोसमी": 4438,
      "Indians": 4439,
      "म्म": 4440,
      "भारताचा": 4441,
      "झाली": 4442,
      "रीबी": 4443,
      "र्मण": 4444,
      "loy": 4445,
      "्यांच्या": 4446,
      "्यांचे": 4447,
      "्यांमध्ये": 4448,
      "बहुमूल": 4449,
      "defin": 4450,
      "mother": 4451,
      "term": 4452,
      "union": 4453,
      "क्रय": 4454,
      "क्रि": 4455,
      "क्रमा": 4456,
      "क्रां": 4457,
      "सरकारों": 4458,
      "sequ": 4459,
      "साथ,": 4460,
      "भाषाएँ": 4461,
      "sum": 4462,
      "expor": 4463,
      "execut": 4464,
      "सारी": 4465,
      "सारख्या": 4466,
      "धर्मों": 4467,
      "धर्मनिरपेक्ष": 4468,
      "रेशिय": 4469,
      "लगातार": 4470,
      "sive": 4471,
      "अधिकारी": 4472,
      "अधिकृत": 4473,
      "गया,": 4474,
      "निर्भर": 4475,
      "हिन्द": 4476,
      "लोकसभे": 4477,
      "लोकतांत्रिक": 4478,
      "स्थानीय": 4479,
      "अपेक्षा": 4480,
      "गरजे": 4481,
      "थी,": 4482,
      "मंत्रण": 4483,
      "जिसने": 4484,
      "जिसकी": 4485,
      "स्थापित": 4486,
      "उपसाग": 4487,
      "बनने": 4488,
      "बनविले": 4489,
      "रोजी": 4490,
      "प्रकारचे": 4491,
      "प्रदेशों": 4492,
      "प्रदेशातील": 4493,
      "प्राचीनतम": 4494,
      "महात्": 4495,
      "earli": 4496,
      "कडा": 4497,
      "कडून": 4498,
      "गणतंत्र": 4499,
      "commer": 4500,
      "compos": 4501,
      "गेले.": 4502,
      "व्याप": 4503,
      "मिळते.": 4504,
      "व्यवस्थ": 4505,
      "व्यवसाय": 4506,
      "contain": 4507,
      "ured": 4508,
      "गुट": 4509,
      "गुरू": 4510,
      "केंद्रीय": 4511,
      "यांना": 4512,
      "यांचे": 4513,
      "यांचा": 4514,
      "1951": 4515,
      "हिमालया": 4516,
      "पश्चिमे": 4517,
      "1,93,": 4518,
      "चुकी": 4519,
      "हुआ,": 4520,
      "शिवा": 4521,
      "सेनाओं": 4522,
      "मुख्यत्वे": 4523,
      "द्वीपक": 4524,
      "द्वीपसमूह": 4525,
      "endem": 4526,
      "prov": 4527,
      "साम्राज्यों": 4528,
      "ज़्या": 4529,
      "टेलीवि": 4530,
      "बढ़ा": 4531,
      "बढ़ने": 4532,
      "मैल)": 4533,
      "मध्यम": 4534,
      "न्यायपालिका": 4535,
      "पारंपरिक": 4536,
      "मनमोहन": 4537,
      "स्ट्रे": 4538,
      "स्टाफ": 4539,
      "तिशील": 4540,
      "अर्थव्यवस्थ": 4541,
      "पहली": 4542,
      "हिमालयी": 4543,
      "पीठ": 4544,
      "become": 4545,
      "alled": 4546,
      "पैमान": 4547,
      "शुष्क": 4548,
      "सैनिक": 4549,
      "झालेले": 4550,
      "पूर्वीच्या": 4551,
      "centuries": 4552,
      "उनका": 4553,
      "शहरा": 4554,
      "१९९०": 4555,
      "१९९८": 4556,
      "शिक्षणपद्धती": 4557,
      "अवधि": 4558,
      "आपले": 4559,
      "इतिहासा": 4560,
      "गोलिक": 4561,
      "घेत": 4562,
      "घेण्यास": 4563,
      "दर्शन": 4564,
      "सूचना": 4565,
      "These": 4566,
      "अभि": 4567,
      "पठारा": 4568,
      "यनगर": 4569,
      "२००९": 4570,
      "कामकाज": 4571,
      "regional": 4572,
      "popular": 4573,
      "पंथी": 4574,
      "लुप्त": 4575,
      "शैक्षणिक": 4576,
      "सकल": 4577,
      "सकता": 4578,
      "सकते": 4579,
      "सेवाओं": 4580,
      "लागू": 4581,
      "देखील": 4582,
      "न्होंने": 4583,
      "१९७१": 4584,
      "longer": 4585,
      "monsoon": 4586,
      "serv": 4587,
      "शोध": 4588,
      "२०१४": 4589,
      "प्रभावित": 4590,
      "प्रांत": 4591,
      "विषय": 4592,
      "विद्यार्थी": 4593,
      "भाषे": 4594,
      "मोठे": 4595,
      "धीरे-धीरे": 4596,
      "इतिहासकार": 4597,
      "विकासशील": 4598,
      "traditional": 4599,
      "महाराष्ट्रातील": 4600,
      "grand": 4601,
      "nific": 4602,
      "viol": 4603,
      "आर्य": 4604,
      "आरक्षणा": 4605,
      "आक्रमणे": 4606,
      "मार्ग": 4607,
      "किल्ल्या": 4608,
      "वर्णन": 4609,
      "अन्तर्": 4610,
      "अन्ततः": 4611,
      "अगस्त": 4612,
      "अग्नि": 4613,
      "घाट": 4614,
      "घाटी": 4615,
      "ज्याचा": 4616,
      "पहाड़": 4617,
      "पहाड़ी": 4618,
      "बने।": 4619,
      "मसाले": 4620,
      "मसाल्या": 4621,
      "सतपुड़ा": 4622,
      "२.६": 4623,
      "निभाई।": 4624,
      "किनारे": 4625,
      "दक्षिणेकडील": 4626,
      "इंग्रजां": 4627,
      "निवडणू": 4628,
      "eastern": 4629,
      "diverse": 4630,
      "whose": 4631,
      "Buddhist": 4632,
      "Buddhism": 4633,
      "All": 4634,
      "आलेल्या": 4635,
      "आहारात": 4636,
      "उभरा": 4637,
      "ऊँचाई": 4638,
      "फायदा": 4639,
      "बदलां": 4640,
      "्टवे": 4641,
      "पृष्ठीय": 4642,
      "धर्माचा": 4643,
      "सुरुवात": 4644,
      "Andam": 4645,
      "rise": 4646,
      "ग्रामीण": 4647,
      "चोल": 4648,
      "जंगले": 4649,
      "जानेवारी": 4650,
      "पत्‍नी": 4651,
      "बैठक": 4652,
      "मराठा": 4653,
      "शतका": 4654,
      "वास्तविक": 4655,
      "राज्यातील": 4656,
      "नियंत्र": 4657,
      "प्रभावशाली": 4658,
      "पुरुषों": 4659,
      "develop": 4660,
      "Indo-A": 4661,
      "Western": 4662,
      "आमदार": 4663,
      "आसपास": 4664,
      "कमांड": 4665,
      "कटिबंध": 4666,
      "कंपनी": 4667,
      "छोड़कर": 4668,
      "पहुँच": 4669,
      "फैली": 4670,
      "भारतीयांनी": 4671,
      "स्मारका": 4672,
      "विजयनगर": 4673,
      "official": 4674,
      "मालदीव": 4675,
      "हिस्सा": 4676,
      "लिखित": 4677,
      "वन्यजी": 4678,
      "पार्टियों": 4679,
      "technolog": 4680,
      "गंगेच्या": 4681,
      "दख्खनच्या": 4682,
      "पुर्तगाली": 4683,
      "Islam": 4684,
      "fied": 4685,
      "mathematic": 4686,
      "Himalayas": 4687,
      "kilometers": 4688,
      "According": 4689,
      "created": 4690,
      "federal": 4691,
      "अशियाई": 4692,
      "आंतरिक": 4693,
      "नरेंद्र": 4694,
      "फुट": 4695,
      "म्यानमार": 4696,
      "यशस्वी": 4697,
      "रंगमंचा": 4698,
      "सत्ता": 4699,
      "विरोध": 4700,
      "समझौ": 4701,
      "भागीदारी": 4702,
      "हिन्दुस्तान": 4703,
      "तुलना": 4704,
      "काळाच्या": 4705,
      "वृद्धि": 4706,
      "सुरुवातीला": 4707,
      "अस्तित्त्वात": 4708,
      "वेषभूषा": 4709,
      "Among": 4710,
      "southern": 4711,
      "Persi": 4712,
      "body": 4713,
      "penins": 4714,
      "अरावली": 4715,
      "अक्टूबर": 4716,
      "आकर्मण": 4717,
      "आंबेडकर": 4718,
      "ईशान": 4719,
      "उर्वर": 4720,
      "ऑपरेशन": 4721,
      "गैर-": 4722,
      "गोंड": 4723,
      "जंबू": 4724,
      "दहशत": 4725,
      "नमुने": 4726,
      "नदियों": 4727,
      "नर्मदा": 4728,
      "पक्षास": 4729,
      "भौगोलिक": 4730,
      "मृत्यु": 4731,
      "यमुना": 4732,
      "यद्यपि": 4733,
      "वार्षिक": 4734,
      "वृतीय": 4735,
      "शतकात": 4736,
      "शब्द": 4737,
      "सैनि": 4738,
      "सौहार्": 4739,
      "प्रमाणा": 4740,
      "साहेब": 4741,
      "साक्षरता": 4742,
      "साधारणपणे": 4743,
      "विशाल": 4744,
      "विरुद्ध": 4745,
      "विद्रोह": 4746,
      "संलग्न": 4747,
      "संबोध": 4748,
      "मुंबई": 4749,
      "निम्न": 4750,
      "शाहजहान": 4751,
      "सरस्वती": 4752,
      "बहुमूल्य": 4753,
      "sequent": 4754,
      "गरजेचे": 4755,
      "उपसागराला": 4756,
      "महात्मा": 4757,
      "nificant": 4758,
      "अग्निध": 4759,
      "Andaman": 4760,
      "सौहार्द": 4761,
      "..": 4762,
      "100": 4763,
      "422": 4764,
      "64": 4765,
      "72": 4766,
      "7000": 4767,
      "9,000": 4768,
      "Bh": 4769,
      "Bra": 4770,
      "Bhar": 4771,
      "For": 4772,
      "Kas": 4773,
      "Nor": 4774,
      "Raj": 4775,
      "Sh": 4776,
      "Sou": 4777,
      "a,": 4778,
      "aver": 4779,
      "bor": 4780,
      "ble": 4781,
      "bro": 4782,
      "bian": 4783,
      "back": 4784,
      "cri": 4785,
      "clo": 4786,
      "civil": 4787,
      "dh": 4788,
      "des": 4789,
      "edic": 4790,
      "every": 4791,
      "four": 4792,
      "famil": 4793,
      "further": 4794,
      "gu": 4795,
      "glo": 4796,
      "hen": 4797,
      "hou": 4798,
      "i-": 4799,
      "iz": 4800,
      "kno": 4801,
      "lin": 4802,
      "mak": 4803,
      "mary": 4804,
      "member": 4805,
      "nal": 4806,
      "ning": 4807,
      "ool": 4808,
      "oper": 4809,
      "pr": 4810,
      "ption": 4811,
      "pical": 4812,
      "pay": 4813,
      "ration": 4814,
      "rich": 4815,
      "sit": 4816,
      "sec": 4817,
      "tt": 4818,
      "tle": 4819,
      "tem": 4820,
      "tain": 4821,
      "uj": 4822,
      "ual": 4823,
      "vo": 4824,
      "vill": 4825,
      "vari": 4826,
      "wa": 4827,
      "way": 4828,
      "three": 4829,
      "independ": 4830,
      "reg": 4831,
      "read": 4832,
      "recor": 4833,
      "ale": 4834,
      "ali": 4835,
      "alle": 4836,
      "along": 4837,
      "str": 4838,
      "enac": 4839,
      "dist": 4840,
      "around": 4841,
      "ed,": 4842,
      "off": 4843,
      "organ": 4844,
      "ise": 4845,
      "2020": 4846,
      "left": 4847,
      "held": 4848,
      "ility": 4849,
      "amm": 4850,
      "amas": 4851,
      "administ": 4852,
      "lid": 4853,
      "liber": 4854,
      "ross": 4855,
      "empire": 4856,
      "ety": 4857,
      "estim": 4858,
      "estab": 4859,
      "consi": 4860,
      "resp": 4861,
      "resident": 4862,
      "until": 4863,
      "untouch": 4864,
      "import": 4865,
      "poin": 4866,
      "angered": 4867,
      "utes": 4868,
      "ders": 4869,
      "2008": 4870,
      "spread": 4871,
      "1990": 4872,
      "worn": 4873,
      "endangered": 4874,
      "1975": 4875,
      "genc": 4876,
      "now": 4877,
      "ods": 4878,
      "subsequent": 4879,
      "This": 4880,
      "system,": 4881,
      "continu": 4882,
      "group": 4883,
      "polic": 4884,
      "increasing": 4885,
      "comple": 4886,
      "growing": 4887,
      "thought": 4888,
      "legis": 4889,
      "Although": 4890,
      "however,": 4891,
      "supp": 4892,
      "times": 4893,
      "mid-": 4894,
      "middle": 4895,
      "present": 4896,
      "style": 4897,
      "developed": 4898,
      "significant": 4899,
      "1857": 4900,
      "surv": 4901,
      "leading": 4902,
      "religions": 4903,
      "Sikh": 4904,
      "kingdom": 4905,
      "widely": 4906,
      "cooked": 4907,
      "Jainism": 4908,
      "bio": 4909,
      "coalition": 4910,
      "influenced": 4911,
      "curren": 4912,
      "figures": 4913,
      "struct": 4914,
      "differ": 4915,
      "rock": 4916,
      "employ": 4917,
      "sculpture": 4918,
      "literacy": 4919,
      "industry": 4920,
      "education": 4921,
      "executive": 4922,
      "earliest": 4923,
      "technology": 4924,
      "Persian": 4925,
      "peninsular": 4926,
      "Kashm": 4927,
      "Southeast": 4928,
      "families": 4929,
      "known": 4930,
      "establish": 4931,
      "consider": 4932,
      "\"భారతదేశం": 4933,
      "\"భరత": 4934,
      "%)": 4935,
      "%).": 4936,
      "(2": 4937,
      "(5": 4938,
      "(8": 4939,
      "(ఆ": 4940,
      "(ఉ": 4941,
      "(ట": 4942,
      "(బ": 4943,
      "(సా": 4944,
      "(గి": 4945,
      "(फ़": 4946,
      "(कुल": 4947,
      "(एन": 4948,
      "(१,": 4949,
      "(ఇదే": 4950,
      "(17.": 4951,
      ",०": 4952,
      ",०००": 4953,
      "-ఆ": 4954,
      "-ఇ": 4955,
      "-ద": 4956,
      "-దేశ": 4957,
      "-पूर्व": 4958,
      "-चीन": 4959,
      "-समय": 4960,
      "-फ़": 4961,
      "-गंगा": 4962,
      "-ఢిల్లీ": 4963,
      "-టె": 4964,
      "-चीफ": 4965,
      "-ఖో": 4966,
      "-లాహోర్": 4967,
      "-monsoon": 4968,
      ".1": 4969,
      ".4": 4970,
      ".२": 4971,
      ".६": 4972,
      ".ఇ": 4973,
      ".ఈ": 4974,
      ".ఏ": 4975,
      ".కి": 4976,
      ".మీ": 4977,
      ".मी.": 4978,
      "/वर्ष": 4979,
      "0,": 4980,
      "04%,": 4981,
      "01,93,": 4982,
      "1200": 4983,
      "14%,": 4984,
      "21.": 4985,
      "25%": 4986,
      "33": 4987,
      "300": 4988,
      "32,": 4989,
      "52": 4990,
      "75,": 4991,
      "8.": 4992,
      "83,": 4993,
      "82,": 4994,
      "87,": 4995,
      "As": 4996,
      "Ass": 4997,
      "Civil": 4998,
      "Dec": 4999,
      "Dra": 5000,
      "Gup": 5001,
      "Gree": 5002,
      "Ghat": 5003,
      "Guj": 5004,
      "Ho": 5005,
      "Many": 5006,
      "Nuclear": 5007,
      "Sing": 5008,
      "Valle": 5009,
      "adi": 5010,
      "bu": 5011,
      "bar": 5012,
      "band": 5013,
      "bution": 5014,
      "che": 5015,
      "ction": 5016,
      "creat": 5017,
      "called": 5018,
      "den": 5019,
      "dri": 5020,
      "down": 5021,
      "democ": 5022,
      "equ": 5023,
      "eight": 5024,
      "ff": 5025,
      "fam": 5026,
      "fund": 5027,
      "go": 5028,
      "gra": 5029,
      "hy": 5030,
      "his": 5031,
      "hab": 5032,
      "just": 5033,
      "ken": 5034,
      "la": 5035,
      "ll": 5036,
      "les,": 5037,
      "mand": 5038,
      "mult": 5039,
      "mall": 5040,
      "nom": 5041,
      "ot": 5042,
      "pur": 5043,
      "pra": 5044,
      "pass": 5045,
      "phar": 5046,
      "ratic": 5047,
      "ramas": 5048,
      "saf": 5049,
      "sine": 5050,
      "sari": 5051,
      "small": 5052,
      "tu": 5053,
      "tic": 5054,
      "tak": 5055,
      "uary": 5056,
      "va": 5057,
      "win": 5058,
      "went": 5059,
      "wear": 5060,
      "writ": 5061,
      "wild": 5062,
      "xim": 5063,
      "ँचा": 5064,
      "ँग्रे": 5065,
      "ंट": 5066,
      "ंढ": 5067,
      "ंथ": 5068,
      "ंवा": 5069,
      "ंता": 5070,
      "ंचे": 5071,
      "ंकि": 5072,
      "ंदी": 5073,
      "ंजी": 5074,
      "ंठा": 5075,
      "ंकड": 5076,
      "ंचल": 5077,
      "ंतीस": 5078,
      "अख": 5079,
      "अध": 5080,
      "अफ": 5081,
      "अर्": 5082,
      "असा": 5083,
      "असं": 5084,
      "अक्ष": 5085,
      "अंग": 5086,
      "असम": 5087,
      "अल्": 5088,
      "अजि": 5089,
      "अरु": 5090,
      "अत्य": 5091,
      "अग्र": 5092,
      "अनिव": 5093,
      "अलिक": 5094,
      "अशांति": 5095,
      "आए": 5096,
      "आने": 5097,
      "आला": 5098,
      "आता": 5099,
      "आद्र": 5100,
      "आसाम": 5101,
      "आपूर्": 5102,
      "आला.": 5103,
      "आशिय": 5104,
      "आघा": 5105,
      "आदर्श": 5106,
      "इत": 5107,
      "इच्छ": 5108,
      "इण्ड": 5109,
      "इराण": 5110,
      "इलावा": 5111,
      "इजरा": 5112,
      "उल": 5113,
      "उर्": 5114,
      "उद्": 5115,
      "उन्होंने": 5116,
      "ऋत्य": 5117,
      "ए)": 5118,
      "एड": 5119,
      "एस": 5120,
      "एसो": 5121,
      "ऐसे": 5122,
      "ऐसी": 5123,
      "ऑग": 5124,
      "ऑस्": 5125,
      "ऑस्ट्रे": 5126,
      "ओण": 5127,
      "औसत": 5128,
      "औद्योगिक": 5129,
      "कट": 5130,
      "कॅ": 5131,
      "करा": 5132,
      "कहीं": 5133,
      "कन्या": 5134,
      "कन्न": 5135,
      "कनिष्ठ": 5136,
      "कंकड": 5137,
      "खी": 5138,
      "खू": 5139,
      "खे": 5140,
      "खात": 5141,
      "खून": 5142,
      "ग़": 5143,
      "गू": 5144,
      "गान": 5145,
      "गये": 5146,
      "गढ़": 5147,
      "गडा": 5148,
      "गळी": 5149,
      "गव्हा": 5150,
      "गतिशील": 5151,
      "घट": 5152,
      "घु": 5153,
      "घू": 5154,
      "घरे": 5155,
      "घकाल": 5156,
      "घटन": 5157,
      "घटना": 5158,
      "घनिष्ठ": 5159,
      "चक्र": 5160,
      "चस्व": 5161,
      "चंद्र": 5162,
      "छू": 5163,
      "जड": 5164,
      "जॉ": 5165,
      "जना": 5166,
      "जम्": 5167,
      "जगा": 5168,
      "झार": 5169,
      "झर्व": 5170,
      "टका": 5171,
      "टार्": 5172,
      "डच": 5173,
      "डर": 5174,
      "ड्रा": 5175,
      "णय": 5176,
      "त.": 5177,
      "तल": 5178,
      "तन्": 5179,
      "तद्": 5180,
      "तज्ञ": 5181,
      "थम": 5182,
      "थंड": 5183,
      "दात": 5184,
      "दरा": 5185,
      "दली": 5186,
      "दमन": 5187,
      "दौर": 5188,
      "दगड": 5189,
      "दशहरा": 5190,
      "धड": 5191,
      "धर": 5192,
      "धम्म": 5193,
      "नई": 5194,
      "नव": 5195,
      "नृ": 5196,
      "न्य": 5197,
      "नष्ट": 5198,
      "नवर": 5199,
      "नये": 5200,
      "पथ": 5201,
      "परा": 5202,
      "पों": 5203,
      "पति": 5204,
      "पदा": 5205,
      "पत्य": 5206,
      "पन्न": 5207,
      "पाती": 5208,
      "पसन्": 5209,
      "फळ": 5210,
      "फिक": 5211,
      "बई": 5212,
      "बट": 5213,
      "बु": 5214,
      "बती": 5215,
      "बहा": 5216,
      "बन्": 5217,
      "बरी": 5218,
      "बलों": 5219,
      "भ्र": 5220,
      "भवर्ष": 5221,
      "भक्ति": 5222,
      "मल": 5223,
      "म्य": 5224,
      "मते": 5225,
      "मारा": 5226,
      "ममाण": 5227,
      "माता": 5228,
      "मजब": 5229,
      "मबे": 5230,
      "मपुत्र": 5231,
      "मंच": 5232,
      "मणि": 5233,
      "मात्र": 5234,
      "य.": 5235,
      "यल": 5236,
      "यि": 5237,
      "यें": 5238,
      "यक्ष": 5239,
      "यहा": 5240,
      "यातील": 5241,
      "यद्वीप": 5242,
      "यिका": 5243,
      "यत्न": 5244,
      "र)": 5245,
      "रळ": 5246,
      "रै": 5247,
      "रका": 5248,
      "रसा": 5249,
      "रचा": 5250,
      "रंगा": 5251,
      "रडे": 5252,
      "रममाण": 5253,
      "ऱ्यां": 5254,
      "ऱ्यात": 5255,
      "लत": 5256,
      "लम": 5257,
      "ल्य": 5258,
      "लक्ष": 5259,
      "लंड": 5260,
      "लंब": 5261,
      "लब्": 5262,
      "ळची": 5263,
      "ळकार": 5264,
      "वट": 5265,
      "वने": 5266,
      "वस्त": 5267,
      "वाने": 5268,
      "वधान": 5269,
      "वली.": 5270,
      "वक्त": 5271,
      "वजह": 5272,
      "ववैविध": 5273,
      "शः": 5274,
      "श्य": 5275,
      "शतर": 5276,
      "ष्य": 5277,
      "सन": 5278,
      "सल": 5279,
      "सिक": 5280,
      "सक्ष": 5281,
      "सतर": 5282,
      "समान": 5283,
      "सवी": 5284,
      "सभाग": 5285,
      "सिक्": 5286,
      "हम": 5287,
      "हू": 5288,
      "ह्": 5289,
      "हस्": 5290,
      "हवे": 5291,
      "हंप": 5292,
      "हाता": 5293,
      "हजार": 5294,
      "हनन": 5295,
      "ा,": 5296,
      "ावर": 5297,
      "ामध्ये": 5298,
      "ासाठी": 5299,
      "ायिका": 5300,
      "िल": 5301,
      "िला": 5302,
      "िप्त": 5303,
      "िश्च": 5304,
      "ुक": 5305,
      "ुस्थान": 5306,
      "ुण्": 5307,
      "ूदी": 5308,
      "ेडे": 5309,
      "ॉक": 5310,
      "ोत": 5311,
      "ोबार": 5312,
      "्लो": 5313,
      "्त्वा": 5314,
      "्लादेश": 5315,
      "१२०": 5316,
      "१०००": 5317,
      "१२.६": 5318,
      "३,": 5319,
      "३०": 5320,
      "३२": 5321,
      "३३": 5322,
      "४६": 5323,
      "४८": 5324,
      "५५": 5325,
      "५४५": 5326,
      "७९": 5327,
      "८५": 5328,
      "ంతి": 5329,
      "ంద్": 5330,
      "ం\",": 5331,
      "అల": 5332,
      "అశ": 5333,
      "అహ": 5334,
      "అది": 5335,
      "అన్న": 5336,
      "అరు": 5337,
      "అక్ష": 5338,
      "అంద": 5339,
      "అంది": 5340,
      "అద్ద": 5341,
      "అధి": 5342,
      "అలం": 5343,
      "అరే": 5344,
      "అంటే": 5345,
      "అమె": 5346,
      "అధీన": 5347,
      "అమల": 5348,
      "అహ్మ": 5349,
      "ఆగ": 5350,
      "ఆచ": 5351,
      "ఆట": 5352,
      "ఆన": 5353,
      "ఆలో": 5354,
      "ఆదేశ": 5355,
      "ఆవి": 5356,
      "ఆతి": 5357,
      "ఆక్ర": 5358,
      "ఆయా": 5359,
      "ఆనా": 5360,
      "ఆధ్య": 5361,
      "ఆడు": 5362,
      "ఆదాయ": 5363,
      "ఆవల": 5364,
      "ఆగ్": 5365,
      "ఆణి": 5366,
      "ఆక్షరాస్యత": 5367,
      "ఆలస్య": 5368,
      "ఇను": 5369,
      "ఇతి": 5370,
      "ఇము": 5371,
      "ఇంది": 5372,
      "ఇందు": 5373,
      "ఇంకా": 5374,
      "ఇతను": 5375,
      "ఇన్‌": 5376,
      "ఇచ్చే": 5377,
      "ఇప్పటికీ": 5378,
      "ఉద్": 5379,
      "ఉపా": 5380,
      "ఉండి": 5381,
      "ఉండు": 5382,
      "ఉనిక": 5383,
      "ఉష్ణ": 5384,
      "ఋతు": 5385,
      "ఎడ": 5386,
      "ఎమ": 5387,
      "ఎగు": 5388,
      "ఎల్ల": 5389,
      "ఎదు": 5390,
      "ఎంతో": 5391,
      "ఎగువ": 5392,
      "ఏక": 5393,
      "ఏడ": 5394,
      "ఏప్ర": 5395,
      "ఏడు": 5396,
      "ఏటా": 5397,
      "ఏళ్ళ": 5398,
      "ఐదు": 5399,
      "ఒక్": 5400,
      "ఒడి": 5401,
      "ఒలిం": 5402,
      "ఓడ": 5403,
      "ఓటర్": 5404,
      "ఔట్‌": 5405,
      "క,": 5406,
      "కె": 5407,
      "కలు": 5408,
      "కిం": 5409,
      "కని": 5410,
      "కాయ": 5411,
      "కరా": 5412,
      "కంట": 5413,
      "కార్": 5414,
      "కష్ట": 5415,
      "కట్ట": 5416,
      "కమైన": 5417,
      "క్యం": 5418,
      "కమీ": 5419,
      "కలలో": 5420,
      "కూచ": 5421,
      "కమేన": 5422,
      "కలుగు": 5423,
      "కత్తా": 5424,
      "కానీ": 5425,
      "ఖా": 5426,
      "ఖిక": 5427,
      "ఖగో": 5428,
      "ఖర్చు": 5429,
      "గమ": 5430,
      "గృ": 5431,
      "గ్ర": 5432,
      "గతి": 5433,
      "గల్": 5434,
      "గింది.": 5435,
      "గపు": 5436,
      "గలి": 5437,
      "గిన్న": 5438,
      "గమన": 5439,
      "గణి": 5440,
      "గనులు": 5441,
      "గర్,": 5442,
      "గౌర": 5443,
      "గించుకో": 5444,
      "ఘన": 5445,
      "ఘు": 5446,
      "ఘో": 5447,
      "ఘిక,": 5448,
      "ఘర్షణ": 5449,
      "చా": 5450,
      "చో": 5451,
      "చ్": 5452,
      "చిన": 5453,
      "చము": 5454,
      "చింది.": 5455,
      "చరి": 5456,
      "చూడ": 5457,
      "చక్ర": 5458,
      "చిత": 5459,
      "చీ,": 5460,
      "చర్,": 5461,
      "చీర": 5462,
      "చులు,": 5463,
      "చ.కి": 5464,
      "ఛాయుత": 5465,
      "జల": 5466,
      "జూ": 5467,
      "జై": 5468,
      "జౌ": 5469,
      "జ్ర": 5470,
      "జిన": 5471,
      "జాన": 5472,
      "జైన": 5473,
      "జపా": 5474,
      "జ్‌": 5475,
      "జిత": 5476,
      "జిల్ల": 5477,
      "ఞాన": 5478,
      "టక": 5479,
      "టన": 5480,
      "ట్ర": 5481,
      "టంలో": 5482,
      "టిన": 5483,
      "టచే": 5484,
      "ట్రా": 5485,
      "ట్యం": 5486,
      "టంతో": 5487,
      "టం,": 5488,
      "టమూ": 5489,
      "టన్‌": 5490,
      "డ్య": 5491,
      "డాల": 5492,
      "డ్చ": 5493,
      "డ్ల": 5494,
      "డ్‌": 5495,
      "డాలు,": 5496,
      "డానికి": 5497,
      "డించింది.": 5498,
      "డమ్": 5499,
      "డబు": 5500,
      "ఢవి": 5501,
      "ణం": 5502,
      "ణు": 5503,
      "ణించ": 5504,
      "ణదారులు": 5505,
      "త,": 5506,
      "తథ": 5507,
      "తల": 5508,
      "తృ": 5509,
      "తార": 5510,
      "తాయ": 5511,
      "తాయి.": 5512,
      "తత్వ": 5513,
      "తక్కు": 5514,
      "తదు": 5515,
      "తగ్": 5516,
      "తమై": 5517,
      "తలం": 5518,
      "తమ్య": 5519,
      "తాలతో": 5520,
      "తీ,": 5521,
      "తదేశపు": 5522,
      "తీర": 5523,
      "తత్వానికి": 5524,
      "థమ": 5525,
      "థా": 5526,
      "థాన": 5527,
      "థార్": 5528,
      "దశ": 5529,
      "దస": 5530,
      "దృ": 5531,
      "దరా": 5532,
      "దండ": 5533,
      "దాన": 5534,
      "దైన": 5535,
      "దీయ": 5536,
      "దారు": 5537,
      "దగ్": 5538,
      "దరిక": 5539,
      "దక్కను": 5540,
      "దగినది.": 5541,
      "ధం": 5542,
      "ధర": 5543,
      "ధా": 5544,
      "ధు": 5545,
      "ధాల": 5546,
      "ధిన": 5547,
      "ధరి": 5548,
      "నృ": 5549,
      "నై": 5550,
      "నో": 5551,
      "నలు": 5552,
      "నాల": 5553,
      "నవి": 5554,
      "నసా": 5555,
      "నలలో": 5556,
      "ననీ": 5557,
      "నప్పటిక": 5558,
      "నాలతో": 5559,
      "నవచ్చు.": 5560,
      "నదులు": 5561,
      "నబడిన": 5562,
      "పక": 5563,
      "పబ": 5564,
      "పవ": 5565,
      "పస": 5566,
      "పి": 5567,
      "పస్": 5568,
      "పది": 5569,
      "పంలో": 5570,
      "పిన": 5571,
      "పింది.": 5572,
      "పూడ": 5573,
      "పచ్చ": 5574,
      "పరాజ": 5575,
      "పబడ": 5576,
      "పరో": 5577,
      "పించింది.": 5578,
      "పిత": 5579,
      "పించే": 5580,
      "పిక్": 5581,
      "పర్ష": 5582,
      "పౌర": 5583,
      "పండ్": 5584,
      "పత్యం": 5585,
      "పటంలో": 5586,
      "ఫల": 5587,
      "ఫు": 5588,
      "ఫర్": 5589,
      "ఫ్ట": 5590,
      "ఫలి": 5591,
      "ఫిక్": 5592,
      "ఫ్రాన్": 5593,
      "బల": 5594,
      "బై": 5595,
      "బాల": 5596,
      "బండ": 5597,
      "బంగా": 5598,
      "బిన్న": 5599,
      "బ్రా": 5600,
      "బద్ధం": 5601,
      "బ్యా": 5602,
      "భ్య": 5603,
      "భిం": 5604,
      "భంగ": 5605,
      "భదాయ": 5606,
      "భజిత": 5607,
      "మ.": 5608,
      "మయ": 5609,
      "మో": 5610,
      "మార": 5611,
      "మస్": 5612,
      "మిం": 5613,
      "మని": 5614,
      "మిక": 5615,
      "మాయ": 5616,
      "మంలో": 5617,
      "మిన": 5618,
      "మతం": 5619,
      "మంత": 5620,
      "మ్‌": 5621,
      "మరె": 5622,
      "మికత": 5623,
      "మంచి": 5624,
      "మికి": 5625,
      "మద్రా": 5626,
      "మసాల": 5627,
      "మాల్": 5628,
      "యి": 5629,
      "యూ": 5630,
      "యస్": 5631,
      "యాలు": 5632,
      "యము": 5633,
      "యులు": 5634,
      "యంతో": 5635,
      "యంలో,": 5636,
      "యింది": 5637,
      "యనులు,": 5638,
      "యథా": 5639,
      "రొ": 5640,
      "రలో": 5641,
      "రంగా": 5642,
      "రమైన": 5643,
      "రవే": 5644,
      "రవీ": 5645,
      "రించిన": 5646,
      "రారి": 5647,
      "రక్షరాస్యత": 5648,
      "రాలు.": 5649,
      "రకు,": 5650,
      "రతాయ": 5651,
      "రబద్ధం": 5652,
      "ల,": 5653,
      "లిక": 5654,
      "లిన": 5655,
      "లైన": 5656,
      "లకాల": 5657,
      "లపై": 5658,
      "లబె": 5659,
      "లమె": 5660,
      "లహా": 5661,
      "లఘు": 5662,
      "లబై": 5663,
      "లభ్య": 5664,
      "ళల": 5665,
      "ళవ": 5666,
      "ళా": 5667,
      "ళు": 5668,
      "ళులు": 5669,
      "ళనా": 5670,
      "వత": 5671,
      "వస": 5672,
      "వూ": 5673,
      "వరు": 5674,
      "వలి": 5675,
      "వంత": 5676,
      "వద్ద": 5677,
      "వస్తు": 5678,
      "వమి": 5679,
      "వన్య": 5680,
      "వాయు": 5681,
      "వళి": 5682,
      "వాల్": 5683,
      "వనాథ": 5684,
      "వజ్ర": 5685,
      "శే": 5686,
      "శాల": 5687,
      "శక్": 5688,
      "శంలో": 5689,
      "శ్రా": 5690,
      "శ్లో": 5691,
      "శించే": 5692,
      "శక్తి": 5693,
      "షే": 5694,
      "షన్": 5695,
      "షులు": 5696,
      "షం.": 5697,
      "షకాహార": 5698,
      "సొ": 5699,
      "సగా": 5700,
      "సాలు": 5701,
      "సిన": 5702,
      "సవా": 5703,
      "సల్": 5704,
      "సభా": 5705,
      "సత్య": 5706,
      "సమి": 5707,
      "సైనా": 5708,
      "సీలు": 5709,
      "సత్తా": 5710,
      "సాయుత": 5711,
      "సలహా": 5712,
      "హక": 5713,
      "హె": 5714,
      "హొ": 5715,
      "హర్": 5716,
      "హాయ": 5717,
      "హస్త": 5718,
      "హాలు,": 5719,
      "హక్కు": 5720,
      "హ్రాన్": 5721,
      "ాలో": 5722,
      "ాతి": 5723,
      "ాత్": 5724,
      "ాంబ": 5725,
      "ాశ్ర": 5726,
      "ాలోయ": 5727,
      "ానిస్తాన్": 5728,
      "ాము.": 5729,
      "ాదాయంలో": 5730,
      "ాంతి": 5731,
      "ాధిన": 5732,
      "ామని": 5733,
      "ి,": 5734,
      "ిలే": 5735,
      "ిరంగ": 5736,
      "ిద్ధి": 5737,
      "ి.పూ.": 5738,
      "ిళ్ళ": 5739,
      "ిత్యం": 5740,
      "ిపూడ": 5741,
      "ియనులు,": 5742,
      "ిళల": 5743,
      "ిశ్రా": 5744,
      "ీం": 5745,
      "ీకృ": 5746,
      "ీర్ణ": 5747,
      "ీకులు": 5748,
      "ీకరణ": 5749,
      "ీ-ద": 5750,
      "ును": 5751,
      "ుల్": 5752,
      "ువు": 5753,
      "ునిక": 5754,
      "ుపూర్వ": 5755,
      "ుడైన": 5756,
      "ులచే": 5757,
      "ూ,": 5758,
      "ూలా": 5759,
      "ృతంగా": 5760,
      "ెస్": 5761,
      "ెర్": 5762,
      "ెల్": 5763,
      "ెనే": 5764,
      "ెక్కను": 5765,
      "ేత": 5766,
      "ేకా": 5767,
      "ేష్": 5768,
      "ేకమైన": 5769,
      "ేననీ": 5770,
      "ేయులు": 5771,
      "ైస్త": 5772,
      "ైపో": 5773,
      "ోకు": 5774,
      "ోత్": 5775,
      "ోంది.": 5776,
      "ోలి": 5777,
      "ోత్రి": 5778,
      "ోద్య": 5779,
      "్తదేశపు": 5780,
      "‌)": 5781,
      "‌ల": 5782,
      "‌కు": 5783,
      "‌కా": 5784,
      "‌టిక": 5785,
      "–2004": 5786,
      "ार्य": 5787,
      "्रम": 5788,
      "्रवा": 5789,
      "केट": 5790,
      "केले.": 5791,
      "केला.": 5792,
      "केरळ": 5793,
      "ani": 5794,
      "్రిద్ధి": 5795,
      "्याच्या": 5796,
      "्यालय": 5797,
      "्याचल": 5798,
      "्यानंतर": 5799,
      "intro": 5800,
      "invol": 5801,
      "ారాలు,": 5802,
      "ారణంగా": 5803,
      "ారమ్‌": 5804,
      "भारतवर्ष": 5805,
      "भारतभर": 5806,
      "भारत-चीन": 5807,
      "र्ट": 5808,
      "र्ता": 5809,
      "र्घकाल": 5810,
      "ातकाल": 5811,
      "ेंच": 5812,
      "ेंजो": 5813,
      "कान": 5814,
      "काश": 5815,
      "कावे": 5816,
      "काबी": 5817,
      "काश्मीर": 5818,
      "कांपैकी": 5819,
      "काँग्रे": 5820,
      "स्म": 5821,
      "स्फे": 5822,
      "में।": 5823,
      "er,": 5824,
      "erial": 5825,
      "ons": 5826,
      "ones": 5827,
      "only": 5828,
      "प्रशास": 5829,
      "प्रगति": 5830,
      "प्रदर्शन": 5831,
      "प्रथम": 5832,
      "प्रकाश": 5833,
      "याच": 5834,
      "याचा": 5835,
      "यानंतर": 5836,
      "यासाठी": 5837,
      "లోపం": 5838,
      "ानों": 5839,
      "िक,": 5840,
      "िको": 5841,
      "rel": 5842,
      "rest": 5843,
      "reform": 5844,
      "renew": 5845,
      "reach": 5846,
      "reduced": 5847,
      "స్లో": 5848,
      "స్వే": 5849,
      "స్లే": 5850,
      "స్సీ": 5851,
      "స్వర్ణ": 5852,
      "रामा": 5853,
      "राशि": 5854,
      "న్మార్": 5855,
      "న్సీ": 5856,
      "న్లుగా": 5857,
      "alth": 5858,
      "ality": 5859,
      "ది,": 5860,
      "దిర్": 5861,
      "దిరి": 5862,
      "దికి": 5863,
      "దిగ్": 5864,
      "దిభాగం": 5865,
      "దిగువ": 5866,
      "नेता": 5867,
      "नेपाल": 5868,
      "్యంలో": 5869,
      "్యులు": 5870,
      "ింపు": 5871,
      "ింపబ": 5872,
      "ింసాయుత": 5873,
      "साचे": 5874,
      "साडी": 5875,
      "साचार": 5876,
      "सादर": 5877,
      "साफ़": 5878,
      "सावादी": 5879,
      "साजरा": 5880,
      "साझे": 5881,
      "विभा": 5882,
      "विंध": 5883,
      "विभाज": 5884,
      "विशिष्ट": 5885,
      "वित्त": 5886,
      "सेमी.": 5887,
      "सेल्स": 5888,
      "dit": 5889,
      "dian": 5890,
      "dish": 5891,
      "ata": 5892,
      "ating": 5893,
      "ative": 5894,
      "क्स": 5895,
      "क्शन": 5896,
      "ों,": 5897,
      "ప్రమా": 5898,
      "ప్రయా": 5899,
      "ప్రఖ్య": 5900,
      "ప్రణా": 5901,
      "ప్రార్థ": 5902,
      "ప్రగతి": 5903,
      "ప్రథమ": 5904,
      "ప్రీం": 5905,
      "ara": 5906,
      "ard": 5907,
      "ars": 5908,
      "ला,": 5909,
      "नाग": 5910,
      "नाथ": 5911,
      "नाभवर्ष": 5912,
      "कीम": 5913,
      "कीर्": 5914,
      "నివా": 5915,
      "నిచ్చ": 5916,
      "నియా": 5917,
      "నిస్తు": 5918,
      "నివార": 5919,
      "నిధి": 5920,
      "నియో": 5921,
      "నివి.": 5922,
      "నివల్ల": 5923,
      "నిలిచ": 5924,
      "నిరక్షరాస్యత": 5925,
      "నిలబె": 5926,
      "నిషే": 5927,
      "దే.": 5928,
      "ాలని": 5929,
      "ాలే.": 5930,
      "ాలన్నీ": 5931,
      "ాలెక్కను": 5932,
      "ాలేకా": 5933,
      "वाँ": 5934,
      "वाट": 5935,
      "वाय": 5936,
      "वाले": 5937,
      "वालों": 5938,
      "वाणि": 5939,
      "దేశీ": 5940,
      "దేశిక": 5941,
      "దేశరాజకీయ": 5942,
      "దేశాన్ని": 5943,
      "దేశమంత": 5944,
      "దేశాధిన": 5945,
      "ర్ఘ": 5946,
      "ర్టి": 5947,
      "ర్తా": 5948,
      "ర్కొ": 5949,
      "ర్సిం": 5950,
      "ర్లు.": 5951,
      "ర్జె": 5952,
      "ర్భవ": 5953,
      "ors": 5954,
      "संत": 5955,
      "संक्ष": 5956,
      "संस्था": 5957,
      "संसार": 5958,
      "संबर": 5959,
      "संगठ": 5960,
      "संग्रा": 5961,
      "संचाल": 5962,
      "संगम": 5963,
      "संसदे": 5964,
      "संशोध": 5965,
      "लेख": 5966,
      "लेले": 5967,
      "लेशिय": 5968,
      "గాంచిన": 5969,
      "గాయి": 5970,
      "त्रता": 5971,
      "న్నత": 5972,
      "న్నై": 5973,
      "న్నో": 5974,
      "న్నా,": 5975,
      "as,": 5976,
      "ash": 5977,
      "associ": 5978,
      "భార్తదేశపు": 5979,
      "భారత,": 5980,
      "భారతం": 5981,
      "భారత్‌": 5982,
      "భారతం,": 5983,
      "భారతంలో,": 5984,
      "माग": 5985,
      "माला": 5986,
      "मामले": 5987,
      "itect": 5988,
      "కునే": 5989,
      "కుమార్": 5990,
      "కులను": 5991,
      "కులం": 5992,
      "కుమారు": 5993,
      "కుండా": 5994,
      "కుడ్య": 5995,
      "కుదిర్": 5996,
      "కుర్తా": 5997,
      "करी": 5998,
      "करवाने": 5999,
      "ics": 6000,
      "ताचे": 6001,
      "तांद": 6002,
      "तासाठी": 6003,
      "ताक्षर": 6004,
      "थाई": 6005,
      "थांचा": 6006,
      "परन्तु": 6007,
      "भाई": 6008,
      "भांग": 6009,
      "भाबर": 6010,
      "ికంగా": 6011,
      "ికాక": 6012,
      "देता": 6013,
      "देते": 6014,
      "ాలు:": 6015,
      "ాలున్నాయి.": 6016,
      "तीनंतर": 6017,
      "तीसरे": 6018,
      "तीव्र": 6019,
      "ాయం": 6020,
      "ాయతి": 6021,
      "ాయకార": 6022,
      "ాయీలు": 6023,
      "राजकीय": 6024,
      "राजवट": 6025,
      "iss": 6026,
      "त्म": 6027,
      "1930": 6028,
      "విడ": 6029,
      "వివా": 6030,
      "విడి": 6031,
      "విస్తు": 6032,
      "విధాన": 6033,
      "వినాయక": 6034,
      "విజ్": 6035,
      "వితంలో": 6036,
      "విద్య": 6037,
      "విశి": 6038,
      "విఫల": 6039,
      "విభజిత": 6040,
      "విశే": 6041,
      "విసభా": 6042,
      "విదేశీ": 6043,
      "तरण": 6044,
      "ను,": 6045,
      "నున్న": 6046,
      "मुम्": 6047,
      "मुक्त": 6048,
      "मुलगा": 6049,
      "క్నాల": 6050,
      "క్‌టిక": 6051,
      "ष्म": 6052,
      "ष्णा": 6053,
      "न्हे": 6054,
      "न्हा": 6055,
      "न्ही": 6056,
      "न्धु": 6057,
      "कारी": 6058,
      "कार्रवा": 6059,
      "पाट": 6060,
      "पांड": 6061,
      "पाठी": 6062,
      "पांची": 6063,
      "पावली": 6064,
      "पाषाण": 6065,
      "पांढ": 6066,
      "took": 6067,
      "कोपे": 6068,
      "कोरडे": 6069,
      "होली": 6070,
      "होय.": 6071,
      "तेज": 6072,
      "तेथे": 6073,
      "तेलु": 6074,
      "तेज़ी": 6075,
      "तेमाल": 6076,
      "ंगीण": 6077,
      "తిరి": 6078,
      "తిరు": 6079,
      "తియు": 6080,
      "రామన": 6081,
      "రాటం": 6082,
      "రాణించ": 6083,
      "రామాయ": 6084,
      "రాసిన": 6085,
      "రాతియు": 6086,
      "ांसोबत": 6087,
      "ांविरुद्ध": 6088,
      "नियु": 6089,
      "नियुक्त": 6090,
      "निमंत्रण": 6091,
      "देश्य": 6092,
      "देशातील": 6093,
      "देशांमध्ये": 6094,
      "चेरी": 6095,
      "త్రలో": 6096,
      "త్రాలు": 6097,
      "త్రలతో,": 6098,
      "ించుకు": 6099,
      "ించవచ్చు.": 6100,
      "ండర్": 6101,
      "ండ్రా": 6102,
      "ండమస్": 6103,
      "ండ్యులు": 6104,
      "ద్వై": 6105,
      "ద్దిభాగం": 6106,
      "ద్విసభా": 6107,
      "ము,": 6108,
      "ముత్య": 6109,
      "ముందు": 6110,
      "ములు.": 6111,
      "వాద": 6112,
      "వాటి": 6113,
      "వామి": 6114,
      "వాదన": 6115,
      "వాటిలో": 6116,
      "వాహక": 6117,
      "कि.मी.": 6118,
      "किंवा": 6119,
      "త్త": 6120,
      "मियों": 6121,
      "चांग": 6122,
      "चालु": 6123,
      "భారతదేశము": 6124,
      "భారతదేశమే.": 6125,
      "ల్లో": 6126,
      "ల్స్": 6127,
      "ల్తా": 6128,
      "2026": 6129,
      "मानला": 6130,
      "मानले": 6131,
      "वर्तु": 6132,
      "वर्गी": 6133,
      "वर्चस्व": 6134,
      "ड़े": 6135,
      "मधे": 6136,
      "ంగల": 6137,
      "दीर्घकाल": 6138,
      "స్తానీ": 6139,
      "స్తాంబ": 6140,
      "స్తూ,": 6141,
      "एकच": 6142,
      "एकना": 6143,
      "शाखा": 6144,
      "समज": 6145,
      "समस": 6146,
      "समे": 6147,
      "రిట్ల": 6148,
      "రిట్లు": 6149,
      "ానంలో": 6150,
      "ాయిలో": 6151,
      "्येकडील": 6152,
      "लिश": 6153,
      "लिही": 6154,
      "తంగా,": 6155,
      "భాగే": 6156,
      "భాజపా": 6157,
      "భావిస్తు": 6158,
      "రు,": 6159,
      "రుగా": 6160,
      "రుష్": 6161,
      "రుచులు,": 6162,
      "पुर्व": 6163,
      "पुन्हा": 6164,
      "ంటి": 6165,
      "ంటో": 6166,
      "ంటుంది.": 6167,
      "ంటరీ": 6168,
      "పుత్ర": 6169,
      "పుతో": 6170,
      "పులా": 6171,
      "ైనెర్": 6172,
      "స్థూలా": 6173,
      "స్థాయిలో": 6174,
      "राज्यकर्": 6175,
      "పాక్ష": 6176,
      "పాండి": 6177,
      "పావళి": 6178,
      "పాండ్యులు": 6179,
      "adv": 6180,
      "adually": 6181,
      "दिए": 6182,
      "दिन": 6183,
      "दिवाली": 6184,
      "दिसंबर": 6185,
      "बाल": 6186,
      "बाबा": 6187,
      "बाढ़": 6188,
      "बायो": 6189,
      "बाबती": 6190,
      "भीमबे": 6191,
      "वेढ": 6192,
      "वेरू": 6193,
      "वेळा": 6194,
      "కితా": 6195,
      "సాఫ్ట": 6196,
      "సానియా": 6197,
      "ారు,": 6198,
      "veral": 6199,
      "सरपट": 6200,
      "प्राणी": 6201,
      "प्रायद्वीप": 6202,
      "प्रावधान": 6203,
      "liance": 6204,
      "ఉన్నాయి": 6205,
      "ఉన్నారు": 6206,
      "ఉన్నట్లు": 6207,
      "ఉన్నతంగా": 6208,
      "righ": 6209,
      "right": 6210,
      "इसने": 6211,
      "इसवी": 6212,
      "त्याने": 6213,
      "त्याची": 6214,
      "त्यांचा": 6215,
      "त्यासाठी": 6216,
      "त्यांनी": 6217,
      "१९२०": 6218,
      "१९१३": 6219,
      "ంగా,": 6220,
      "తోంది.": 6221,
      "తోష్ణ": 6222,
      "असैन": 6223,
      "असणे": 6224,
      "असतो.": 6225,
      "असफल": 6226,
      "Their": 6227,
      "సంక్ర": 6228,
      "సంధి": 6229,
      "సందర్": 6230,
      "క్షంగా": 6231,
      "char": 6232,
      "changes": 6233,
      "change": 6234,
      "ार्थांचा": 6235,
      "कृत": 6236,
      "कृष्णा": 6237,
      "चिन": 6238,
      "येणारे": 6239,
      "रूपरे": 6240,
      "आहेत,": 6241,
      "उत्खन": 6242,
      "उत्थान": 6243,
      "युरोपीय": 6244,
      "ल्म": 6245,
      "ceut": 6246,
      "rac": 6247,
      "स्थल": 6248,
      "मुखी": 6249,
      "जिसे": 6250,
      "जिन्हे": 6251,
      "मीटर": 6252,
      "ियस": 6253,
      "మాతృ": 6254,
      "మాదిరి": 6255,
      "మాండమస్": 6256,
      "ార్క్‌టిక": 6257,
      "विधि": 6258,
      "विधायिका": 6259,
      "स्थाई": 6260,
      "दक्षिण-पूर्व": 6261,
      "etwork": 6262,
      "मोठी": 6263,
      "मोहिनी": 6264,
      "ंडी": 6265,
      "म्बे": 6266,
      "est-": 6267,
      "जी-": 6268,
      "जीडी": 6269,
      "जीविका": 6270,
      "रीति": 6271,
      "కాగా,": 6272,
      "కావడ": 6273,
      "కాకుండా": 6274,
      "astri": 6275,
      "सिख": 6276,
      "सिएशन": 6277,
      "सिन्धु": 6278,
      "वर्षे": 6279,
      "पूर्वे": 6280,
      "पूर्वोत्तर": 6281,
      "conso": 6282,
      "conduc": 6283,
      "consist": 6284,
      "तक,": 6285,
      "दोन्ही": 6286,
      "నేయ": 6287,
      "నేసియా": 6288,
      "నేరుగా": 6289,
      "ష్టి": 6290,
      "ష్టు": 6291,
      "ష్టమైన": 6292,
      "ష్ట్యా": 6293,
      "రాజు.": 6294,
      "రాజధా": 6295,
      "ाराचे": 6296,
      "्यांचा": 6297,
      "result": 6298,
      "जाऊ": 6299,
      "जापान": 6300,
      "बहुपक्ष": 6301,
      "बहुसंख": 6302,
      "క్రి.పూ.": 6303,
      "క్రైస్త": 6304,
      "తరించింది.": 6305,
      "తరతరాలు": 6306,
      "ప్రాజా": 6307,
      "ప్రాముఖ్య": 6308,
      "ప్రాచు": 6309,
      "ప్రాసె": 6310,
      "ప్రాణు": 6311,
      "ప్రాబల": 6312,
      "ప్రాదేశిక": 6313,
      "again": 6314,
      "दाख": 6315,
      "दावरी": 6316,
      "दादरा": 6317,
      "ternal": 6318,
      "une": 6319,
      "కోసం": 6320,
      "కోవార": 6321,
      "పే,": 6322,
      "పేస్": 6323,
      "పేదరిక": 6324,
      "సిద్ధ": 6325,
      "సిద్ధం": 6326,
      "భారతదేశం,": 6327,
      "ారు.ప్రస్తుతము": 6328,
      "णाचल": 6329,
      "राष्ट्रों": 6330,
      "राष्ट्रपति": 6331,
      "below": 6332,
      "before": 6333,
      "when": 6334,
      "where": 6335,
      "ంచే": 6336,
      "తాజ్‌": 6337,
      "యాత్రి": 6338,
      "యావత్": 6339,
      "యాళం": 6340,
      "యాత్రలతో,": 6341,
      "యాండర్": 6342,
      "వచ్చి,": 6343,
      "सामने": 6344,
      "सामना": 6345,
      "क्षेप": 6346,
      "सरकारी": 6347,
      "sel": 6348,
      "सदांना": 6349,
      "जनक": 6350,
      "ందని": 6351,
      "ందరో": 6352,
      "ట్టూ": 6353,
      "ట్టుకు": 6354,
      "ట్టెల": 6355,
      "ట్టారు.ప్రస్తుతము": 6356,
      "ద్ధాలు": 6357,
      "ద్ధలతో,": 6358,
      "within": 6359,
      "क्षेत्रात": 6360,
      "क्षेत्रों": 6361,
      "क्षेत्रामध्ये": 6362,
      "external": 6363,
      "imper": 6364,
      "भू-": 6365,
      "व्यक्ति": 6366,
      "सुल": 6367,
      "सुरक्षा": 6368,
      "सुधार": 6369,
      "सुवर्ण": 6370,
      "सुधारण": 6371,
      "सुमारा": 6372,
      "स्वयं": 6373,
      "स्वतन्": 6374,
      "भागवत": 6375,
      "కాలతో": 6376,
      "కాలపరి": 6377,
      "కాలాల్లో": 6378,
      "నాటి": 6379,
      "నాట్యం": 6380,
      "మైనవి.": 6381,
      "లిసింది.": 6382,
      "లిథిక": 6383,
      "లియాండర్": 6384,
      "వేర్,": 6385,
      "్లను": 6386,
      "aren": 6387,
      "सीम": 6388,
      "ably": 6389,
      "about": 6390,
      "ability": 6391,
      "लगी": 6392,
      "ఒకటో": 6393,
      "గుప్": 6394,
      "గుబా": 6395,
      "గుత్తా": 6396,
      "గునవి": 6397,
      "గుతోంది.": 6398,
      "చేర": 6399,
      "చేసు": 6400,
      "చేసే": 6401,
      "చేత,": 6402,
      "ల్లిన": 6403,
      "ల్లింది.": 6404,
      "ల్లాయి.": 6405,
      "ల్లడించింది.": 6406,
      "ల్లీ-ద": 6407,
      "రాష్ట్రపు": 6408,
      "రాష్ట్రాలు,": 6409,
      "రాష్ట్రానికి": 6410,
      "రాష్ట్రపత": 6411,
      "side": 6412,
      "uted": 6413,
      "टिळ": 6414,
      "उत्तरदा": 6415,
      "ంతల": 6416,
      "కొక్క": 6417,
      "కొనసా": 6418,
      "కొద్దిభాగం": 6419,
      "కొత్త": 6420,
      "వ్యయంతో": 6421,
      "వ్యవస": 6422,
      "art,": 6423,
      "దేశాలకు": 6424,
      "దేశాలతో": 6425,
      "దేశాల్లో": 6426,
      "దేశాలకూ": 6427,
      "निर्वाह": 6428,
      "త్వం": 6429,
      "త్వాలు": 6430,
      "త్వంగా": 6431,
      "త్వరలో": 6432,
      "త్వంగల": 6433,
      "लोकसंख": 6434,
      "लोकशाही": 6435,
      "लोकनृ": 6436,
      "जोर": 6437,
      "धान्ये": 6438,
      "िक्ष": 6439,
      "स्थानों": 6440,
      "स्थानिक्": 6441,
      "मंत्रा": 6442,
      "यहूदी": 6443,
      "డిగించుకో": 6444,
      "డు.": 6445,
      "డుకు": 6446,
      "డుంబ": 6447,
      "ణాటక": 6448,
      "ణాదికి": 6449,
      "పాలకులు": 6450,
      "పాలయింది": 6451,
      "పాలకులను": 6452,
      "శాతం": 6453,
      "శాశ్": 6454,
      "శాకాహార": 6455,
      "న్నిస్లో": 6456,
      "स्थापत्याचे": 6457,
      "उपप्रकार": 6458,
      "उपग्र": 6459,
      "उपसागर": 6460,
      "उपलब्": 6461,
      "पटल": 6462,
      "साम्राज्ये": 6463,
      "कुलीन": 6464,
      "दलों": 6465,
      "दलीय": 6466,
      "दलदली": 6467,
      "बनला": 6468,
      "बनली": 6469,
      "रोवली": 6470,
      "रोखून": 6471,
      "वैश्": 6472,
      "కారం": 6473,
      "దా:": 6474,
      "దాటే": 6475,
      "దాటిన": 6476,
      "పారిశ్రా": 6477,
      "మార్గం": 6478,
      "మార్కె": 6479,
      "హిందువు": 6480,
      "inct": 6481,
      "प्रकारात": 6482,
      "प्रकारची": 6483,
      "భారతీయుడైన": 6484,
      "1961": 6485,
      "1967": 6486,
      "2001": 6487,
      "స్తుంది.": 6488,
      "ब्रह्": 6489,
      "महाल": 6490,
      "महाभारत": 6491,
      "महाखंड": 6492,
      "महाविद्या": 6493,
      "प्रदेशांत": 6494,
      "त्यक्ष": 6495,
      "महान": 6496,
      "महत्व": 6497,
      "मह्त्वा": 6498,
      "ంబే": 6499,
      "ఎన్నుకొ": 6500,
      "చెంది": 6501,
      "చెందింది.": 6502,
      "చెన్నై": 6503,
      "తుడు": 6504,
      "తులకాల": 6505,
      "తురుష్": 6506,
      "దక్షణాసియా": 6507,
      "పంచె": 6508,
      "పంచుకుంట": 6509,
      "పంచాయతి": 6510,
      "మేరో": 6511,
      "మేరకు,": 6512,
      "మేళవ": 6513,
      "మేషన్": 6514,
      "మధ్య,": 6515,
      "మధ్యకాలంలో": 6516,
      "మధ్యవర్తి": 6517,
      "మధ్యల,": 6518,
      "్‌వేర్,": 6519,
      "రాజ్యాలను": 6520,
      "రాజ్యసమి": 6521,
      "elit": 6522,
      "elected": 6523,
      "कडधान्ये": 6524,
      "गणित": 6525,
      "नामों": 6526,
      "नामशेष": 6527,
      "spor": 6528,
      "కృష్": 6529,
      "కృష్ణ": 6530,
      "కృష్టమైన": 6531,
      "బడింది.": 6532,
      "వస్థానంలో": 6533,
      "సును": 6534,
      "సుదీ": 6535,
      "సుమారు": 6536,
      "సుప్రీం": 6537,
      "సుల్తా": 6538,
      "ానికి,": 6539,
      "विविधता": 6540,
      "ప్రధానమంత్ర": 6541,
      "భారతదేశంలోని": 6542,
      "భాష,": 6543,
      "భాషలలో": 6544,
      "భాషా,": 6545,
      "భాషలతో,": 6546,
      "పేరుతో": 6547,
      "దక్షిణాదికి": 6548,
      "केंद्र-": 6549,
      "1958": 6550,
      "रूपए": 6551,
      "अनुसूची": 6552,
      "चित्रपटांची": 6553,
      "चित्रपटाला": 6554,
      "aksh": 6555,
      "1,200": 6556,
      "1,01,93,": 6557,
      "meat": 6558,
      "आणली.": 6559,
      "అయింది.": 6560,
      "అయిత": 6561,
      "ఇతరులు": 6562,
      "ఇతరదేశాలను": 6563,
      "ఇతరదేశాలకు": 6564,
      "టువంటి": 6565,
      "పెట్ర": 6566,
      "పెట్టారు.ప్రస్తుతము": 6567,
      "పరిధి": 6568,
      "పరిపాలన": 6569,
      "పరిపాలించ": 6570,
      "పరిస్థితి": 6571,
      "పరిఢవి": 6572,
      "మతాల": 6573,
      "మతాలు,": 6574,
      "మతాలతో": 6575,
      "మతస్తులు": 6576,
      "మతాలు:": 6577,
      "మితో": 6578,
      "మిగి": 6579,
      "మితిక": 6580,
      "రోడ్ల": 6581,
      "రోధాల": 6582,
      "ర్యన్": 6583,
      "ర్యము": 6584,
      "లాగృ": 6585,
      "లాభదాయ": 6586,
      "లాంటి": 6587,
      "వారిగా": 6588,
      "వర్గం": 6589,
      "వర్ధి": 6590,
      "వర్గాలు": 6591,
      "స్వాధీన": 6592,
      "స్వాములు.": 6593,
      "1996": 6594,
      "1998లో": 6595,
      "ప్రాంతాలతో": 6596,
      "ప్రాంతాలకు": 6597,
      "రైలు.": 6598,
      "వ్యవస్థ,": 6599,
      "వ్యవస్థల": 6600,
      "వ్యవస్థగా": 6601,
      "వ్యవస్థకు": 6602,
      "వ్యవస్థకు,": 6603,
      "పార్టీల": 6604,
      "పార్టీగా": 6605,
      "పార్టీకి": 6606,
      "పార్టీలతో": 6607,
      "హిందూస్తాన్": 6608,
      "హిందూస్తానీ": 6609,
      "साहित्या": 6610,
      "साहित्यात": 6611,
      "ब्रिटिशकालीन": 6612,
      "ब्रिटिशांविरुद्ध": 6613,
      "कर्मियों": 6614,
      "पदार्थ": 6615,
      "पदार्थांचा": 6616,
      "शिखर": 6617,
      "शिरका": 6618,
      "मुख्यमंत्री": 6619,
      "मंत्रीमंड": 6620,
      "1948లో": 6621,
      "plate": 6622,
      "play": 6623,
      "produc": 6624,
      "proxim": 6625,
      "ंबद्दल": 6626,
      "असेही": 6627,
      "तिकर्ता": 6628,
      "मतदान": 6629,
      "मतभे": 6630,
      "रिवाज": 6631,
      "रिझर्व": 6632,
      "గిపోయింది.": 6633,
      "వలస": 6634,
      "వలను": 6635,
      "వలెనే": 6636,
      "ప్రపంచదేశాలలో": 6637,
      "ించినందు": 6638,
      "ించినవే.": 6639,
      "मिलित": 6640,
      "స్థానం": 6641,
      "స్థానాలు": 6642,
      "స్థానమైన": 6643,
      "స్థానం.": 6644,
      "స్థానే.": 6645,
      "స్థానంలో,": 6646,
      "సాంఘిక,": 6647,
      "विधानसभा": 6648,
      "క్రీ.": 6649,
      "approxim": 6650,
      "263": 6651,
      "बढ़ो": 6652,
      "षण,": 6653,
      "सभासदांना": 6654,
      "मध्यप्रदेशातील": 6655,
      "समय-समय": 6656,
      "genous": 6657,
      "weap": 6658,
      "थे,": 6659,
      "पारसी": 6660,
      "मनु": 6661,
      "मनोर": 6662,
      "मूळ": 6663,
      "सहित": 6664,
      "అతివేగంగా": 6665,
      "అతిముఖ్యమైన": 6666,
      "అతిశీ": 6667,
      "ఉత్సాహ": 6668,
      "ఉత్కృష్టమైన": 6669,
      "జరిగింది.": 6670,
      "జరిగాయి": 6671,
      "ట్కా": 6672,
      "పోలో": 6673,
      "పోటీ": 6674,
      "పోతూ": 6675,
      "పోర్చు": 6676,
      "పోషకాహార": 6677,
      "పోరాటం": 6678,
      "మంజూ": 6679,
      "మీరు": 6680,
      "శ్రద్ధలతో,": 6681,
      "ుకుంది.": 6682,
      "్రెడ్": 6683,
      "విధి": 6684,
      "విధంగా": 6685,
      "విధించిన": 6686,
      "జాతులు": 6687,
      "జాతులు,": 6688,
      "ంద్రనాథ": 6689,
      "हिन्दी-": 6690,
      "ప్పించుకో": 6691,
      "జనాభాలో": 6692,
      "portion": 6693,
      "ported": 6694,
      "aff": 6695,
      "maceut": 6696,
      "partition": 6697,
      "आजही": 6698,
      "गाँ": 6699,
      "चलने": 6700,
      "ज्वाला": 6701,
      "पहाता": 6702,
      "योग्य": 6703,
      "ived": 6704,
      "upper": 6705,
      "बनाए": 6706,
      "बना।": 6707,
      "बनाया": 6708,
      "बनाई।": 6709,
      "बनाई,": 6710,
      "ఉంటూ": 6711,
      "ఉంటాయి": 6712,
      "ఎక్కువైపో": 6713,
      "ఏర్పర": 6714,
      "ఏర్పాటు": 6715,
      "కలిగిన": 6716,
      "టికంటే": 6717,
      "డ్మిం": 6718,
      "పట్టాలు": 6719,
      "పట్టును": 6720,
      "పట్టాలెక్కను": 6721,
      "బహిరంగ": 6722,
      "బహాయీలు": 6723,
      "లేనివి.": 6724,
      "వంటలు": 6725,
      "వంటలకు": 6726,
      "సంగమ": 6727,
      "సరిస్తూ,": 6728,
      "ీనములో": 6729,
      "ీనోద్య": 6730,
      "ప్రస్తుత": 6731,
      "द्वारे": 6732,
      "సాధించింది.": 6733,
      "సాధించి": 6734,
      "సాధారణంగా": 6735,
      "युद्धों": 6736,
      "కాంగ్రెసే": 6737,
      "संस्कृती,": 6738,
      "संस्कृतीची": 6739,
      "అధికారాలు": 6740,
      "అధికారంలో": 6741,
      "అధికారాన్ని": 6742,
      "అధికారికంగా": 6743,
      "కేంద్రాల్లో": 6744,
      "కేంద్రీకృ": 6745,
      "మొదటిది": 6746,
      "మొదటిసార": 6747,
      "దక్షిణదిగ్": 6748,
      "अंग्रेजों": 6749,
      "एशियाई": 6750,
      "ग्रंथ": 6751,
      "णे,": 6752,
      "दुसऱ्या": 6753,
      "पैंतीस": 6754,
      "बंगाली": 6755,
      "हुए,": 6756,
      "हुए।": 6757,
      "झालेली": 6758,
      "अनुसार,": 6759,
      "इन-चीफ": 6760,
      "पर्वता": 6761,
      "शहरे": 6762,
      "కల్పే": 6763,
      "కల్గి": 6764,
      "కల్పం": 6765,
      "కల్పుతూ": 6766,
      "కల్పించే": 6767,
      "గరలో": 6768,
      "గోర్": 6769,
      "గోళిక": 6770,
      "గోధు": 6771,
      "గోడుంబ": 6772,
      "జనగణ": 6773,
      "తిక,": 6774,
      "దుగా": 6775,
      "దుస్తులు": 6776,
      "ధిపత్యం": 6777,
      "పరమైన": 6778,
      "పరమో": 6779,
      "బాగా": 6780,
      "బాంబే": 6781,
      "బ్రహ్మ": 6782,
      "భూపతి": 6783,
      "మనమే": 6784,
      "మనదేశంలో": 6785,
      "మహల్": 6786,
      "మహిళల": 6787,
      "మహేష్": 6788,
      "యోచన": 6789,
      "యోరారి": 6790,
      "రంగం": 6791,
      "రంగాల": 6792,
      "రంగము": 6793,
      "రంగాల్లో": 6794,
      "వుని": 6795,
      "వుతుంది.": 6796,
      "వున్నా,": 6797,
      "వుంటుంది.": 6798,
      "ప్రతినిధి": 6799,
      "ాలలోను": 6800,
      "ాలనుండి": 6801,
      "करोड़),": 6802,
      "मुद्रा": 6803,
      "ంగ్లేయులు": 6804,
      "पुराने": 6805,
      "पुराना": 6806,
      "१९९६": 6807,
      "१९९९": 6808,
      "క్రమంగా": 6809,
      "రెండువై": 6810,
      "రెండుకోట్లకు": 6811,
      "క్రీడల": 6812,
      "मैदानों": 6813,
      "ప్రభుత్వంలో": 6814,
      "ప్రభుత్వాలన్నీ": 6815,
      "ప్రభుత్వంచే": 6816,
      "జాతీయాదాయంలో": 6817,
      "సంగీత": 6818,
      "సంగీతము": 6819,
      "సంగీతంలో": 6820,
      "సరిహద్దులు": 6821,
      "अवसाद": 6822,
      "अवलंब": 6823,
      "आपके": 6824,
      "आपल्या": 6825,
      "आपातकाल": 6826,
      "इस्तेमाल": 6827,
      "गठित": 6828,
      "गोल": 6829,
      "गोवा": 6830,
      "गोदावरी": 6831,
      "घेऊ": 6832,
      "घेण्यात": 6833,
      "जगह": 6834,
      "जगात": 6835,
      "दूर": 6836,
      "दूसरे": 6837,
      "दर्जा": 6838,
      "दर्ज़": 6839,
      "पडतो": 6840,
      "फ्रेंच": 6841,
      "श्री": 6842,
      "सूत्र": 6843,
      "िकांश": 6844,
      "नेतृत्‍": 6845,
      "नाट्य": 6846,
      "न्नति": 6847,
      "दिल्लीतील": 6848,
      "क्रमशः": 6849,
      "1950,": 6850,
      "ज्ञात": 6851,
      "1984": 6852,
      "1987": 6853,
      "15న": 6854,
      "decades": 6855,
      "quality": 6856,
      "मौसम": 6857,
      "लिया।": 6858,
      "१८५७": 6859,
      "ఆధునిక": 6860,
      "ఆధీనములో": 6861,
      "ఉపరాష్ట్రపత": 6862,
      "గ్డమ్": 6863,
      "గలుపు": 6864,
      "చుట్టూ": 6865,
      "ణికుల": 6866,
      "దీనికి": 6867,
      "దీన్ని": 6868,
      "దీవులు": 6869,
      "దీనివల్ల": 6870,
      "దీపావళి": 6871,
      "నీ,": 6872,
      "నీతి": 6873,
      "బెల్": 6874,
      "బెట్కా": 6875,
      "భిన్నత్వాలు": 6876,
      "మైంది.": 6877,
      "మైత్రి": 6878,
      "మైతే": 6879,
      "మైదాన": 6880,
      "మూడవ": 6881,
      "మూడే.": 6882,
      "యుగం": 6883,
      "యుద్ధం": 6884,
      "యు.ఏ": 6885,
      "యునై": 6886,
      "యుద్ధాలు": 6887,
      "రహదారు": 6888,
      "లంక": 6889,
      "వైశాల": 6890,
      "केलेल्या": 6891,
      "कामयाब": 6892,
      "स्वरुप": 6893,
      "reasing": 6894,
      "regions": 6895,
      "भाज्या": 6896,
      "విస్తారు.": 6897,
      "విస్తరించిన": 6898,
      "విస్తీర్ణ": 6899,
      "విస్తృతంగా": 6900,
      "త్వాన": 6901,
      "हिंसाचार": 6902,
      "భాగం,": 6903,
      "భాగం.": 6904,
      "పెద్దగా": 6905,
      "మంత్రిత్వ": 6906,
      "మంత్రివర్గం": 6907,
      "ప్పటికీ,": 6908,
      "తరువాత,": 6909,
      "ఏర్పడిన": 6910,
      "బహుమతి": 6911,
      "బహుభాషా,": 6912,
      "సరిహద్దున": 6913,
      "సరిహద్దులలో": 6914,
      "సరిహద్దులను": 6915,
      "అత్యధికంగా": 6916,
      "నడిపిస్త": 6917,
      "నడిపించి,": 6918,
      "Asian": 6919,
      "Hindust": 6920,
      "systems": 6921,
      "ograph": 6922,
      "निकोबार": 6923,
      "बोला": 6924,
      "बोली": 6925,
      "यूपी": 6926,
      "यूरेशिय": 6927,
      "समुद्रा": 6928,
      "कांचे": 6929,
      "कांनी": 6930,
      "प्रमाणे": 6931,
      "सेवांचा": 6932,
      "लागते.": 6933,
      "देखो": 6934,
      "देखने": 6935,
      "देखते": 6936,
      "निर्यात": 6937,
      "शास्त्रातील": 6938,
      "सम्पूर्ण": 6939,
      "सम्प्रभु": 6940,
      "सम्मिलित": 6941,
      "१९७४": 6942,
      "१९७५": 6943,
      "१९७७": 6944,
      "न्यायाधिकार": 6945,
      "ective": 6946,
      "extant": 6947,
      "foreign": 6948,
      "1.1": 6949,
      "rica": 6950,
      "ईसाई": 6951,
      "शांत": 6952,
      "అనునది": 6953,
      "అనుమతి": 6954,
      "అనువైన": 6955,
      "అనుసరిస్తూ,": 6956,
      "గేజి": 6957,
      "చైనాతో": 6958,
      "తనలో": 6959,
      "తెలిసింది.": 6960,
      "తెప్పించుకో": 6961,
      "పతకం": 6962,
      "పొందింది.": 6963,
      "పొడిగించుకో": 6964,
      "బియా": 6965,
      "బిజిన": 6966,
      "బియస్": 6967,
      "రూపంలో": 6968,
      "రూపొందింది.": 6969,
      "ళ్లను": 6970,
      "వడానికి,": 6971,
      "సమశీ": 6972,
      "సమయంలో,": 6973,
      "సమష్టి": 6974,
      "సారాల": 6975,
      "సారవంత": 6976,
      "సము:": 6977,
      "సముచిత": 6978,
      "సర్వసత్తా": 6979,
      "प्रतिबंध": 6980,
      "प्रांताचे": 6981,
      "विषुव": 6982,
      "ప్రజల": 6983,
      "ప్రజలకు": 6984,
      "ప్రజలచే": 6985,
      "हालांकि": 6986,
      "నుండి,": 6987,
      "ించేది": 6988,
      "वेगवेगळे": 6989,
      "असलेला": 6990,
      "असलेल्या": 6991,
      "సంస్కృతి": 6992,
      "సంస్కృతం": 6993,
      "సంస్కృతిలో": 6994,
      "సంస్కృతులతో": 6995,
      "సంస్కృతీ,": 6996,
      "युगातील": 6997,
      "కూడినది.": 6998,
      "ఒకటిగా,": 6999,
      "చేయలేదు": 7000,
      "చేయిస్తారు.": 7001,
      "చేయటంతో": 7002,
      "చేయడానికి": 7003,
      "చేయబడింది.": 7004,
      "రాష్ట్రపతి,": 7005,
      "రాష్ట్రపతిచే": 7006,
      "మార్గంలో": 7007,
      "మార్గము": 7008,
      "మార్గాలలో": 7009,
      "మార్గాలను": 7010,
      "మార్గాలే.": 7011,
      "काळातच": 7012,
      "తున్నారు.": 7013,
      "తున్నవార్": 7014,
      "తున్నప్పటికీ,": 7015,
      "మొదలగువ": 7016,
      "మొదలగునవి": 7017,
      "ప్రపంచంలోనే": 7018,
      "పట్టణాల": 7019,
      "పట్టణాలను": 7020,
      "కాంగ్రెసును": 7021,
      "इतिहासातील": 7022,
      "traditionally": 7023,
      "उदाहरणे": 7024,
      "రహదారులు,": 7025,
      "అభిప్రాయ": 7026,
      "సౌకర్యాలు": 7027,
      "సౌకర్యము.": 7028,
      "సౌకర్యవం": 7029,
      "vidian": 7030,
      "minister.": 7031,
      "1250": 7032,
      "121,01,93,": 7033,
      "उद्योग,": 7034,
      "जैसी": 7035,
      "जैववैविध": 7036,
      "बिनेट": 7037,
      "बेटे": 7038,
      "मार्च": 7039,
      "वृक्ष": 7040,
      "राज्यांत": 7041,
      "राज्यांच्या": 7042,
      "राज्यांमध्ये": 7043,
      "वर्णित": 7044,
      "जिनके": 7045,
      "पर्वतश्रे": 7046,
      "पर्वतमाला": 7047,
      "शहरीकरण": 7048,
      "बांधले": 7049,
      "बांधली": 7050,
      "बांधून": 7051,
      "बांधणी": 7052,
      "स्वरूपात": 7053,
      ".72%": 7054,
      ".70%),": 7055,
      "6%),": 7056,
      "Africa": 7057,
      "efs": 7058,
      "tax": 7059,
      "1010": 7060,
      "तमिलनाड": 7061,
      "नैऋत्य": 7062,
      "नृत्यप्रकार": 7063,
      "बनीं।": 7064,
      "सतों": 7065,
      "అని,": 7066,
      "కీలో": 7067,
      "క్యులు": 7068,
      "క్యారమ్‌": 7069,
      "జిత్": 7070,
      "జిస్లే": 7071,
      "టెడ్": 7072,
      "టెక్నాల": 7073,
      "టెన్నిస్లో": 7074,
      "నాయకుల": 7075,
      "పదవి": 7076,
      "పదవి.": 7077,
      "పదార్థ": 7078,
      "పద్ధతి": 7079,
      "పద్ధతులు": 7080,
      "పద్ధతిలో": 7081,
      "పద్ధతులతో": 7082,
      "మూల": 7083,
      "వరీ": 7084,
      "వరకూ": 7085,
      "వహించింది.": 7086,
      "వహించి": 7087,
      "వహించే": 7088,
      "వహిస్త": 7089,
      "వెల్లడించింది.": 7090,
      "స్లామ్": 7091,
      "ప్రకారం,": 7092,
      "నిర్మిస్తు": 7093,
      "నిర్వాహక": 7094,
      "క్కలు": 7095,
      "ద్వీపే,": 7096,
      "किनारा": 7097,
      "हिंदुस्थान": 7098,
      "पुत्रा": 7099,
      "స్థానిక": 7100,
      "స్థాపక": 7101,
      "పాక్,": 7102,
      "१९८०": 7103,
      "१९८९": 7104,
      "సంప్రదాయాలను": 7105,
      "दक्षिणेतील": 7106,
      "मोहेंजो": 7107,
      "వచ్చినవారి": 7108,
      "వచ్చినది,": 7109,
      "కార్యనిర్వాహక": 7110,
      "మేనకల": 7111,
      "ప్రధానమంత్రిని": 7112,
      "భాషలు,": 7113,
      "పరిశ్రమ.": 7114,
      "వ్యవస్థలోని": 7115,
      "1971లోను": 7116,
      "भरतनाट्य": 7117,
      "मूल्यों": 7118,
      "ఉత్తర,": 7119,
      "ఆర్థిక,": 7120,
      "కలిగి,": 7121,
      "పాకిస్తాన్తో": 7122,
      "పాకిస్థాన్,": 7123,
      "పాకిస్థాన్కు": 7124,
      "దక్షిణాన,": 7125,
      "బాద్,": 7126,
      "మహాసముద్రం": 7127,
      "మహాభారతం": 7128,
      "ఆధారిత": 7129,
      "ఆధారాలు.": 7130,
      "స్వతంత్రం": 7131,
      "నడిపించటం": 7132,
      "నడిపించాలనే": 7133,
      "నడిపించవచ్చని": 7134,
      "నడిపించటమూ": 7135,
      "न्यायालयों": 7136,
      "సర్వీసును": 7137,
      "న్యాయవ్యవస్థలో": 7138,
      "న్యాయవ్యవస్థ,": 7139,
      "న్యాయస్థానమైన": 7140,
      "हालाँकि,": 7141,
      "निवडले": 7142,
      "ओळखला": 7143,
      "ఇండియా,": 7144,
      "కుటుంబాలు": 7145,
      "కుటుంబాలకు": 7146,
      "అభివృద్ధి,": 7147,
      "23%).": 7148,
      "amental": 7149,
      "elections": 7150,
      "history,": 7151,
      "Constit": 7152,
      "Union": 7153,
      "dance-d": 7154,
      "south-": 7155,
      "इत्यादि": 7156,
      "गए।": 7157,
      "जुन्या": 7158,
      "डिग्री": 7159,
      "फाळ": 7160,
      "शक्तियों": 7161,
      "केन्द्रीय": 7162,
      "केन्द्रशासित": 7163,
      "ergy": 7164,
      "प्रारम्भिक": 7165,
      "वायुसेना": 7166,
      "राजाओं": 7167,
      "देशाचे": 7168,
      "१९६२": 7169,
      "support": 7170,
      "जनतांत्रिक": 7171,
      "खासकर": 7172,
      "महाद्वीपों": 7173,
      "गुजरा": 7174,
      "इमारती": 7175,
      ".30%),": 7176,
      ".36%),": 7177,
      "express": 7178,
      "1962లో": 7179,
      "species,": 7180,
      "1652": 7181,
      "Maur": 7182,
      "कूल": 7183,
      "खोरे": 7184,
      "चरम": 7185,
      "चला,": 7186,
      "चलाया।": 7187,
      "जंगलों": 7188,
      "धोरण": 7189,
      "पानगळी": 7190,
      "पत्ति": 7191,
      "बैंक": 7192,
      "मराठी": 7193,
      "१६३८": 7194,
      "१६४८": 7195,
      "అవసర": 7196,
      "అవతరించింది.": 7197,
      "అవరోధాల": 7198,
      "అవి,": 7199,
      "అవినీతి": 7200,
      "ఆక్రమించిన": 7201,
      "ఆక్రమణదారులు": 7202,
      "ఆక్రమించుకు": 7203,
      "ఆహార్యం": 7204,
      "ఇవ్వ": 7205,
      "ఇవన్నీ": 7206,
      "ఇవికాక": 7207,
      "ఇంగ్లండు": 7208,
      "ఉండగా,": 7209,
      "ఉండటం": 7210,
      "ఉండటం,": 7211,
      "ఎన్నికలలో": 7212,
      "కథక్": 7213,
      "కథకళ": 7214,
      "కథనాలతో": 7215,
      "కలకత్తా": 7216,
      "కలగలుపు": 7217,
      "కిందట": 7218,
      "గెలిచ": 7219,
      "జీవితంలో": 7220,
      "టాగోర్": 7221,
      "తులు;": 7222,
      "తమిళనా": 7223,
      "నగరాలు": 7224,
      "నగరాలనే": 7225,
      "నగరాలనుండి": 7226,
      "పంపిన": 7227,
      "పక్షం": 7228,
      "భరతుడు": 7229,
      "మెహర్": 7230,
      "మౌఖిక": 7231,
      "మానవుని": 7232,
      "మారుమూల": 7233,
      "లెందరో": 7234,
      "లెజిస్లే": 7235,
      "లెక్కలు": 7236,
      "లక్షల": 7237,
      "సహాయకార": 7238,
      "సేవ": 7239,
      "సార్క్": 7240,
      "సూచనలు": 7241,
      "హాసాల": 7242,
      "హాకీలో": 7243,
      "హ్వాల్": 7244,
      "स्वीकार": 7245,
      "प्रचलन": 7246,
      "దినాలు,": 7247,
      "దినాలకు": 7248,
      "नेहरु": 7249,
      "ప్రారంభమైన": 7250,
      "लाख),": 7251,
      "ించబడింది.": 7252,
      "ండా)": 7253,
      "ముంబాయి": 7254,
      "मिला,": 7255,
      "పురుషులు": 7256,
      "పుట్టాయి.": 7257,
      "పుట్టిల్": 7258,
      "పుట్టుపూర్వ": 7259,
      "స్థిరమైన": 7260,
      "प्राण्यांच्या": 7261,
      "प्राण्यांमध्ये": 7262,
      "సంఘము.": 7263,
      "సంఘర్షణ": 7264,
      "సంఖ్యలో": 7265,
      "సంఖ్యాక": 7266,
      "సంవత్సారాల": 7267,
      "उत्पादन": 7268,
      "కూడుకున్నది.": 7269,
      "కోవడంతో": 7270,
      "జాతిపిత": 7271,
      "లిచారు.": 7272,
      "ఒకేఒక": 7273,
      "ఒకేమాదిరి": 7274,
      "గుర్తించింది.": 7275,
      "గుర్తింపు": 7276,
      "గుర్తించవచ్చు.": 7277,
      "చేసింది.ఢాకా": 7278,
      "రాష్ట్రాలు:": 7279,
      "రాష్ట్రాలుగా,": 7280,
      "కొన్ని:": 7281,
      "వ్యాసము:": 7282,
      "साम्राज्याच्या": 7283,
      "साम्राज्याची": 7284,
      "वैशिष्ट्ये": 7285,
      "కారణంగా,": 7286,
      "దాదాపుగా": 7287,
      "బడతాయి.": 7288,
      "इंडो-": 7289,
      "వారసత్వాన్ని": 7290,
      "వారసత్వానికి": 7291,
      "వారసత్వంగా": 7292,
      "హిందూదేశం,": 7293,
      "ఉత్తరాదిన": 7294,
      "పూర్వం": 7295,
      "పూర్వపు": 7296,
      "శ్రీశై": 7297,
      "శ్రీరామన": 7298,
      "శ్రీలంక": 7299,
      "కలిసివస్తు": 7300,
      "సాధించగా,": 7301,
      "సాధించగలి": 7302,
      "సాధించాము.": 7303,
      "ప్రతిపాదనల్లో": 7304,
      "पृष्ठाचा": 7305,
      "ఉపఖండం": 7306,
      "ఉపఖండపు": 7307,
      "ఉపఖండములో": 7308,
      "వైవిధ్యం": 7309,
      "వైవిధ్యమైనది.": 7310,
      "వైవిధ్యమైనవి.": 7311,
      "अमेरिका,": 7312,
      "పొందినది.": 7313,
      "సముద్రతీర": 7314,
      "సమాఖ్య.": 7315,
      "సమాఖ్యలు": 7316,
      "विद्यार्थ्यांची": 7317,
      "ప్రజాస్వామ్య,": 7318,
      "కోర్టులు,": 7319,
      "పేర్కొన్నాయి.": 7320,
      "పేర్కొంటు": 7321,
      "పేర్కొనవచ్చు.": 7322,
      "మొదలైనవి": 7323,
      "మొదలైనవి.": 7324,
      "మొదలైనటువంటి": 7325,
      "స్వాతంత్ర్యానికి": 7326,
      "సింధులోయ": 7327,
      "సింధుాలోయ": 7328,
      "నిర్వహణలో": 7329,
      "influence": 7330,
      "अमरीका": 7331,
      "व्हावे": 7332,
      "కంపెనీపై": 7333,
      "నాయకత్వంలో": 7334,
      "నాయకత్వాన": 7335,
      "పండుగలు,": 7336,
      "ద్వీపం.": 7337,
      "ద్వీప-దేశ": 7338,
      "ద్వీపకల్పం": 7339,
      "కార్యక్రమాలలో": 7340,
      "సాంప్రదాయికమైన": 7341,
      "ఆఫ్ఘానిస్తాన్": 7342,
      "ఇస్లామాబాద్-టె": 7343,
      "జన్మనిచ్చ": 7344,
      "జన్మస్థానం.": 7345,
      "జన్మదినాలకు": 7346,
      "జరుపుకునే": 7347,
      "బంగ్లాదేశ్": 7348,
      "ళ్ళు": 7349,
      "హిమాలయాలు": 7350,
      "వాణిజ్యపరంగా": 7351,
      "సంకీర్ణం": 7352,
      "సంకీర్ణాలేకా": 7353,
      "నాగరికతకు": 7354,
      "तमिळनाडूतील": 7355,
      ".80%": 7356,
      "constitutional": 7357,
      "1991లో": 7358,
      "rule.": 7359,
      "1853": 7360,
      "7%.": 7361,
      "Plateau": 7362,
      "greater": 7363,
      "अंतिम": 7364,
      "अधिराज्य": 7365,
      "अलावा,": 7366,
      "आर्क": 7367,
      "आर्द्र": 7368,
      "उदय": 7369,
      "उदयास": 7370,
      "उठाव": 7371,
      "उठाया": 7372,
      "कमाली": 7373,
      "कटिका": 7374,
      "कंपनियों": 7375,
      "घडल्या": 7376,
      "जवळपास": 7377,
      "तराई": 7378,
      "नवीन": 7379,
      "नद्यांमध्ये": 7380,
      "पहुँ": 7381,
      "फिर": 7382,
      "फिल्म": 7383,
      "फैला": 7384,
      "मरण": 7385,
      "महिन": 7386,
      "महिला": 7387,
      "र-इन-चीफ": 7388,
      "रल)": 7389,
      "वानंतर": 7390,
      "स्मारक": 7391,
      "प्रगती": 7392,
      "विजय": 7393,
      "विद्यापीठ": 7394,
      "परिष": 7395,
      "मिश्रित": 7396,
      "मिलियन)": 7397,
      "हिस्सों": 7398,
      "स्थापत्यशास्त्रातील": 7399,
      "मिळाले.": 7400,
      "मिळाला.": 7401,
      "यांच्यात": 7402,
      "वन्यसं": 7403,
      "ग्रीक": 7404,
      "पार्टियां": 7405,
      "अभियानों": 7406,
      "स्वातंत्र्यप्राप्": 7407,
      "ऋषभदेव": 7408,
      "ऋषभदेवा": 7409,
      "गंगेचे": 7410,
      "दख्खनचे": 7411,
      "नागरिकों": 7412,
      "पुर्तगाल": 7413,
      "tropical": 7414,
      "cooking": 7415,
      "1977లో": 7416,
      "(0.9%": 7417,
      "(0.36%),": 7418,
      "(3.72%": 7419,
      "142": 7420,
      "55,000": 7421,
      "Republic": 7422,
      "States": 7423,
      "cities": 7424,
      "single": 7425,
      "school": 7426,
      "vention": 7427,
      "अजनाभवर्ष": 7428,
      "अहिंसावादी": 7429,
      "अशोक": 7430,
      "अशोकाने": 7431,
      "आयातक": 7432,
      "ओडिशा": 7433,
      "ओडिसी": 7434,
      "क्योंकि": 7435,
      "गिधा": 7436,
      "ग्वेद": 7437,
      "ग्लेशिय": 7438,
      "चली।": 7439,
      "तटों": 7440,
      "पर्जन": 7441,
      "पहिला": 7442,
      "मनाए": 7443,
      "रखने": 7444,
      "रही।": 7445,
      "लौटना": 7446,
      "लड़ाकू": 7447,
      "शिकार": 7448,
      "शिकारी": 7449,
      "शहरों": 7450,
      "स्रोत": 7451,
      "ेतही": 7452,
      "ంకాగా": 7453,
      "అణు": 7454,
      "అణ్వ": 7455,
      "అంటారు.": 7456,
      "అంటార్క్‌టిక": 7457,
      "అన్నిటికంటే": 7458,
      "అప్పటి": 7459,
      "అప్పిలే": 7460,
      "ఆసియాలో": 7461,
      "ఇటీవల": 7462,
      "ఇటీవలి": 7463,
      "ఇక్కడ": 7464,
      "ఇక్కడి": 7465,
      "ఇండో-ఆ": 7466,
      "ఇండోనేసియా": 7467,
      "ఐక్యరాజ్యసమి": 7468,
      "ఒలంపిక్‌": 7469,
      "ఒలంపిక్": 7470,
      "కరించింది.": 7471,
      "కరమేనని": 7472,
      "కర్‌)": 7473,
      "కర్ణాటక": 7474,
      "ఖో-ఖో": 7475,
      "గంగోత్రి": 7476,
      "గ్రామ": 7477,
      "గ్రాండ్": 7478,
      "చదరంగంలో": 7479,
      "చదరంగము": 7480,
      "చిరు": 7481,
      "చిత్రాలు": 7482,
      "చూసింది.": 7483,
      "చూపబడ": 7484,
      "చవితి": 7485,
      "చవిచూసింది.": 7486,
      "జెండా": 7487,
      "జోక్యం": 7488,
      "జోన్లుగా": 7489,
      "ట్‌బాల": 7490,
      "తేలిక": 7491,
      "తక్కువ.": 7492,
      "దర్శకు": 7493,
      "ద్రావిడ": 7494,
      "నూటన": 7495,
      "నెరవే": 7496,
      "నెహ్వాల్": 7497,
      "పార్లమె": 7498,
      "పార్సీలు": 7499,
      "పల్లవులు": 7500,
      "పల్లెల్": 7501,
      "పడుతుంది.": 7502,
      "పడుతున్నారు.": 7503,
      "పర్వతాలతో": 7504,
      "పర్వదినాలు,": 7505,
      "బునిస్తు": 7506,
      "భవించినవే.": 7507,
      "భౌగోళిక": 7508,
      "భౌతిక,": 7509,
      "భక్తి,": 7510,
      "భక్తిశ్రద్ధలతో,": 7511,
      "మలయాళం": 7512,
      "రీతులు": 7513,
      "రికా": 7514,
      "రకాలు.": 7515,
      "రకాలుగా": 7516,
      "లౌకిక": 7517,
      "లౌకిక,": 7518,
      "ళికలు": 7519,
      "వంశంలో": 7520,
      "శిలాగృ": 7521,
      "శైలీ": 7522,
      "శకుంతల": 7523,
      "సెర్టి": 7524,
      "సైతం": 7525,
      "సైనిక": 7526,
      "సిక్కు": 7527,
      "సిక్కులు": 7528,
      "హైకోర్టులు": 7529,
      "హైదరా": 7530,
      "प्रेमक": 7531,
      "స్వీకారం": 7532,
      "స్వీకరించింది.": 7533,
      "ప్రదేశ్‌": 7534,
      "ప్రదేశే,": 7535,
      "ప్రాయమైనది.": 7536,
      "ప్రత్యేకమైన": 7537,
      "ప్రత్యక్షంగా": 7538,
      "नाही.": 7539,
      "నియమించబడిన": 7540,
      "నియమించబడ్డ": 7541,
      "भावार्थ": 7542,
      "देवाच्या": 7543,
      "విలువైన": 7544,
      "విలువలను": 7545,
      "విశ్వనాథ": 7546,
      "విశ్వామి": 7547,
      "విమానాశ్ర": 7548,
      "होत्या.": 7549,
      "భాగమేనని": 7550,
      "భాగస్వాములు.": 7551,
      "భావిస్తారు.": 7552,
      "భావిస్తారు,": 7553,
      "पुराव": 7554,
      "ంటున్నది.": 7555,
      "स्तरावर": 7556,
      "adesh": 7557,
      "बांग्लादेश": 7558,
      "సాహిత్యం": 7559,
      "प्राप्ति": 7560,
      "असल्याने": 7561,
      "असल्याची": 7562,
      "సంబంధించిన": 7563,
      "సంస్కరణలు": 7564,
      "సంస్కరణలతో": 7565,
      "oldest": 7566,
      "झाल्यानंतर": 7567,
      "కాశ్మీర్": 7568,
      "కాశ్మీరు": 7569,
      "చ్చేరి": 7570,
      "మొగలులు": 7571,
      "ago.": 7572,
      "కోల్‌కా": 7573,
      "కోల్పోతూ": 7574,
      "కాలేజి": 7575,
      "కాలేజీ": 7576,
      "వేదాలు": 7577,
      "వేదాలలో": 7578,
      "areas.": 7579,
      "उत्तर-पश्चिम": 7580,
      "2003–2004": 7581,
      "महत्त्वाच्या": 7582,
      "ఎన్నుకుంటారు.": 7583,
      "ఎన్నుకుంటుంది.": 7584,
      "commonly": 7585,
      "రెండోది.": 7586,
      "contribut": 7587,
      "contribution": 7588,
      "चित्रपटसृष्टी": 7589,
      "शिक्षणाच्या": 7590,
      "మతములు": 7591,
      "మతములకు": 7592,
      "మిస్తున్నాయి.": 7593,
      "వర్గీకరణ": 7594,
      "వర్గాలలోను": 7595,
      "వర్ణించబడింది.": 7596,
      "వర్షాలు": 7597,
      "వర్షం\",": 7598,
      "క్రీ.పూ.5": 7599,
      "క్రీ.పూ.20": 7600,
      "మంత్రులచే": 7601,
      "మీర్జాలు": 7602,
      "అయినప్పటికీ,": 7603,
      "అయినప్పటికినీ": 7604,
      "లేదు.": 7605,
      "గోదావరి": 7606,
      "గోదావరీ": 7607,
      "పరీక్షలు": 7608,
      "పరీక్షను": 7609,
      "ప్రతిపక్షం": 7610,
      "ప్రతిపక్షమైంది.": 7611,
      "features": 7612,
      "इंग्लंड": 7613,
      "इंग्लिश": 7614,
      "ఉపయోగిస్తారు": 7615,
      "ఉపయోగిస్తుంది.": 7616,
      "ఏర్పడే": 7617,
      "ఏర్పడింది.": 7618,
      "బ్రిటీష్": 7619,
      "బ్రిటీషు": 7620,
      "ప్రముఖమైనది": 7621,
      "ప్రముఖమైనదే.": 7622,
      "अमेरिकन": 7623,
      "अमेरिकी": 7624,
      "తూర్పున": 7625,
      "రూపాంతరం": 7626,
      "రూపాంతరమే.": 7627,
      "సమాజము": 7628,
      "సమాజం.": 7629,
      "కులాలు,భాషలు,": 7630,
      "కోర్టులకు": 7631,
      "రైల్వేశాఖకు": 7632,
      "సింధూనదికి": 7633,
      "లోక్‌సభలో": 7634,
      "నిర్మించినందు": 7635,
      "నిర్మించేది": 7636,
      "పాలనలోకి": 7637,
      "సభ్యులను": 7638,
      "సభ్యురాలు.": 7639,
      "సామ్రాజ్యాలు": 7640,
      "పశ్చిమాన,": 7641,
      "భరతనాట్యం": 7642,
      "లక్షణాలు": 7643,
      "లక్షణాన్ని": 7644,
      "ప్రారంభించాలనే": 7645,
      "ప్రారంభించాలని": 7646,
      "ముంబైలో": 7647,
      "పురుషుల": 7648,
      "పురుషులకు": 7649,
      "సంవత్సరాల": 7650,
      "సంవత్సరాలలో": 7651,
      "వ్యాపారం": 7652,
      "ఆఫ్ఘనిస్తాన్‌కు": 7653,
      "బంగ్లాదేశ్‌ల": 7654,
      "బంగ్లాదేశ్‌లలో": 7655,
      "కన్నడం": 7656,
      "కబడ్డీలో": 7657,
      "చారిత్రకంగా": 7658,
      "టైటిల్": 7659,
      "టైటిళ్ళు": 7660,
      "తర్వాత": 7661,
      "తర్వాతి": 7662,
      "నెలకొని": 7663,
      "నెలకొన్న": 7664,
      "పీఠభూమికి": 7665,
      "పీఠభూమితో": 7666,
      "పవిత్రంగా": 7667,
      "బౌద్ధులు": 7668,
      "రచయిత.": 7669,
      "రచయితలెందరో": 7670,
      "third-largest": 7671,
      "ప్రయోజనాలు": 7672,
      "ప్రయోజనకరమేనని": 7673,
      "నిడివిలో": 7674,
      "నిడివిని": 7675,
      "కూడుకొనినప్పటిక": 7676,
      "కాపాడుకుంటూనే": 7677,
      "agriculture": 7678,
      "agricultural": 7679,
      "జాబితాలో": 7680,
      "చెప్పుకోవచ్చు.": 7681,
      "చెప్పుకోదగినది.": 7682,
      "సహస్రాబ్దిలో": 7683,
      "January": 7684,
      "Sea": 7685,
      "capit": 7686,
      "crust": 7687,
      "turned": 7688,
      "architect": 7689,
      "territories": 7690,
      "speak": 7691,
      "show": 7692,
      "1974లో": 7693,
      "directly": 7694,
      "83.80%": 7695,
      "dances": 7696,
      "material": 7697,
      "अंदमान": 7698,
      "आठवीं": 7699,
      "आवश्य": 7700,
      "उमट": 7701,
      "ऊर्जा": 7702,
      "एवम": 7703,
      "कथक": 7704,
      "छाऊ": 7705,
      "जन्म": 7706,
      "ढाँचा": 7707,
      "नमूद": 7708,
      "पसंती": 7709,
      "बहती": 7710,
      "महीने": 7711,
      "रियासतों": 7712,
      "सियाचिन": 7713,
      "हस्तक्षेप": 7714,
      "indigenous": 7715,
      "प्रश्न": 7716,
      "नाइट": 7717,
      "वामपंथी": 7718,
      "संरक्षण": 7719,
      "करेगी": 7720,
      "करोड": 7721,
      "ताजमहाल": 7722,
      "निर्माता": 7723,
      "किनाऱ्यालग": 7724,
      "शाकाहारी": 7725,
      "पुढार": 7726,
      "पुतळा": 7727,
      "राज्यसभेतील": 7728,
      "उत्तरांचल": 7729,
      "मोर्चा": 7730,
      "क्रयशक्ति": 7731,
      "क्रिकेट": 7732,
      "क्रमांका": 7733,
      "commercial": 7734,
      "composed": 7735,
      "गुरूकूल": 7736,
      "पश्चिमेकडे": 7737,
      "शिवाजी": 7738,
      "द्वीपकल्प": 7739,
      "ज़्यादा": 7740,
      "टेलीविजन": 7741,
      "बढ़ा।": 7742,
      "मध्यमवर्ग": 7743,
      "अर्थव्यवस्थेत": 7744,
      "हिमालयीन": 7745,
      "पैमाने": 7746,
      "सैनिकों": 7747,
      "पठारावरील": 7748,
      "grandmother": 7749,
      "violence": 7750,
      "आरक्षणामुळे": 7751,
      "अन्तर्गत": 7752,
      "पहाड़ियाँ": 7753,
      "इंग्रजांनी": 7754,
      "निवडणूक": 7755,
      "उभरा।": 7756,
      "बदलांमुळे": 7757,
      "्टवेयर": 7758,
      "नियंत्रण": 7759,
      "development": 7760,
      "कमांडर-इन-चीफ": 7761,
      "कटिबंधीय": 7762,
      "स्मारकावरून": 7763,
      "वन्यजीव": 7764,
      "समझौते": 7765,
      "ईशान्येकडील": 7766,
      "उर्वरित": 7767,
      "गोंडवन": 7768,
      "जंबूद्वीप": 7769,
      "दहशतवाद": 7770,
      "संबोधित": 7771,
      "शाहजहानने": 7772,
      "अग्निध्रा": 7773,
      "सौहार्दपूर्ण": 7774,
      "..).": 7775,
      "422.": 7776,
      "Brahm": 7777,
      "Bharat": 7778,
      "global": 7779,
      "house": 7780,
      "operation": 7781,
      "secular": 7782,
      "waist": 7783,
      "recorded": 7784,
      "enacted": 7785,
      "estimated": 7786,
      "important": 7787,
      "continued": 7788,
      "legislat": 7789,
      "1857లో": 7790,
      "kingdoms": 7791,
      "different": 7792,
      "Kashmir": 7793,
      "established": 7794,
      "\"భారతదేశం\"": 7795,
      "\"భరతవర్షం\",": 7796,
      "(5.30%),": 7797,
      "(8.70%),": 7798,
      "(ఆంగ్లేయులు": 7799,
      "(ఉదా:": 7800,
      "(టండ్రా": 7801,
      "(బ్రెడ్": 7802,
      "(సాకర్‌)": 7803,
      "(గిల్లీ-ద": 7804,
      "(ఇదే,": 7805,
      "(17.23%).": 7806,
      "-ఇస్తాంబ": 7807,
      "-ఢిల్లీ-లాహోర్": 7808,
      "32,87,": 7809,
      "75,7%.": 7810,
      "83,04%,": 7811,
      "82,14%,": 7812,
      "Dravidian": 7813,
      "Greek": 7814,
      "However,": 7815,
      "Singh": 7816,
      "Valley": 7817,
      "fundamental": 7818,
      "pract": 7819,
      "pharmaceut": 7820,
      "अधिकांश": 7821,
      "अक्षुण्": 7822,
      "अजिंठा": 7823,
      "अरुणाचल": 7824,
      "अग्रणी": 7825,
      "अनिवार्य": 7826,
      "आपूर्तिकर्ता": 7827,
      "आशियातील": 7828,
      "आघाडी": 7829,
      "इतका": 7830,
      "इच्छुक": 7831,
      "इण्डिया": 7832,
      "इजरायल": 7833,
      "एसजी": 7834,
      "एसोसिएशन": 7835,
      "ऑगस्ट": 7836,
      "ऑस्कर": 7837,
      "ओणम": 7838,
      "ग़रीबी": 7839,
      "घटने": 7840,
      "घूमर": 7841,
      "घरेलू": 7842,
      "छूट": 7843,
      "जॉर्ज": 7844,
      "जम्मू": 7845,
      "झारखंड": 7846,
      "टार्कटिका": 7847,
      "दातर": 7848,
      "धरतो": 7849,
      "नवगठित": 7850,
      "नवरात्र": 7851,
      "पोंगल": 7852,
      "पसन्द": 7853,
      "बुद्ध": 7854,
      "बरीच": 7855,
      "म्यु": 7856,
      "मजबूत": 7857,
      "मंचों,": 7858,
      "यहां": 7859,
      "रैंक": 7860,
      "रसायन": 7861,
      "वस्तु": 7862,
      "सक्षम": 7863,
      "सभागृह": 7864,
      "सिक्कीम": 7865,
      "हस्ताक्षर": 7866,
      "हवेली": 7867,
      "हाताळून": 7868,
      "ेडेरल)": 7869,
      "అలీనోద్య": 7870,
      "అశోకు": 7871,
      "అహింసాయుత": 7872,
      "అన్నం,": 7873,
      "అరుదుగా": 7874,
      "అక్షరబద్ధం": 7875,
      "అందరూ": 7876,
      "అందించిన": 7877,
      "అద్దం": 7878,
      "అధిగమ": 7879,
      "అలంకార": 7880,
      "అరేబియా": 7881,
      "అమెరికా": 7882,
      "అధీనంలో": 7883,
      "అమలవుతుంది.": 7884,
      "అహ్మదీయ": 7885,
      "ఆగష్టు": 7886,
      "ఆచారాలు,": 7887,
      "ఆటలు": 7888,
      "ఆనంద్": 7889,
      "ఆలోచన": 7890,
      "ఆదేశాలు,": 7891,
      "ఆవిర్భవ": 7892,
      "ఆక్రమిస్తున్నాయి.": 7893,
      "ఆనాది": 7894,
      "ఆధ్యాత్": 7895,
      "ఆడుతున్నవార్": 7896,
      "ఆదాయం": 7897,
      "ఆగ్నేయ": 7898,
      "ఆణిముత్య": 7899,
      "ఆలస్యం": 7900,
      "ఇనుము,": 7901,
      "ఇతిహాసాల": 7902,
      "ఇముడ్చ": 7903,
      "ఇందిరా": 7904,
      "ఇందులో": 7905,
      "ఇన్‌ఫర్": 7906,
      "ఉద్భవించినవే.": 7907,
      "ఉపాధి": 7908,
      "ఉండి,": 7909,
      "ఉండుటచే": 7910,
      "ఉనికికి": 7911,
      "ఋతుపవ": 7912,
      "ఎడారి": 7913,
      "ఎమర్జె": 7914,
      "ఎగుమతి": 7915,
      "ఎల్లలుగా": 7916,
      "ఎదుర్కొ": 7917,
      "ఏకత్వంగల": 7918,
      "ఏడవస్థానంలో": 7919,
      "ఏప్రిల్": 7920,
      "ఏళ్ళపాటు": 7921,
      "ఒక్కొక్క": 7922,
      "ఒడిస్సీ": 7923,
      "ఒలింపిక్‌": 7924,
      "ఓడించి,": 7925,
      "ఓటర్లపై": 7926,
      "ఔట్‌సొ": 7927,
      "కలుపుతూ": 7928,
      "కింగ్డమ్": 7929,
      "కనిపించింది.": 7930,
      "కరాచీ,": 7931,
      "కంటైనెర్": 7932,
      "కార్పస్": 7933,
      "కష్టంకాగా": 7934,
      "కట్టడాలు,": 7935,
      "కమీజ్": 7936,
      "కూచిపూడ": 7937,
      "కమేననీ,": 7938,
      "కలుగుతాయి.": 7939,
      "ఖాతం": 7940,
      "ఖగోళ": 7941,
      "ఖర్చుతో": 7942,
      "గ్రీకులు": 7943,
      "గిన్నె": 7944,
      "గమనించి,": 7945,
      "గణితం": 7946,
      "గౌరవిస్తారు.": 7947,
      "ఘనత": 7948,
      "ఘోర": 7949,
      "ఘర్షణను": 7950,
      "చాళు": 7951,
      "చోళులు": 7952,
      "చ్ఛాయుత": 7953,
      "చమురు,": 7954,
      "చరిత్రలో": 7955,
      "చూడండి": 7956,
      "చక్రవర్తి": 7957,
      "చ.కి.మీ": 7958,
      "జైనులు": 7959,
      "జౌళి": 7960,
      "జానపద": 7961,
      "జిల్లా": 7962,
      "ట్రాఫిక్": 7963,
      "డాలర్లు.": 7964,
      "డ్‌గేజి": 7965,
      "డబుల్స్": 7966,
      "తారతమ్య": 7967,
      "తక్కువే.": 7968,
      "తదుపరి": 7969,
      "తగ్గిపోయింది.": 7970,
      "తలంపుతో": 7971,
      "థానే": 7972,
      "దశలో": 7973,
      "దసరా": 7974,
      "దృష్ట్యా": 7975,
      "దండయాత్రలతో,": 7976,
      "దైనందిన": 7977,
      "దగ్గరలో": 7978,
      "ధరించే": 7979,
      "ధరిస్తారు": 7980,
      "నృత్య": 7981,
      "నోబెల్": 7982,
      "పస్రిద్ధి": 7983,
      "పిలిచారు.": 7984,
      "పదిశాతం": 7985,
      "పచ్చజెండా": 7986,
      "పరాజయం": 7987,
      "పరోక్ష": 7988,
      "పర్షియనులు,": 7989,
      "పండ్లు": 7990,
      "ఫుట్‌బాల": 7991,
      "ఫలితంగా": 7992,
      "ఫ్రాన్స్": 7993,
      "బండ్లను": 7994,
      "బంగాళా": 7995,
      "బిన్నత్వంలో": 7996,
      "బ్రాడ్‌గేజి": 7997,
      "బ్యాడ్మిం": 7998,
      "భింబెట్కా": 7999,
      "భంగం": 8000,
      "మయన్మార్": 8001,
      "మారింది.": 8002,
      "మినహాయ": 8003,
      "మతం,": 8004,
      "మరెన్నో": 8005,
      "మద్రాసు": 8006,
      "మసాలాలు,": 8007,
      "మాల్దీవులు": 8008,
      "యూదులు": 8009,
      "యమున": 8010,
      "యథాతథ": 8011,
      "రొట్టెల": 8012,
      "రంగానికి": 8013,
      "రవీంద్రనాథ": 8014,
      "రతాయని": 8015,
      "లైనప్పటికీ": 8016,
      "లబైరెండుకోట్లకు": 8017,
      "లభ్యమైన": 8018,
      "వూపింది.": 8019,
      "వరుసగా": 8020,
      "వన్యప్రాణు": 8021,
      "వజ్రాలు": 8022,
      "శక్తులు;": 8023,
      "శ్లోకాలతో": 8024,
      "శక్తిగా": 8025,
      "సవాళ్లను": 8026,
      "సల్వార్": 8027,
      "సత్యజిత్": 8028,
      "హెబియస్": 8029,
      "హొలీ": 8030,
      "హక్కులకు": 8031,
      "హ్రాన్-ఇస్తాంబ": 8032,
      "ోత్తరాలు": 8033,
      "ోలియం": 8034,
      "काबीज": 8035,
      "काँग्रेस": 8036,
      "स्फेअर": 8037,
      "प्रशासना": 8038,
      "స్వేచ్ఛాయుత": 8039,
      "रामाय": 8040,
      "ింపబడి": 8041,
      "साझेदारी": 8042,
      "विभाजन": 8043,
      "विंध्याचल": 8044,
      "विभाजित": 8045,
      "सेल्सियस": 8046,
      "ప్రమాణ": 8047,
      "ప్రయాణికుల": 8048,
      "ప్రఖ్యాతి": 8049,
      "ప్రణాళికలు": 8050,
      "ప్రార్థనలలో": 8051,
      "ప్రగతిని": 8052,
      "నివాసాలు": 8053,
      "నివారిస్తారు.": 8054,
      "నియోలిథిక": 8055,
      "నిలిచింది.": 8056,
      "నిలబెట్టుకు": 8057,
      "నిషేధం": 8058,
      "वाणिज्य": 8059,
      "దేశరాజకీయాల్లో": 8060,
      "దేశమంతటా": 8061,
      "దేశాధినేత": 8062,
      "ర్సింగ్": 8063,
      "संक्षिप्त": 8064,
      "संगठन": 8065,
      "संग्राम": 8066,
      "संचालित": 8067,
      "భారత్‌లో": 8068,
      "కుమార్తె": 8069,
      "కుమారుడు.": 8070,
      "కుడ్యచిత్రాలు": 8071,
      "కుదిర్చిన": 8072,
      "వివాదం": 8073,
      "విడిపోయింది.": 8074,
      "విధానాలతో": 8075,
      "విజ్ఞాన": 8076,
      "విద్యను": 8077,
      "విశిష్ట": 8078,
      "విభజితమై": 8079,
      "విశేషం.": 8080,
      "मुम्बई": 8081,
      "कार्रवाई": 8082,
      "पांढऱ्या": 8083,
      "कोपेन": 8084,
      "तेलुगू": 8085,
      "తిరిగే": 8086,
      "తిరుగుబా": 8087,
      "రాణించలేదు.": 8088,
      "రామాయణం": 8089,
      "రాతియుగపు": 8090,
      "नियुक्ति": 8091,
      "ద్వైపాక్ష": 8092,
      "ముందుగా": 8093,
      "వాటిల్లింది.": 8094,
      "चालुक्यों": 8095,
      "वर्तुळकार": 8096,
      "वर्गीकरण": 8097,
      "రిట్లలో": 8098,
      "భాగే,": 8099,
      "భావిస్తున్నది.": 8100,
      "స్థూలాదాయంలో": 8101,
      "పాండిచ్చేరి": 8102,
      "बाबासाहेब": 8103,
      "बायोस्फेअर": 8104,
      "बाबतीत": 8105,
      "भीमबेटका": 8106,
      "కితాబునిస్తు": 8107,
      "సాఫ్ట్‌వేర్,": 8108,
      "rights": 8109,
      "असैनिक": 8110,
      "సంక్రాంతి": 8111,
      "సందర్శించే": 8112,
      "रूपरेखा": 8113,
      "उत्खनन": 8114,
      "जीडीपी": 8115,
      "కావడం": 8116,
      "सिन्धु-गंगा": 8117,
      "consolid": 8118,
      "conducted": 8119,
      "రాజధానులు,": 8120,
      "resulting": 8121,
      "बहुपक्षीय": 8122,
      "बहुसंख्य": 8123,
      "క్రైస్తవులు": 8124,
      "తరతరాలుగా": 8125,
      "ప్రాజాస్వామ్య": 8126,
      "ప్రాముఖ్యతను": 8127,
      "ప్రాచుర్యము": 8128,
      "ప్రాసెస్": 8129,
      "ప్రాబల్యం": 8130,
      "కోవారంటో": 8131,
      "పేదరికం,": 8132,
      "సిద్ధించింది.": 8133,
      "తాజ్‌మహల్": 8134,
      "యాత్రికులు": 8135,
      "యావత్‌": 8136,
      "imperial": 8137,
      "सुधारणांचा": 8138,
      "सुमारास": 8139,
      "स्वतन्त्रता": 8140,
      "కాలపరిమితిక": 8141,
      "గుప్తులకాల": 8142,
      "గుత్తాధిపత్యం": 8143,
      "చేసుకోవడంతో": 8144,
      "కొనసాగుతోంది.": 8145,
      "వ్యవసాయం": 8146,
      "దేశాల్లోనూ": 8147,
      "త్వరలోనే": 8148,
      "लोकसंख्ये": 8149,
      "పాలకులనుండి": 8150,
      "శాశ్వత": 8151,
      "उपग्रह": 8152,
      "उपलब्ध": 8153,
      "దాటేసింది.": 8154,
      "పారిశ్రామిక": 8155,
      "మార్కెట్": 8156,
      "హిందువులైనప్పటికీ": 8157,
      "ब्रह्मपुत्र": 8158,
      "महत्वपूर्ण": 8159,
      "ఎన్నుకొనబడిన": 8160,
      "తురుష్కుల": 8161,
      "దక్షణాసియాలో": 8162,
      "పంచుకుంటోంది.": 8163,
      "మేరోః": 8164,
      "మేళవింపబడి": 8165,
      "మధ్యవర్తిత్వం": 8166,
      "కృష్ణా": 8167,
      "సుదీర్ఘ": 8168,
      "సుల్తానులు": 8169,
      "ప్రధానమంత్రికి": 8170,
      "భాషలలోను,": 8171,
      "అయితే,": 8172,
      "పెట్రోలియం": 8173,
      "పరిధిలో": 8174,
      "పరిఢవిల్లాయి.": 8175,
      "మిగిలిన": 8176,
      "లాభదాయకమేననీ,": 8177,
      "వర్ధిల్లిన": 8178,
      "స్వాధీనం": 8179,
      "मंत्रीमंडळ": 8180,
      "मतभेद": 8181,
      "స్థానే...).": 8182,
      "approximately": 8183,
      "मनोरंजन": 8184,
      "అతిశీతల": 8185,
      "ఉత్సాహంగా,": 8186,
      "ఉత్కృష్టమైన,": 8187,
      "జరిగాయి.": 8188,
      "పోటీలలో": 8189,
      "పోర్చుగల్": 8190,
      "మంజూరు": 8191,
      "ज्वालामुखी": 8192,
      "ఎక్కువైపోతున్నప్పటికీ,": 8193,
      "ఏర్పరచింది.": 8194,
      "పట్టాలెక్కనుంది.": 8195,
      "బహిరంగంగా": 8196,
      "సాధించిపెట్టారు.ప్రస్తుతము": 8197,
      "కాంగ్రెసేతర": 8198,
      "కేంద్రీకృతమై": 8199,
      "మొదటిసారిగా": 8200,
      "దక్షిణదిగ్భాగే,": 8201,
      "గోధుమ": 8202,
      "గోడుంబిళ్ళ": 8203,
      "జనగణన": 8204,
      "దుస్తులు.": 8205,
      "పరమోన్నత": 8206,
      "బ్రహ్మపుత్ర": 8207,
      "యోచనలో": 8208,
      "ప్రతినిధిచే": 8209,
      "రెండువైపులా": 8210,
      "नेतृत्‍व": 8211,
      "ఉపరాష్ట్రపతులు": 8212,
      "మైదానంతో": 8213,
      "యు.ఏ.ఇ": 8214,
      "యునైటెడ్": 8215,
      "రహదారులను": 8216,
      "వైశాల్యంలో": 8217,
      "విస్తీర్ణంతో": 8218,
      "నడిపిస్తామని": 8219,
      "यूरेशियन": 8220,
      "అనుమతిని": 8221,
      "అనువైనది.": 8222,
      "తెప్పించుకోవడానికి,": 8223,
      "పొడిగించుకోవచ్చని": 8224,
      "బిజినెస్": 8225,
      "రూపంలో)": 8226,
      "సమశీతోష్ణ": 8227,
      "సారవంతమైన": 8228,
      "సర్వసత్తాక,": 8229,
      "మొదలగువారు": 8230,
      "మొదలగునవి).": 8231,
      "అభిప్రాయపడుతున్నారు.": 8232,
      "సౌకర్యవంతంగా,": 8233,
      "121,01,93,422.": 8234,
      "पर्वतश्रेणी": 8235,
      "तमिलनाडु": 8236,
      "టెక్నాలజీ": 8237,
      "పదార్థాలు,": 8238,
      "పద్ధతులున్నాయి.": 8239,
      "వహిస్తాయి.": 8240,
      "నిర్మిస్తున్న": 8241,
      "dance-dramas": 8242,
      "१६३८ला": 8243,
      "అవసరమైతే": 8244,
      "ఆక్రమణదారులు,": 8245,
      "ఆక్రమించుకున్నారు.": 8246,
      "ఇవ్వబడిన": 8247,
      "కథకళి": 8248,
      "గెలిచిన": 8249,
      "తమిళనాడుకు": 8250,
      "మెహర్గర్,": 8251,
      "మౌఖికమైనది.": 8252,
      "లెజిస్లేచర్,": 8253,
      "సహాయకారిగా": 8254,
      "సూచనలు,": 8255,
      "పుట్టిల్లు.": 8256,
      "పుట్టుపూర్వోత్తరాలు": 8257,
      "సంఘర్షణలను": 8258,
      "ఒకేమాదిరిగా": 8259,
      "చేసింది.ఢాకా-ఢిల్లీ-లాహోర్": 8260,
      "వారసత్వాన్ని,": 8261,
      "శ్రీశైలస్య": 8262,
      "శ్రీరామనవమి": 8263,
      "కలిసివస్తుందని": 8264,
      "సాధించగలిగినది.": 8265,
      "సముద్రతీరము": 8266,
      "పేర్కొంటున్నారు.": 8267,
      "ద్వీప-దేశాలు.": 8268,
      "ఇస్లామాబాద్-టెహ్రాన్-ఇస్తాంబ": 8269,
      "జన్మనిచ్చింది.": 8270,
      "సంకీర్ణాలేకాగా": 8271,
      "स्वातंत्र्यप्राप्तीनंतर": 8272,
      "(0.9%)": 8273,
      "(3.72%),": 8274,
      "गिधाड": 8275,
      "ग्लेशियर": 8276,
      "అణ్వస్త్ర": 8277,
      "అంటార్క్‌టికాలో": 8278,
      "అప్పిలేట్": 8279,
      "ఇండో-ఆర్యన్": 8280,
      "ఐక్యరాజ్యసమితి": 8281,
      "చూపబడింది": 8282,
      "తేలికేననీ": 8283,
      "దర్శకుడైన": 8284,
      "నూటనలబైరెండుకోట్లకు": 8285,
      "నెరవేరతాయని": 8286,
      "పార్లమెంటరీ": 8287,
      "పల్లెల్లోని": 8288,
      "వంశంలోని": 8289,
      "శిలాగృహాలు,": 8290,
      "సెర్టియోరారి": 8291,
      "హైదరాబాద్,": 8292,
      "విశ్వనాథన్": 8293,
      "విశ్వామిత్ర": 8294,
      "విమానాశ్రయాలు": 8295,
      "కోల్‌కాతా": 8296,
      "వర్గీకరణలో": 8297,
      "నిర్మించినందువల్ల": 8298,
      "కూడుకొనినప్పటికినీ": 8299,
      "आवश्यक": 8300,
      "(ఆంగ్లేయులు)": 8301,
      "(టండ్రా)": 8302,
      "(బ్రెడ్,": 8303,
      "(గిల్లీ-దండా)": 8304,
      "32,87,263": 8305,
      "pharmaceutical": 8306,
      "अक्षुण्ण": 8307,
      "అలీనోద్యమంలో": 8308,
      "అశోకుడు": 8309,
      "అధిగమించి": 8310,
      "అహ్మదీయులు": 8311,
      "ఆవిర్భవించింది.": 8312,
      "ఆధ్యాత్మికత": 8313,
      "ఆడుతున్నవార్లలో": 8314,
      "ఆణిముత్యం.": 8315,
      "ఇతిహాసాలపై": 8316,
      "ఇముడ్చుకుంది.": 8317,
      "ఇన్‌ఫర్మేషన్": 8318,
      "ఋతుపవనాలు": 8319,
      "ఎమర్జెన్సీ": 8320,
      "ఎదుర్కొంటున్నది.": 8321,
      "ఒక్కొక్కటే": 8322,
      "ఔట్‌సొర్సింగ్": 8323,
      "కూచిపూడి": 8324,
      "చాళుక్యులు": 8325,
      "తారతమ్యాలున్నాయి.": 8326,
      "ఫుట్‌బాల్‌": 8327,
      "బంగాళాఖాతం": 8328,
      "బ్యాడ్మింటన్‌": 8329,
      "మినహాయించి,": 8330,
      "రవీంద్రనాథ్": 8331,
      "వన్యప్రాణుల": 8332,
      "నియోలిథిక్": 8333,
      "నిలబెట్టుకున్నాయి.": 8334,
      "తిరుగుబాటు": 8335,
      "ద్వైపాక్షిక": 8336,
      "కితాబునిస్తున్నారు.": 8337,
      "కాలపరిమితికి": 8338,
      "గుప్తులకాలం": 8339,
      "చేసింది.ఢాకా-ఢిల్లీ-లాహోర్‌ల": 8340,
      "ఇస్లామాబాద్-టెహ్రాన్-ఇస్తాంబుల్": 8341,
      ");": 8342,
      "0.": 8343,
      "140": 8344,
      "25": 8345,
      "3%": 8346,
      "35": 8347,
      "42": 8348,
      "45": 8349,
      "49": 8350,
      "4.0": 8351,
      "63": 8352,
      "600": 8353,
      "64%": 8354,
      "78": 8355,
      "74.0": 8356,
      "80": 8357,
      "Ak": 8358,
      "Ash": 8359,
      "Ba": 8360,
      "Bi": 8361,
      "Bang": 8362,
      "Bay": 8363,
      "CN": 8364,
      "Chi": 8365,
      "DA": 8366,
      "Dal": 8367,
      "Democ": 8368,
      "F)": 8369,
      "Fron": 8370,
      "HO": 8371,
      "IU": 8372,
      "Lank": 8373,
      "Mal": 8374,
      "Mar": 8375,
      "Mid": 8376,
      "Myan": 8377,
      "Nic": 8378,
      "Non-": 8379,
      "NDA": 8380,
      "PA": 8381,
      "Po": 8382,
      "Pre": 8383,
      "Pall": 8384,
      "She": 8385,
      "Sri": 8386,
      "To": 8387,
      "Tri": 8388,
      "Tem": 8389,
      "Treat": 8390,
      "UPA": 8391,
      "Va": 8392,
      "Vi": 8393,
      "WHO": 8394,
      "a.": 8395,
      "aic": 8396,
      "aut": 8397,
      "bon": 8398,
      "bes": 8399,
      "bly": 8400,
      "bri": 8401,
      "cu": 8402,
      "cin": 8403,
      "ced": 8404,
      "ces": 8405,
      "cle": 8406,
      "cul": 8407,
      "cut": 8408,
      "crit": 8409,
      "came": 8410,
      "cav": 8411,
      "crow": 8412,
      "clim": 8413,
      "cient": 8414,
      "could": 8415,
      "do": 8416,
      "dar": 8417,
      "dro": 8418,
      "e,": 8419,
      "ez": 8420,
      "fem": 8421,
      "fall": 8422,
      "gn": 8423,
      "gth": 8424,
      "gas": 8425,
      "get": 8426,
      "gain": 8427,
      "hu": 8428,
      "han": 8429,
      "hig": 8430,
      "ily": 8431,
      "ile": 8432,
      "igh": 8433,
      "ither": 8434,
      "ject": 8435,
      "jo-": 8436,
      "kh": 8437,
      "kame": 8438,
      "ls": 8439,
      "less": 8440,
      "law": 8441,
      "ladesh": 8442,
      "mal": 8443,
      "mig": 8444,
      "marg": 8445,
      "much": 8446,
      "mi)": 8447,
      "mamm": 8448,
      "nam": 8449,
      "nation": 8450,
      "near": 8451,
      "name": 8452,
      "pat": 8453,
      "pet": 8454,
      "past": 8455,
      "put": 8456,
      "pts": 8457,
      "ran": 8458,
      "round": 8459,
      "range": 8460,
      "sil": 8461,
      "smo": 8462,
      "sim": 8463,
      "slow": 8464,
      "sav": 8465,
      "sect": 8466,
      "somet": 8467,
      "tre": 8468,
      "test": 8469,
      "ty,": 8470,
      "text": 8471,
      "ues": 8472,
      "uent": 8473,
      "vic": 8474,
      "vis": 8475,
      "varn": 8476,
      "would": 8477,
      "yal": 8478,
      "ze": 8479,
      "thor": 8480,
      "threat": 8481,
      "th-largest": 8482,
      "those": 8483,
      "anch": 8484,
      "anag": 8485,
      "anies": 8486,
      "anted": 8487,
      "anism": 8488,
      "another": 8489,
      "init": 8490,
      "ining": 8491,
      "inated": 8492,
      "institution": 8493,
      "then": 8494,
      "these": 8495,
      "era": 8496,
      "ergenc": 8497,
      "ond": 8498,
      "onial": 8499,
      "recent": 8500,
      "reco": 8501,
      "refer": 8502,
      "reven": 8503,
      "ales": 8504,
      "als,": 8505,
      "alwar": 8506,
      "stand": 8507,
      "stren": 8508,
      "ened": 8509,
      "ensive": 8510,
      "energy": 8511,
      "dient": 8512,
      "dise": 8513,
      "diment": 8514,
      "discri": 8515,
      "ats": 8516,
      "ator": 8517,
      "atical": 8518,
      "ature": 8519,
      "aries": 8520,
      "edul": 8521,
      "and,": 8522,
      "anding": 8523,
      "oro": 8524,
      "oral": 8525,
      "orally": 8526,
      "ion,": 8527,
      "Indira": 8528,
      "ities": 8529,
      "isol": 8530,
      "ings": 8531,
      "19th": 8532,
      "1900": 8533,
      "oming": 8534,
      "enter": 8535,
      "town": 8536,
      "total": 8537,
      "today": 8538,
      "oul": 8539,
      "ech": 8540,
      "20th": 8541,
      "2019": 8542,
      "2024": 8543,
      "urid": 8544,
      "urred": 8545,
      "leve": 8546,
      "ilway": 8547,
      "ample": 8548,
      "ada": 8549,
      "adop": 8550,
      "addition": 8551,
      "added": 8552,
      "adher": 8553,
      "lied": 8554,
      "lies": 8555,
      "like": 8556,
      "role": 8557,
      "embly": 8558,
      "ched": 8559,
      "chain": 8560,
      "chang": 8561,
      "chos": 8562,
      "churid": 8563,
      "cean": 8564,
      "rap": 8565,
      "rather": 8566,
      "railway": 8567,
      "olved": 8568,
      "eta": 8569,
      "eter": 8570,
      "veget": 8571,
      "estic": 8572,
      "ush": 8573,
      "uscri": 8574,
      "conce": 8575,
      "loss": 8576,
      "loose": 8577,
      "res,": 8578,
      "reser": 8579,
      "del": 8580,
      "devo": 8581,
      "moist": 8582,
      "ung": 8583,
      "uni": 8584,
      "irt": 8585,
      "being": 8586,
      "beli": 8587,
      "belong": 8588,
      "bell": 8589,
      "separ": 8590,
      "seals": 8591,
      "severe": 8592,
      "export": 8593,
      "exchange": 8594,
      "example": 8595,
      "imes": 8596,
      "abad": 8597,
      "pover": 8598,
      "six": 8599,
      "romise": 8600,
      "due": 8601,
      "duct": 8602,
      "sovere": 8603,
      "2011,": 8604,
      "aced": 8605,
      "action": 8606,
      "acter": 8607,
      "across": 8608,
      "income": 8609,
      "2007": 8610,
      "2009": 8611,
      "spic": 8612,
      "comm": 8613,
      "ity,": 8614,
      "1,000": 8615,
      "co-": 8616,
      "sha": 8617,
      "shor": 8618,
      "share": 8619,
      "1998": 8620,
      "1991,": 8621,
      "ided": 8622,
      "ending": 8623,
      "ples": 8624,
      "protec": 8625,
      "process": 8626,
      "26%": 8627,
      "forms": 8628,
      "formal": 8629,
      "having": 8630,
      "wealth": 8631,
      "parts": 8632,
      "partic": 8633,
      "anta": 8634,
      "ivity": 8635,
      "oppos": 8636,
      "ryan": 8637,
      "assert": 8638,
      "becoming": 8639,
      "marked": 8640,
      "ally,": 8641,
      "century.": 8642,
      "centuries,": 8643,
      "latter": 8644,
      "west,": 8645,
      "1950s,": 8646,
      "Thar": 8647,
      "languag": 8648,
      "year.": 8649,
      "Indones": 8650,
      "1989": 8651,
      "government,": 8652,
      "governments": 8653,
      "decade": 8654,
      "primary": 8655,
      "regions.": 8656,
      "populous": 8657,
      "inequality": 8658,
      "anced": 8659,
      "extensive": 8660,
      "predomin": 8661,
      "ralian": 8662,
      "ricket": 8663,
      "tradition.": 8664,
      "gradually": 8665,
      "ward": 8666,
      "them.": 8667,
      "ministers.": 8668,
      "oka": 8669,
      "companies": 8670,
      "compromise": 8671,
      "cause": 8672,
      "eff": 8673,
      "2%.": 8674,
      "cultural": 8675,
      "cultures": 8676,
      "maintain": 8677,
      "itions": 8678,
      "urbanisation": 8679,
      "Asia,": 8680,
      "30,000": 8681,
      "east.": 8682,
      "merch": 8683,
      "trade": 8684,
      "language\"": 8685,
      "history": 8686,
      "numbers": 8687,
      "Buddha": 8688,
      "folk": 8689,
      "follow": 8690,
      "supported": 8691,
      "Ancient": 8692,
      "Euras": 8693,
      "rising": 8694,
      "setting": 8695,
      "ustralian": 8696,
      "expans": 8697,
      "16.6%": 8698,
      "subcontinent,": 8699,
      "classical,": 8700,
      ".8%": 8701,
      "basin": 8702,
      "president": 8703,
      "styles": 8704,
      "signed": 8705,
      "parliament.": 8706,
      "13th": 8707,
      "Mohen": 8708,
      "armies": 8709,
      "office": 8710,
      "leader,": 8711,
      "Punjab,": 8712,
      "Sikhism": 8713,
      "coll": 8714,
      "colonial": 8715,
      "gave": 8716,
      "manuscri": 8717,
      "disputes": 8718,
      "appear": 8719,
      "mathematical": 8720,
      "culture.": 8721,
      "Himalayan": 8722,
      "kilometres": 8723,
      "drain": 8724,
      "obar": 8725,
      "schedul": 8726,
      "tribal": 8727,
      "ago,": 8728,
      "script": 8729,
      "transmit": 8730,
      "time,": 8731,
      "originally": 8732,
      "Janata": 8733,
      "breath": 8734,
      "crucial": 8735,
      "census,": 8736,
      "factor": 8737,
      "valu": 8738,
      "wana": 8739,
      "remaining": 8740,
      "status": 8741,
      "2012–": 8742,
      "mediately": 8743,
      "marriages": 8744,
      "birthplace": 8745,
      "Arabian": 8746,
      "Desert": 8747,
      "heredit": 8748,
      "natal": 8749,
      "summer": 8750,
      "contains": 8751,
      "endemic": 8752,
      "Indo-Aryan": 8753,
      "Indo-Australian": 8754,
      "Islamic": 8755,
      "mathematics": 8756,
      "North": 8757,
      "average": 8758,
      "broad": 8759,
      "guard": 8760,
      "makes": 8761,
      "village": 8762,
      "independence": 8763,
      "strong": 8764,
      "organisation": 8765,
      "liberal": 8766,
      "respon": 8767,
      "increasingly": 8768,
      "currenc": 8769,
      "structive": 8770,
      "employed": 8771,
      "Assembly": 8772,
      "Civilisation": 8773,
      "Deccan": 8774,
      "Gupta": 8775,
      "Gujar": 8776,
      "habit": 8777,
      "safe": 8778,
      "written": 8779,
      "wildlife": 8780,
      "introduced": 8781,
      "reached": 8782,
      "ission": 8783,
      "character": 8784,
      "consists": 8785,
      "self": 8786,
      "Constituent": 8787,
      "Maurya": 8788,
      "contributions": 8789,
      "capita": 8790,
      "architecture": 8791,
      "practic": 8792,
      "74.04%": 8793,
      "Ashoka": 8794,
      "Bangladesh": 8795,
      "Front": 8796,
      "IUCN": 8797,
      "Middle": 8798,
      "Myanmar": 8799,
      "Nicobar": 8800,
      "Post": 8801,
      "Pallav": 8802,
      "daro": 8803,
      "hub": 8804,
      "jo-daro": 8805,
      "kameez": 8806,
      "laws": 8807,
      "sector": 8808,
      "sometimes": 8809,
      "victor": 8810,
      "recogn": 8811,
      "revenues": 8812,
      "strength": 8813,
      "discrimin": 8814,
      "chosen": 8815,
      "devotion": 8816,
      "bellion": 8817,
      "sovereign": 8818,
      "protected": 8819,
      "Indonesia": 8820,
      "Mohenjo-daro": 8821,
      "scheduled": 8822,
      "transmitted": 8823,
      "\")": 8824,
      "\"पूर्व": 8825,
      "\"इंड": 8826,
      "\"आस": 8827,
      "$2": 8828,
      "$४": 8829,
      "$६": 8830,
      "$८": 8831,
      "$1,": 8832,
      "$१७": 8833,
      "$24": 8834,
      "$64": 8835,
      "'भारत": 8836,
      "'भा": 8837,
      "'राष्ट्र": 8838,
      "'रत": 8839,
      "(7": 8840,
      "(I": 8841,
      "(i": 8842,
      "(ओ": 8843,
      "(ध": 8844,
      "(४": 8845,
      "(या": 8846,
      "(en": 8847,
      "(से": 8848,
      "(भा": 8849,
      "(राज": 8850,
      "(१९": 8851,
      "(ce": 8852,
      "(केंद्र": 8853,
      "(सर्व": 8854,
      "(हिन्दी": 8855,
      "(Ch": 8856,
      "(नंतर": 8857,
      "(कॉ": 8858,
      "(15": 8859,
      "(कॉंग्रेस": 8860,
      "(सम्": 8861,
      "(लगभग": 8862,
      "(२.": 8863,
      "(भाजपा": 8864,
      "(आधिकारिक": 8865,
      "(including": 8866,
      "(1947,": 8867,
      "(इ.स.": 8868,
      "(Ar": 8869,
      "(शिवा": 8870,
      "(untouch": 8871,
      "(आता": 8872,
      "(३,": 8873,
      "(1961": 8874,
      "(फ्रेंच": 8875,
      "(मार्च": 8876,
      "(लौटना": 8877,
      "(जीडीपी": 8878,
      "(imperial": 8879,
      "):": 8880,
      ")|": 8881,
      ")।": 8882,
      ",4": 8883,
      ",ज": 8884,
      ",५": 8885,
      ",६": 8886,
      "-k": 8887,
      "-फ": 8888,
      "-७": 8889,
      "-In": 8890,
      "-राज्य": 8891,
      "-दक्षिण": 8892,
      "-साथ": 8893,
      "-व्यव": 8894,
      "-रूप": 8895,
      "-तृ": 8896,
      "-वैदिक": 8897,
      "-year": 8898,
      "-15": 8899,
      "-sc": 8900,
      "-सित": 8901,
      "-प्राप्त": 8902,
      "-प्रधानमंत्री": 8903,
      "-अपने": 8904,
      "-अलग": 8905,
      "-जु": 8906,
      "-१६": 8907,
      "-१९५०": 8908,
      "-तरह": 8909,
      "-संघीय": 8910,
      "-सांस्कृतिक": 8911,
      "-छोटे": 8912,
      "-ga": 8913,
      "-majority": 8914,
      "-14": 8915,
      "-कप": 8916,
      "-पाँच": 8917,
      "-आर्य": 8918,
      "-body": 8919,
      "-style": 8920,
      "-अफ": 8921,
      "-उल": 8922,
      "-वेरू": 8923,
      "-स्थल": 8924,
      "-रिवाज": 8925,
      "-सूत्र": 8926,
      "-गुजरा": 8927,
      "-grandmother": 8928,
      "-Chi": 8929,
      ".9": 8930,
      ".१": 8931,
      ".७": 8932,
      ".2%": 8933,
      ".5%": 8934,
      ".३८": 8935,
      ".1%": 8936,
      ".३७": 8937,
      ".४६": 8938,
      "/बोली": 8939,
      "0.7": 8940,
      "1st": 8941,
      "11.": 8942,
      "2200": 8943,
      "21,": 8944,
      "2.8": 8945,
      "31": 8946,
      "34": 8947,
      "3000": 8948,
      "3.3": 8949,
      "3.9": 8950,
      "4,": 8951,
      "426": 8952,
      "4,000": 8953,
      "46%": 8954,
      "462": 8955,
      "6.": 8956,
      "6th": 8957,
      "672": 8958,
      "6.4": 8959,
      "7th": 8960,
      "700": 8961,
      "70%": 8962,
      "75%": 8963,
      "7.5%": 8964,
      "76.4": 8965,
      "8%)": 8966,
      "9000": 8967,
      "92,": 8968,
      "Aj": 8969,
      "At": 8970,
      "Ach": 8971,
      "Aut": 8972,
      "Bal": 8973,
      "Bet": 8974,
      "Cl": 8975,
      "Cup": 8976,
      "Cav": 8977,
      "Carn": 8978,
      "Cricket": 8979,
      "De": 8980,
      "Dis": 8981,
      "Dom": 8982,
      "Dem": 8983,
      "Dance": 8984,
      "Ex": 8985,
      "Ear": 8986,
      "Fol": 8987,
      "Gr": 8988,
      "Gang": 8989,
      "Gond": 8990,
      "II": 8991,
      "IM": 8992,
      "IR": 8993,
      "Im": 8994,
      "Jhar": 8995,
      "Jaw": 8996,
      "Jamm": 8997,
      "June": 8998,
      "Ko": 8999,
      "Kal": 9000,
      "Keral": 9001,
      "Kaver": 9002,
      "KF)": 9003,
      "LT": 9004,
      "Lat": 9005,
      "Laksh": 9006,
      "Me": 9007,
      "Man": 9008,
      "Min": 9009,
      "Mon": 9010,
      "Mem": 9011,
      "Mum": 9012,
      "Ni": 9013,
      "No": 9014,
      "Nat": 9015,
      "Network": 9016,
      "Oc": 9017,
      "Or": 9018,
      "Our": 9019,
      "Old": 9020,
      "Ocean": 9021,
      "P.": 9022,
      "PI": 9023,
      "PP": 9024,
      "Pl": 9025,
      "Par": 9026,
      "Part": 9027,
      "President": 9028,
      "PKF)": 9029,
      "Ro": 9030,
      "Red": 9031,
      "Ram": 9032,
      "Rain": 9033,
      "So": 9034,
      "Sin": 9035,
      "Sim": 9036,
      "Sab": 9037,
      "Sum": 9038,
      "Shi": 9039,
      "Sant": 9040,
      "Some": 9041,
      "Sarn": 9042,
      "Sultanate": 9043,
      "SIR": 9044,
      "TE": 9045,
      "Ti": 9046,
      "Ter": 9047,
      "Tit": 9048,
      "Tha": 9049,
      "TIM": 9050,
      "Ur": 9051,
      "V.": 9052,
      "Vaj": 9053,
      "Vedic": 9054,
      "Winter": 9055,
      "Yaksh": 9056,
      "Zoro": 9057,
      "aː": 9058,
      "aem": 9059,
      "aim": 9060,
      "aism": 9061,
      "ahar": 9062,
      "ba": 9063,
      "bul": 9064,
      "bour": 9065,
      "buc": 9066,
      "brough": 9067,
      "bai": 9068,
      "bron": 9069,
      "bably": 9070,
      "cr": 9071,
      "cat": 9072,
      "cil": 9073,
      "cro": 9074,
      "care": 9075,
      "cover": 9076,
      "cere": 9077,
      "cris": 9078,
      "cust": 9079,
      "creasing": 9080,
      "da": 9081,
      "dy": 9082,
      "dre": 9083,
      "dent": 9084,
      "dem": 9085,
      "dest": 9086,
      "dus": 9087,
      "dry": 9088,
      "dates": 9089,
      "e;": 9090,
      "eous": 9091,
      "either": 9092,
      "fr": 9093,
      "fil": 9094,
      "ful": 9095,
      "fest": 9096,
      "flo": 9097,
      "fare": 9098,
      "foun": 9099,
      "fish": 9100,
      "flow": 9101,
      "fav": 9102,
      "fused": 9103,
      "farm": 9104,
      "flower": 9105,
      "fash": 9106,
      "gl": 9107,
      "gin": 9108,
      "gon": 9109,
      "gro": 9110,
      "give": 9111,
      "gig": 9112,
      "gation,": 9113,
      "gods": 9114,
      "hā": 9115,
      "hal": 9116,
      "hor": 9117,
      "ham": 9118,
      "hol": 9119,
      "hun": 9120,
      "hous": 9121,
      "if": 9122,
      "ix": 9123,
      "ith": 9124,
      "idu": 9125,
      "ified": 9126,
      "jo": 9127,
      "jur": 9128,
      "jac": 9129,
      "jay": 9130,
      "ks": 9131,
      "kur": 9132,
      "kill": 9133,
      "kho": 9134,
      "lal": 9135,
      "lic": 9136,
      "leng": 9137,
      "lared": 9138,
      "ms": 9139,
      "may": 9140,
      "mers": 9141,
      "mns": 9142,
      "mix": 9143,
      "nd": 9144,
      "nin": 9145,
      "ner": 9146,
      "non": 9147,
      "nar": 9148,
      "nit": 9149,
      "nic": 9150,
      "next": 9151,
      "network": 9152,
      "oth": 9153,
      "oor": 9154,
      "oli": 9155,
      "och": 9156,
      "ove": 9157,
      "osystems": 9158,
      "pa": 9159,
      "pi": 9160,
      "phe": 9161,
      "pil": 9162,
      "pically": 9163,
      "paren": 9164,
      "push": 9165,
      "ring": 9166,
      "rical": 9167,
      "ranges": 9168,
      "son": 9169,
      "sar": 9170,
      "she": 9171,
      "sol": 9172,
      "saw": 9173,
      "tand": 9174,
      "tun": 9175,
      "tex": 9176,
      "ties": 9177,
      "treas": 9178,
      "treat": 9179,
      "tection": 9180,
      "tled": 9181,
      "table": 9182,
      "uk": 9183,
      "ude": 9184,
      "ufac": 9185,
      "vas": 9186,
      "ves": 9187,
      "vary": 9188,
      "wed": 9189,
      "wing": 9190,
      "wet": 9191,
      "wel": 9192,
      "zed": 9193,
      "zes": 9194,
      "°E": 9195,
      "°N": 9196,
      "νδ": 9197,
      "ँट": 9198,
      "ँस": 9199,
      "ँगर": 9200,
      "ँटा": 9201,
      "ं,": 9202,
      "ंख": 9203,
      "ंज": 9204,
      "ंव": 9205,
      "ंकी": 9206,
      "ंभा": 9207,
      "ंहा": 9208,
      "ंते": 9209,
      "ंबा": 9210,
      "ंभी": 9211,
      "ंतक": 9212,
      "ंसाह": 9213,
      "ंतील": 9214,
      "ंटे": 9215,
      "ंसाठी": 9216,
      "ंरिक": 9217,
      "ंवरील": 9218,
      "ंसोबत": 9219,
      "ंटर": 9220,
      "ंजू": 9221,
      "ःख": 9222,
      "अट": 9223,
      "अल": 9224,
      "अश": 9225,
      "अ‍": 9226,
      "अवि": 9227,
      "अले": 9228,
      "अराज": 9229,
      "अद्": 9230,
      "अनि": 9231,
      "अलि": 9232,
      "अत्या": 9233,
      "अप्": 9234,
      "अदा": 9235,
      "अंब": 9236,
      "अतिक": 9237,
      "अशिय": 9238,
      "अध्या": 9239,
      "अमीर": 9240,
      "अंक": 9241,
      "अलां": 9242,
      "अक्षर": 9243,
      "अल्प": 9244,
      "अस्थि": 9245,
      "अट्ट": 9246,
      "अयशस्वी": 9247,
      "अहम": 9248,
      "अ-वैदिक": 9249,
      "आख": 9250,
      "आन": 9251,
      "आया": 9252,
      "आती": 9253,
      "आपा": 9254,
      "आश्": 9255,
      "आकृ": 9256,
      "आयु": 9257,
      "आल्या": 9258,
      "आंध": 9259,
      "आजा": 9260,
      "आभू": 9261,
      "आशिया": 9262,
      "आवं": 9263,
      "आमत": 9264,
      "आले.": 9265,
      "आमू": 9266,
      "आदर": 9267,
      "आफ्र": 9268,
      "आकडे": 9269,
      "आवंट": 9270,
      "आया।": 9271,
      "आवास": 9272,
      "आल्या.": 9273,
      "आमंत्रण": 9274,
      "आकडा": 9275,
      "आस्ट्रे": 9276,
      "आत्म": 9277,
      "आजीविका": 9278,
      "इओ": 9279,
      "इर": 9280,
      "इ़": 9281,
      "इका": 9282,
      "इया": 9283,
      "इला": 9284,
      "इन्": 9285,
      "इजा": 9286,
      "इंद्र": 9287,
      "इज़": 9288,
      "इयों": 9289,
      "इव्": 9290,
      "इंजी": 9291,
      "इडर": 9292,
      "इंटर": 9293,
      "ई;": 9294,
      "ईर": 9295,
      "ईस्वी": 9296,
      "ईसवी": 9297,
      "उठ": 9298,
      "उभा": 9299,
      "उतर": 9300,
      "उपा": 9301,
      "उद्ध": 9302,
      "उसी": 9303,
      "उदार": 9304,
      "उदर": 9305,
      "उधार": 9306,
      "उड़ी": 9307,
      "उंच": 9308,
      "उगम": 9309,
      "उचित": 9310,
      "उथल": 9311,
      "उल्ले": 9312,
      "उंट": 9313,
      "उदेश्य": 9314,
      "उन्नति": 9315,
      "ऊस": 9316,
      "ऊंची": 9317,
      "ऊपरी": 9318,
      "ऋग्वेद": 9319,
      "एज": 9320,
      "एफ": 9321,
      "एल": 9322,
      "एवि": 9323,
      "एकी": 9324,
      "एन्": 9325,
      "एवर": 9326,
      "एंड": 9327,
      "एयर": 9328,
      "एतद्": 9329,
      "एक्स": 9330,
      "ऐं": 9331,
      "ऐतिहा": 9332,
      "ऑल": 9333,
      "ऑफ़": 9334,
      "ऑक्ट": 9335,
      "ओस": 9336,
      "ओसा": 9337,
      "ओव्या": 9338,
      "ओडिया": 9339,
      "औप": 9340,
      "औष": 9341,
      "कण": 9342,
      "कळ": 9343,
      "क़": 9344,
      "कै": 9345,
      "कौ": 9346,
      "क्या": 9347,
      "कने": 9348,
      "कसे": 9349,
      "कना": 9350,
      "कता": 9351,
      "कथा": 9352,
      "कहा": 9353,
      "कमान": 9354,
      "कलि": 9355,
      "कल्": 9356,
      "कल्या": 9357,
      "कमो": 9358,
      "कम्": 9359,
      "क्यात": 9360,
      "कच्": 9361,
      "कंब": 9362,
      "कपड": 9363,
      "काता": 9364,
      "ककला": 9365,
      "कड़ी": 9366,
      "कमानव": 9367,
      "कट्ट": 9368,
      "कमानी": 9369,
      "क्यांचा": 9370,
      "क-रूप": 9371,
      "खट": 9372,
      "खड": 9373,
      "ख्य": 9374,
      "ख्र": 9375,
      "खर्": 9376,
      "खान": 9377,
      "खले": 9378,
      "खाना": 9379,
      "खण्ड": 9380,
      "खजु": 9381,
      "खलां": 9382,
      "खदेव": 9383,
      "खिला": 9384,
      "खगोल": 9385,
      "ग,": 9386,
      "गझ": 9387,
      "गट": 9388,
      "गळ": 9389,
      "गौ": 9390,
      "गार": 9391,
      "गिक": 9392,
      "गती": 9393,
      "गित": 9394,
      "गंड": 9395,
      "गर्म": 9396,
      "गृत": 9397,
      "गलु": 9398,
      "गच्छ": 9399,
      "गलां": 9400,
      "गमर": 9401,
      "गृह": 9402,
      "गरीबी": 9403,
      "गतासाठी": 9404,
      "गंभी": 9405,
      "घि": 9406,
      "घ्र": 9407,
      "घरा": 9408,
      "घतात.": 9409,
      "घोड़": 9410,
      "घडा": 9411,
      "घदू": 9412,
      "घराण": 9413,
      "घंटे": 9414,
      "चम": 9415,
      "चव": 9416,
      "चू": 9417,
      "चें": 9418,
      "चिक": 9419,
      "चने": 9420,
      "चले": 9421,
      "चतु": 9422,
      "चणी": 9423,
      "चैन": 9424,
      "चंद": 9425,
      "चयन": 9426,
      "चन्द्र": 9427,
      "चूण": 9428,
      "चट्ट": 9429,
      "चपाती": 9430,
      "चंडी": 9431,
      "छ:": 9432,
      "छट": 9433,
      "छे": 9434,
      "छले": 9435,
      "छत्र": 9436,
      "छित": 9437,
      "छठा": 9438,
      "ज,": 9439,
      "जम": 9440,
      "जर": 9441,
      "जव": 9442,
      "जान": 9443,
      "जत्र": 9444,
      "जित": 9445,
      "जर्व": 9446,
      "जड़": 9447,
      "ज्ये": 9448,
      "जरी": 9449,
      "जर्म": 9450,
      "ज्यां": 9451,
      "जरे": 9452,
      "जटि": 9453,
      "जनाव": 9454,
      "ज्यात": 9455,
      "जशी": 9456,
      "जांच्या": 9457,
      "जवान": 9458,
      "जमले": 9459,
      "जानी": 9460,
      "जपुरी": 9461,
      "झु": 9462,
      "झां": 9463,
      "झगड": 9464,
      "झिक,": 9465,
      "झपाट": 9466,
      "टत": 9467,
      "टस": 9468,
      "टॉ": 9469,
      "ट्": 9470,
      "ट्र": 9471,
      "टें": 9472,
      "टान": 9473,
      "टते": 9474,
      "टून": 9475,
      "टनी": 9476,
      "टये": 9477,
      "ट्रा": 9478,
      "टियाँ": 9479,
      "टकों": 9480,
      "टकरा": 9481,
      "टंकी": 9482,
      "टक्या": 9483,
      "ठर": 9484,
      "ठसा": 9485,
      "ठची": 9486,
      "ठित": 9487,
      "ठंड": 9488,
      "ठहर": 9489,
      "ठला.": 9490,
      "ठ्याचे": 9491,
      "डम": 9492,
      "डु": 9493,
      "डॅ": 9494,
      "डो": 9495,
      "डारत": 9496,
      "डया": 9497,
      "डच्या": 9498,
      "डां": 9499,
      "डून": 9500,
      "डल्या": 9501,
      "डिक्": 9502,
      "डण्यात": 9503,
      "डतो.": 9504,
      "डमक": 9505,
      "डियाँ": 9506,
      "डप्पा": 9507,
      "डसॉ": 9508,
      "डान्": 9509,
      "डियो": 9510,
      "ड्यांच्या": 9511,
      "ढि": 9512,
      "ढी": 9513,
      "ढो": 9514,
      "ढती": 9515,
      "ढां": 9516,
      "ढलु": 9517,
      "ढण्यात": 9518,
      "ढांचे": 9519,
      "णत्या": 9520,
      "णारी": 9521,
      "णियों": 9522,
      "त:": 9523,
      "तह": 9524,
      "तै": 9525,
      "तमा": 9526,
      "तति": 9527,
      "तून": 9528,
      "तारी": 9529,
      "तशी": 9530,
      "तदु": 9531,
      "तियाँ": 9532,
      "तटर": 9533,
      "तौर": 9534,
      "तियां": 9535,
      "तकरी": 9536,
      "थक": 9537,
      "थर": 9538,
      "थि": 9539,
      "थमधील": 9540,
      "दद": 9541,
      "दश": 9542,
      "दृ": 9543,
      "दक्": 9544,
      "दों": 9545,
      "दित": 9546,
      "दड़": 9547,
      "दस्त": 9548,
      "दाने": 9549,
      "दंगा": 9550,
      "द्याने": 9551,
      "दसरा": 9552,
      "दसव": 9553,
      "दगडा": 9554,
      "दंतक": 9555,
      "दडो": 9556,
      "धे": 9557,
      "ध्": 9558,
      "धक्": 9559,
      "ध्ये": 9560,
      "धातील": 9561,
      "धारा": 9562,
      "धारी": 9563,
      "ध्यात": 9564,
      "धरो": 9565,
      "धियाँ": 9566,
      "धाम": 9567,
      "ध-संघीय": 9568,
      "नए": 9569,
      "नम": 9570,
      "नॅ": 9571,
      "नो": 9572,
      "न‍": 9573,
      "न’": 9574,
      "नका": 9575,
      "नों": 9576,
      "नक्ष": 9577,
      "नारा": 9578,
      "नाने": 9579,
      "नंत": 9580,
      "नरे": 9581,
      "नव्या": 9582,
      "नवं": 9583,
      "नाता": 9584,
      "नकल": 9585,
      "नरी,": 9586,
      "निक्ष": 9587,
      "नचंद": 9588,
      "नडु": 9589,
      "पए": 9590,
      "पच": 9591,
      "पस": 9592,
      "पॅ": 9593,
      "पॉ": 9594,
      "पौ": 9595,
      "प्य": 9596,
      "पें": 9597,
      "पिक": 9598,
      "पला": 9599,
      "पदे": 9600,
[...]
